#version: 0.2
l n
ln ></w>
< ln></w>
中 国</w>
2 0
20 1
一 个</w>
s e
c l
我 们</w>
se p
sep ></w>
s ></w>
cl s></w>
< sep></w>
< cls></w>
公 司</w>
没 有</w>
自 己</w>
工 作</w>
记 者</w>
问 题</w>
美 国</w>
可 以</w>
发 展</w>
1 0
国 家</w>
他 们</w>
这 个</w>
进 行</w>
企 业</w>
表 示</w>
已 经</w>
经 济</w>
市 场</w>
时 间</w>
什 么</w>
1 9
因 为</w>
可 能</w>
政 府</w>
如 果</w>
0 0</w>
通 过</w>
人 员</w>
社 会</w>
孩 子</w>
这 些</w>
报 道</w>
新 闻</w>
目 前</w>
第 一</w>
情 况</w>
北 京</w>
这 样</w>
开 始</w>
认 为</w>
发 现</w>
需 要</w>
相 关</w>
时 候</w>
世 界</w>
一 些</w>
很 多</w>
1 2
成 为</w>
方 面</w>
现 在</w>
1 1
要 求</w>
生 活</w>
服 务</w>
但 是</w>
信 息</w>
人 民
管 理</w>
部 门</w>
建 设</w>
今 年</w>
大 学</w>
重 要</w>
技 术</w>
学 生</w>
对 于</w>
城 市</w>
还 是</w>
同 时</w>
发 生</w>
安 全</w>
媒 体</w>
部 分</w>
出 现</w>
— —</w>
作 为</w>
0 0
投 资</w>
所 以</w>
影 响</w>
调 查</w>
其 中</w>
国 际</w>
改 革</w>
人 民</w>
关 系</w>
组 织</w>
平 台</w>
产 品</w>
全 国</w>
中 央</w>
网 络</w>
主 要</w>
项 目</w>
知 道</w>
行 为</w>
政 策</w>
这 种</w>
教 育</w>
其 他</w>
以 及</w>
日 本</w>
数 据</w>
提 供</w>
20 0
8 年</w>
非 常</w>
7 年</w>
大 家</w>
之 后</w>
关 注</w>
中 心</w>
手 机</w>
发 布</w>
规 定</w>
美 元</w>
科 技</w>
研 究</w>
还 有</w>
地 区</w>
显 示</w>
活 动</w>
看 到</w>
合 作</w>
方 式</w>
一 直</w>
责 任</w>
图 片</w>
使 用</w>
根 据</w>
文 化</w>
1 0</w>
增 长</w>
金 融</w>
6 年</w>
机 构</w>
为 了</w>
9 月</w>
希 望</w>
行 业</w>
进 入</w>
存 在</w>
甚 至</w>
包 括</w>
实 现</w>
银 行</w>
当 时</w>
应 该</w>
就 是</w>
环 境</w>
一 定</w>
地 方</w>
所 有</w>
书 记</w>
价 格</w>
历 史</w>
法 院</w>
… …</w>
未 来</w>
消 息</w>
能 力</w>
8 月</w>
事 件</w>
或 者</w>
5 年</w>
第 二</w>
那 么</w>
网 友</w>
法 律</w>
2 0</w>
领 导</w>
i n
了 解</w>
微 信</w>
医 院</w>
3 0
提 出</w>
201 7年</w>
觉 得</w>
用 户</w>
选 择</w>
系 统</w>
有 关</w>
集 团</w>
学 校</w>
全 球</w>
联 网</w>
今 天</w>
上 海</w>
一 起</w>
不 过</w>
不 同</w>
接 受</w>
创 新</w>
继 续</w>
10 月</w>
解 决</w>
虽 然</w>
1 5
视 频</w>
超 过</w>
支 持</w>
过 程</w>
其 实</w>
内 容</w>
微 博</w>
制 度</w>
全 面</w>
结 果</w>
主 义</w>
起 来</w>
关 于</w>
个 人</w>
打 开</w>
正 在</w>
如 何</w>
新 华
严 重</w>
网 易</w>
能 够</w>
告 诉</w>
201 8年</w>
最 后</w>
1 .
资 金</w>
现 场</w>
1 日</w>
由 于</w>
我 国</w>
互 联网</w>
201 6年</w>
7 月</w>
业 务</w>
以 来</w>
朋 友</w>
不 断</w>
特 别</w>
会 议</w>
一 样</w>
决 定</w>
必 须</w>
出 来</w>
11 月</w>
干 部</w>
领 域</w>
而 且</w>
原 因</w>
查 看</w>
学 习</w>
收 入</w>
介 绍</w>
处 理</w>
保 护</w>
产 业</w>
获 得</w>
警 方</w>
时 代</w>
先 生</w>
4 年</w>
政 治</w>
实 施</w>
怎 么</w>
直 接</w>
来 源</w>
单 位</w>
标 准</w>
代 表</w>
机 关</w>
精 彩</w>
8 日</w>
事 情</w>
报 告</w>
基 本</w>
当 地</w>
比 较</w>
精 神</w>
12 月</w>
计 划</w>
案 件</w>
基 础</w>
是 否</w>
任 何</w>
达 到</w>
文 章</w>
以 上</w>
犯 罪</w>
生 产</w>
加 强</w>
风 险</w>
完 成</w>
推 进</w>
因 此</w>
7 日</w>
一 步</w>
6 日</w>
新华 社</w>
提 高</w>
进 一步</w>
来 说</w>
导 致</w>
开 展</w>
老 师</w>
无 法</w>
造 成</w>
坚 持</w>
之 前</w>
3 日</w>
过 去</w>
按 照</w>
国 内</w>
电 话</w>
4 日</w>
增 加</w>
小 时</w>
家 庭</w>
持 续</w>
汽 车</w>
人 士</w>
最 终</w>
6 月</w>
期 间</w>
之 间</w>
3 0</w>
有 限
这 么</w>
o n
有限 公司</w>
去 年</w>
201 5年</w>
香 港</w>
群 众</w>
得 到</w>
成 功</w>
公 众</w>
研 究
来 自</w>
参 加</w>
日 报</w>
资 源</w>
战 略</w>
建 立</w>
不 仅</w>
标 题</w>
健 康</w>
左 右</w>
新 浪</w>
水 平</w>
a n
形 成</w>
指 出</w>
作 用</w>
推 动</w>
2 .
不 少</w>
网 站</w>
带 来</w>
公 开</w>
人民 币</w>
参 与</w>
最 高</w>
3 年</w>
规 模</w>
明 确</w>
除 了</w>
目 标</w>
近 平</w>
交 通</w>
依 法</w>
专 业</w>
这 里</w>
智 能</w>
学 院</w>
之 一</w>
喜 欢</w>
为 什么</w>
专 家</w>
共 同</w>
行 动</w>
不 要</w>
交 易</w>
罗 斯</w>
2 5
主 任</w>
第 三</w>
0 %</w>
近 日</w>
利 用</w>
努 力</w>
19 9
意 见</w>
完 全</w>
人 们</w>
销 售</w>
措 施</w>
条 件</w>
作 者</w>
台 湾</w>
发 表</w>
利 益</w>
联 系</w>
比 如</w>
监 管</w>
提 升</w>
3 .
分 析</w>
违 法</w>
消 费
传 统</w>
0 万</w>
编 辑</w>
工 程</w>
积 极</w>
经 过</w>
越 来
总 统</w>
越来 越</w>
质 量</w>
俄 罗斯</w>
消 费</w>
经 营</w>
设 计</w>
具 有</w>
更 加</w>
模 式</w>
下 午</w>
旅 游</w>
1 月</w>
调 整</w>
0 .
201 4年</w>
人 口</w>
如 此</w>
重 点</w>
上 市</w>
各 种</w>
开 放</w>
下 来</w>
受 到</w>
父 母</w>
执 行</w>
家 长</w>
分 别</w>
英 国</w>
重 大</w>
而 是</w>
帮 助</w>
体 系</w>
保 持</w>
随 着</w>
负 责
成 本</w>
产 生</w>
地 产</w>
投 资
3 月</w>
分 钟</w>
9 年</w>
特 朗
生 态</w>
采 访</w>
员 工</w>
机 制</w>
公 安
负责 人</w>
资 产</w>
每 天</w>
苹 果</w>
只 是</w>
电 影</w>
保 障</w>
品 牌</w>
主 席</w>
双 方</w>
需 求</w>
核 心</w>
真 正</w>
全 部</w>
资 本</w>
正 式</w>
准 备</w>
价 值</w>
注 意</w>
特朗 普</w>
公 安</w>
女 士</w>
大 量</w>
建 议</w>
你 们</w>
明 显</w>
此 前</w>
贸 易</w>
有 些</w>
一 般</w>
容 易</w>
公 布</w>
针 对</w>
变 化</w>
具 体</w>
然 后</w>
成 立</w>
委 员
有 人</w>
只 有</w>
男 子</w>
然 而</w>
后 来</w>
. .
控 制</w>
财 经</w>
2 年</w>
许 多</w>
民 族</w>
稳 定</w>
游 戏</w>
律 师</w>
支 付</w>
实 际</w>
民 警</w>
6 .
整 个</w>
范 围</w>
科 学</w>
1 8
官 方</w>
那 些</w>
宣 布</w>
t e
儿 子</w>
5 月</w>
一 下</w>
委员 会</w>
举 行</w>
监 督</w>
长 期</w>
此 外</w>
拥 有</w>
东 西</w>
1 2</w>
消费 者</w>
以 后</w>
医 生</w>
基 金</w>
落 实</w>
2 日</w>
取 得</w>
联 合</w>
回 应</w>
采 取</w>
机 会</w>
购 买</w>
行 政</w>
如 今</w>
方 案</w>
涉 嫌</w>
社 会
再 次</w>
思 想</w>
1 5</w>
每 个</w>
1 1</w>
考 虑</w>
改 变</w>
有 的</w>
任 务</w>
商 业</w>
此 次</w>
有 效</w>
压 力</w>
空 间</w>
综 合</w>
阶 段</w>
4 .
力 量</w>
5 0</w>
随 后</w>
资 料</w>
办 法</w>
9 日</w>
属 于</w>
女 儿</w>
事 故</w>
当 然</w>
强 调</w>
面 对</w>
医 疗</w>
公 里</w>
表 现</w>
正 常</w>
功 能</w>
4 月</w>
以 下</w>
广 州</w>
检 查</w>
系 列</w>
找 到</w>
父 亲</w>
京 报</w>
韩 国</w>
死 亡</w>
农 村</w>
最 近</w>
只 要</w>
照 片</w>
负 责</w>
下 降</w>
老 人</w>
区 域</w>
上 午</w>
规 划</w>
几 乎</w>
办 公
欢 迎</w>
引 发</w>
只 能</w>
开 发</w>
青 年</w>
印 度</w>
别 人</w>
4 0</w>
关 键</w>
对 方</w>
完 善</w>
根 本</w>
网 上</w>
感 觉</w>
2 月</w>
程 度</w>
土 地</w>
a r
贷 款</w>
申 请</w>
新 京报</w>
证 明</w>
经 历</w>
5 %</w>
事 实</w>
房 地产</w>
讨 论</w>
司 机</w>
作 出</w>
国 务
另 外</w>
人 类</w>
居 民</w>
人 才</w>
应 当</w>
10 0</w>
7 .
同 样</w>
团 队</w>
故 事</w>
结 束</w>
曾 经</w>
0 00</w>
一 切</w>
1 年</w>
评 论</w>
保 险</w>
涉 及</w>
公 共</w>
母 亲</w>
多 次</w>
生 命</w>
妈 妈</w>
协 议</w>
促 进</w>
相 信</w>
并 且</w>
身 体</w>
方 法</w>
非 法</w>
简 单</w>
巨 大</w>
多 少</w>
事 业</w>
融 资</w>
食 品</w>
深 圳</w>
车 辆</w>
减 少</w>
1 6
意 义</w>
世 纪</w>
电 子</w>
面 临</w>
同 学</w>
意 识</w>
结 构</w>
方 向</w>
及 时</w>
e n
创 业</w>
自 然</w>
工 资</w>
所 谓</w>
201 3年</w>
游 客</w>
工 业</w>
一 点</w>
检 察
女 性</w>
通 知</w>
设 备</w>
经 常</w>
竞 争</w>
货 币</w>
纪 委</w>
人 生</w>
维 护</w>
当 天</w>
知 识</w>
州 市</w>
符 合</w>
尤 其</w>
数 量</w>
t h
官 员</w>
现 象</w>
多 数</w>
治 理</w>
上 涨</w>
统 一</w>
应 用</w>
安 排</w>
广 告</w>
引 起</w>
依 然</w>
理 解</w>
委 会</w>
合 同</w>
教 授</w>
国务 院</w>
作 品</w>
司 法</w>
规 范</w>
状 态</w>
分 享</w>
经 济
运 营</w>
平 均</w>
确 实</w>
费 用</w>
反 映</w>
e r
同 比</w>
截 至</w>
上 述</w>
本 文</w>
那 个</w>
比 赛</w>
商 品</w>
不 得</w>
公安 局</w>
优 势</w>
发 挥</w>
材 料</w>
儿 童</w>
充 分</w>
到 底</w>
认 识</w>
十 分</w>
季 度</w>
严 格</w>
飞 机</w>
离 开</w>
宣 传</w>
突 然</w>
o r
19 8
设 施</w>
制 造</w>
战 争</w>
投资 者</w>
比 例</w>
6 0</w>
治 疗</w>
学 家</w>
00 万</w>
董 事
月 份</w>
交 流</w>
北 京
特 色</w>
高 度</w>
今 日</w>
住 房</w>
集 中</w>
i P
透 露</w>
确 定</w>
解 释</w>
h on
8 .
经 验</w>
污 染</w>
附 近</w>
管 理
身 份</w>
声 明</w>
愿 意</w>
召 开</w>
说 明</w>
成 员</w>
现 实</w>
家 人</w>
文 明</w>
原 则</w>
降 低</w>
肯 定</w>
t i
教 师</w>
大 会</w>
证 据</w>
习 近平</w>
每 年</w>
股 份</w>
尽 管</w>
通 报</w>
嫌 疑
节 目</w>
投 入</w>
5 .
因 素</w>
内 部</w>
想 到</w>
自 由</w>
点 击</w>
道 路</w>
移 动</w>
推 出</w>
1 3
办 理</w>
嫌疑 人</w>
执 法</w>
首 先</w>
程 序</w>
房 子</w>
面 积</w>
职 业</w>
于 是</w>
态 度</w>
一 方面</w>
利 亚</w>
升 级</w>
加 快</w>
德 国</w>
共 享</w>
妻 子</w>
普 通</w>
加 入</w>
铁 路</w>
主 动</w>
结 合</w>
承 担</w>
利 润</w>
当 前</w>
效 果</w>
客 户</w>
变 成</w>
来 到</w>
经 理</w>
记 录</w>
社会 主义</w>
小 区</w>
处 罚</w>
位 于</w>
警 察</w>
领 导
市 委</w>
0 年</w>
意 味
给 予</w>
迅 速</w>
做 出</w>
统 计</w>
时 期</w>
当 年</w>
里 面</w>
他 人</w>
处 于</w>
连 续</w>
1 8</w>
成 都</w>
部 长</w>
至 少</w>
预 计</w>
iP hon
成 绩</w>
遇 到</w>
农 业</w>
动 力</w>
不 再</w>
意味 着</w>
手 段</w>
打 击</w>
军 事</w>
9 .
深 入</w>
村 民</w>
办公 室</w>
还 要</w>
年 代</w>
仍 然</w>
担 任</w>
合 理</w>
股 票</w>
值 得</w>
背 后</w>
a c
1 7
清 楚</w>
目 的</w>
各 地</w>
相 当</w>
扩 大</w>
运 动</w>
快 速</w>
正 是</w>
1 6</w>
启 动</w>
患 者</w>
1 4
相 比</w>
困 难</w>
腾 讯</w>
欧 洲</w>
制 定</w>
家 里</w>
某 某</w>
女 子</w>
酒 店</w>
速 度</w>
杭 州</w>
直 播</w>
建 筑</w>
重 新</w>
毕 业</w>
相 对</w>
南 京</w>
整 体</w>
最 新</w>
位 置</w>
机 场</w>
关 键
看 来</w>
证 券</w>
晚 上</w>
1 4</w>
大 陆</w>
年 轻</w>
电 视
中 华
似 乎</w>
违 规</w>
创 造</w>
考 试</w>
确 保</w>
自 身</w>
房 价</w>
能 源</w>
评 价</w>
一 路</w>
限 制</w>
同 志</w>
天 津</w>
局 长</w>
乘 客</w>
高 校</w>
形 式</w>
股 东</w>
20 0</w>
重 视</w>
阅 读</w>
15 日</w>
以 前</w>
南 海</w>
大 部分</w>
文 件</w>
共 产
类 似</w>
中 方</w>
研 发</w>
部 署</w>
市 民</w>
人 大</w>
它 们</w>
避 免</w>
和 平</w>
距 离</w>
女 孩</w>
疫 苗</w>
航 空</w>
刑 事</w>
不 好</w>
理 论</w>
时 报</w>
举 报</w>
广 东</w>
看 看</w>
1 3</w>
拒 绝</w>
传 播</w>
实 际
小 学</w>
公 告</w>
腐 败</w>
实际 上</w>
华 为</w>
立 即</w>
舆 论</w>
挑 战</w>
服 务
就 业</w>
省 委</w>
采 用</w>
滴 滴</w>
现 代</w>
加 大</w>
操 作</w>
体 现</w>
指 数</w>
指 导</w>
担 心</w>
终 于</w>
协 会</w>
损 失</w>
委 员</w>
优 秀</w>
联 合
往 往</w>
8 0</w>
卫 生</w>
赔 偿</w>
即 使</w>
保 证</w>
心 理</w>
党 委</w>
打 造</w>
危 机</w>
地 位</w>
专 项</w>
e r</w>
出 生</w>
感 到</w>
一 旦</w>
参 考</w>
认 定</w>
新 闻
推 荐</w>
7 0</w>
海 外</w>
说 法</w>
浙 江</w>
基 地</w>
30 日</w>
职 务</w>
5 日</w>
在 于</w>
3 %</w>
2 1</w>
鼓 励</w>
身 上</w>
部 队</w>
力 度</w>
5 00</w>
不 足</w>
之 外</w>
人 物</w>
成 长</w>
突 破</w>
而 言</w>
20 日</w>
数 字</w>
10 日</w>
iPhon e</w>
收 到</w>
2 %</w>
做 到</w>
培 训</w>
重 庆</w>
近 期</w>
检察 院</w>
难 以</w>
201 2年</w>
年 轻
年 人</w>
财 政</w>
平 方
逐 渐</w>
预 期</w>
o n</w>
观 点</w>
2 4</w>
可 是</w>
日 前</w>
西 方</w>
提 到</w>
提 醒</w>
派 出
1 %</w>
基 层</w>
1 7</w>
违 反</w>
改 善</w>
原 来</w>
派出 所</w>
r e
革 命</w>
半 年</w>
用 于</w>
搜 索</w>
总 理</w>
c o
人民 日报</w>
感 受</w>
出 台</w>
运 行</w>
实 践</w>
人民 法院</w>
上 升</w>
情 绪</w>
质 疑</w>
威 胁</w>
1 8日</w>
6 %</w>
独 立</w>
董事 长</w>
回 家</w>
北京 市</w>
2 8日</w>
体 制</w>
金 额</w>
增 强</w>
仅 仅</w>
真 实</w>
深 化</w>
7 %</w>
回 到</w>
西 安</w>
计 算</w>
渠 道</w>
始 终</w>
教 育
表 达</w>
论 坛</w>
成 果</w>
本 身</w>
唯 一</w>
年轻 人</w>
百 姓</w>
体 验</w>
音 乐</w>
规 则</w>
党 员</w>
2 5</w>
出 口</w>
判 决</w>
满 足</w>
四 川</w>
背 景</w>
老 板</w>
趋 势</w>
软 件</w>
社 区</w>
代 表
训 练</w>
百 度</w>
突 出</w>
坚 决</w>
或 许</w>
确 认</w>
大 多数</w>
民 众</w>
动 物</w>
伤 害</w>
年 度</w>
矛 盾</w>
25 日</w>
8 %</w>
同 意</w>
体 育</w>
0 亿</w>
家 属</w>
危 险</w>
注 册</w>
c h
12 日</w>
主 体</w>
出 去</w>
山 东</w>
现 金</w>
回 来</w>
电 视</w>
11 日</w>
伟 大</w>
基 因</w>
认 真</w>
总 是</w>
19 日</w>
直 到</w>
5 万</w>
开 发
权 益</w>
吸 引</w>
4 %</w>
股 权</w>
合 法</w>
拍 摄</w>
共 和
权 利</w>
2 1日</w>
先 后</w>
登 记</w>
高 速</w>
明 星</w>
关键 词</w>
股 市</w>
国 有</w>
总 书记</w>
2 2日</w>
以 为</w>
沟 通</w>
复 杂</w>
1 6日</w>
2 7日</w>
接 到</w>
错 误</w>
环 保</w>
构 成</w>
并 非</w>
药 品</w>
培 养</w>
专 门</w>
贡 献</w>
永 远</w>
人 数</w>
取 消</w>
昨 日</w>
农 民</w>
a l
a m
不 得
广 大</w>
2 6日</w>
及 其</w>
凌 晨</w>
粉 丝</w>
军 队</w>
有 着</w>
观 众</w>
人 工
下 去</w>
1 7日</w>
年 来</w>
南 省</w>
少 年</w>
昨 天</w>
1 3日</w>
做 法</w>
京 东</w>
实 行</w>
高 铁</w>
法 国</w>
承 诺</w>
艺 术</w>
年 龄</w>
近 年来</w>
纷 纷</w>
景 区</w>
债 务</w>
刚 刚</w>
2 3日</w>
分 子</w>
9 0</w>
状 况</w>
必 要</w>
报 警</w>
审 查</w>
正 确</w>
恢 复</w>
良 好</w>
账 户</w>
强 化</w>
遭 遇</w>
广 泛</w>
伙 伴</w>
武 汉</w>
2 4日</w>
房 屋</w>
电 商</w>
反 对</w>
9 %</w>
第 四</w>
承 认</w>
过 来</w>
加 上</w>
为 何</w>
1 4日</w>
财 产</w>
社 交</w>
理 念</w>
高 级</w>
公 路</w>
展 开</w>
I D</w>
转 型</w>
证 实</w>
形 象</w>
提 前</w>
交 易
探 索</w>
收 购</w>
前 往</w>
放 弃</w>
角 度</w>
空 气</w>
江 苏</w>
在 线</w>
领导 人</w>
引 导</w>
习 惯</w>
协 调</w>
1 9</w>
诉 讼</w>
工 作
发 出</w>
依 据</w>
特 殊</w>
有 所</w>
大 型</w>
制 造
普 遍</w>
结 婚</w>
下 跌</w>
人工 智能</w>
名 字</w>
自 我</w>
驾 驶</w>
海 军</w>
从 事</w>
讲 话</w>
不 管</w>
排 名</w>
尊 重</w>
免 费</w>
女 人</w>
怎 样</w>
声 音</w>
强 大</w>
导 弹</w>
o u
朋 友
纪 律</w>
禁 止</w>
演 员</w>
理 由</w>
批 准</w>
事 发</w>
停 止</w>
指 标</w>
丈 夫</w>
丰 富</w>
利 率</w>
受 害
一 边</w>
进 口</w>
增 速</w>
事 实
万 亿</w>
制 作</w>
曝 光</w>
不 可</w>
检 测</w>
二 维
公 平</w>
至 于</w>
生 物</w>
本 人</w>
流 量</w>
享 受</w>
o o
回 答</w>
联合 国</w>
小 米</w>
受 伤</w>
身 边</w>
二维 码</w>
武 器</w>
产 权</w>
对 象</w>
信 号</w>
诈 骗</w>
自 动</w>
事实 上</w>
群 体</w>
反 馈</w>
名 单</w>
批 评</w>
2 9日</w>
期 待</w>
幸 福</w>
股 价</w>
朋友 圈</w>
大 学生</w>
配 合</w>
无 论</w>
很 快</w>
寻 找</w>
大 幅</w>
东 省</w>
从 而</w>
亚 洲</w>
19 7
发 行</w>
朝 鲜</w>
养 老</w>
一 致</w>
主 题</w>
此 事</w>
设 立</w>
告 人</w>
财 富</w>
i t
疾 病</w>
披 露</w>
么 样</w>
改 造</w>
整 改</w>
逐 步</w>
公 民</w>
权 力</w>
即 将</w>
判 断</w>
称 为</w>
等 等</w>
工 具</w>
形 势</w>
单 车</w>
反 应</w>
集 体</w>
夫 妻</w>
表 明</w>
5 亿</w>
实 力</w>
201 1年</w>
意 思</w>
幼 儿
深 刻</w>
不 错</w>
毕 竟</w>
职 工</w>
失 去</w>
条 例</w>
共产 党</w>
总 体</w>
留 下</w>
退 休</w>
言 人</w>
展 示</w>
贯 彻</w>
生 产
幼儿 园</w>
真 的</w>
企 业
哪 些</w>
接 近</w>
著 名</w>
晚 报</w>
允 许</w>
追 求</w>
设 置</w>
生 育</w>
掌 握</w>
天 气</w>
政 治
秩 序</w>
争 议</w>
2 2</w>
强 烈</w>
岗 位</w>
故 意</w>
出 席</w>
也 许</w>
阿 里
哪 里</w>
予 以</w>
获 悉</w>
出 行</w>
平方 米</w>
局 面</w>
绝 对</w>
男 人</w>
A P
资 格</w>
相 应</w>
各 类</w>
s t
处 分</w>
湖 南</w>
绿 色</w>
起 诉</w>
达 成</w>
转 移</w>
周 边</w>
不 可
布 局</w>
举 办</w>
收 费</w>
市 长</w>
效 率</w>
作 业</w>
建 成</w>
女 生</w>
多 年</w>
西 省</w>
缺 乏</w>
法 规</w>
垃 圾</w>
河 南</w>
3 00</w>
监 控</w>
201 9年</w>
劳 动</w>
十 九</w>
被 告人</w>
冲 突</w>
常 委</w>
立 案</w>
石 油</w>
a n</w>
她 们</w>
动 作</w>
千 万</w>
市 场
日 常</w>
无 论
维 持</w>
呈 现</w>
英 雄</w>
截 图</w>
法 治</w>
之 下</w>
保 护
3 1日</w>
队 伍</w>
回 忆</w>
利 于</w>
院 长</w>
咨 询</w>
方 便</w>
思 考</w>
自 主</w>
工 厂</w>
暴 力</w>
对 外</w>
整 治</w>
环 节</w>
彻 底</w>
选 举</w>
至 今</w>
外 交
爸 爸</w>
发 布
众 多</w>
本 次</w>
供 给</w>
进 展</w>
回 复</w>
动 车</w>
a l</w>
平 时</w>
履 行</w>
充 满</w>
扶 贫</w>
小 编</w>
河 北</w>
校 园</w>
试 点</w>
人 群</w>
交 警</w>
工 人</w>
同 事</w>
发 言人</w>
运 输</w>
国 家
共和 国</w>
一 线</w>
破 坏</w>
创 始
新 区</w>
救 援</w>
当 事
C E
推 广</w>
国 外</w>
in g</w>
处 置</w>
评 估</w>
补 贴</w>
毛 泽
收 益</w>
使 得</w>
总 裁</w>
有 限</w>
创始 人</w>
累 计</w>
物 质</w>
大 概</w>
学 者</w>
意 外</w>
日 子</w>
覆 盖</w>
小 组</w>
不 能</w>
优 化</w>
子 女</w>
各 级</w>
自 治
智 慧</w>
信 心</w>
就 要</w>
心 里</w>
同 期</w>
即 便</w>
党 中央</w>
现 代
l e</w>
手 术</w>
基 于</w>
央 视</w>
公 园</w>
业 绩</w>
特 点</w>
角 色</w>
进 步</w>
菲 律
装 备</w>
在 内</w>
美 好</w>
央 行</w>
一 带</w>
记 得</w>
娱 乐</w>
科 研</w>
显 然</w>
G D
法 官</w>
飞 行</w>
衣 服</w>
收 藏</w>
低 于</w>
l i
感 谢</w>
基 本
南 方</w>
民 营</w>
接 触</w>
审 理</w>
观 察</w>
地 铁</w>
那 样</w>
胜 利</w>
话 题</w>
10 00</w>
不得 不</w>
业 主</w>
为 主</w>
组 成</w>
梦 想</w>
总 经理</w>
语 言</w>
菲律 宾</w>
企业 家</w>
具 备</w>
研究 院</w>
2 万</w>
周 年</w>
th e</w>
听 到</w>
发布 会</w>
东 北</w>
a t
民 主</w>
离 婚</w>
遭 到</w>
关 心</w>
201 0年</w>
支 撑</w>
先 进</w>
道 德</w>
世 界
婚 姻</w>
适 合</w>
上 半年</w>
学 会</w>
201 8</w>
爆 炸</w>
周 期</w>
控 股</w>
3 5</w>
外 交</w>
相 互</w>
r o
对 话</w>
投 诉</w>
澳 大
城 区</w>
理 想</w>
当 中</w>
3 万</w>
r i
高 考</w>
授 权</w>
巴 巴</w>
紧 张</w>
损 害</w>
澎 湃</w>
GD P</w>
当事 人</w>
反 而</w>
感 情</w>
新 疆</w>
毛泽 东</w>
持 有</w>
对 手</w>
案 例</w>
例 如</w>
之 中</w>
分 局</w>
防 止</w>
常 委会</w>
卫 星</w>
查 处</w>
信 用</w>
l e
旅 客</w>
百 分
人 家</w>
澳大 利亚</w>
制造 业</w>
支 出</w>
新 型</w>
围 绕</w>
安 全
竟 然</w>
上 面</w>
明 白</w>
公 益</w>
走 向</w>
罚 款</w>
细 节</w>
访 问</w>
退 出</w>
门 口</w>
构 建</w>
地 震</w>
租 赁</w>
201 7</w>
营 销</w>
驾 驶
尚 未</w>
测 试</w>
1 万</w>
巡 视</w>
地 点</w>
等 待</w>
务 员</w>
20 00</w>
究 竟</w>
扫 描</w>
大 约</w>
机 器
党 内</w>
山 西</w>
这 次</w>
概 念</w>
迎 来</w>
主 管</w>
试 图</w>
2 3</w>
出 租
贫 困</w>
外 国</w>
坚 定</w>
各 国</w>
一 度</w>
200 8年</w>
第 十
政 协</w>
首 席</w>
总 局</w>
顺 利</w>
2 6
鉴 定</w>
想 象</w>
攻 击</w>
紧 急</w>
列 车</w>
的 话</w>
快 递</w>
阿里 巴巴</w>
官 网</w>
机器 人</w>
无论 是</w>
施 工</w>
拘 留</w>
下 面</w>
签 署</w>
党 组</w>
环 球</w>
食 物</w>
最 低</w>
谈 判</w>
科 学家</w>
供 应
大 众</w>
2 4
视 觉</w>
融 合</w>
通 常</w>
吃 饭</w>
2 亿</w>
切 实</w>
欧 盟</w>
元 /
此 时</w>
中 新
电 脑</w>
能 量</w>
动 机</w>
深 度</w>
修 改</w>
本 来</w>
强 制</w>
每 日</w>
兴 趣</w>
陷 入</w>
决 策</w>
CE O</w>
宝 宝</w>
释 放</w>
时 刻</w>
获 取</w>
路 上</w>
另 一方面</w>
加 拿
监 会</w>
道 歉</w>
纽 约</w>
纠 纷</w>
询 问</w>
思 维</w>
不 久</w>
徒 刑</w>
命 运</w>
实 在</w>
原 本</w>
长 江</w>
1 亿</w>
平 衡</w>
一 半</w>
这 家</w>
蒙 古</w>
百 万</w>
典 型</w>
i n</w>
奋 斗</w>
从 来</w>
面 前</w>
违 纪</w>
生 意</w>
想 法</w>
两 岸</w>
警 告</w>
实 验</w>
定 位</w>
足 够</w>
校 长</w>
消 防</w>
据 悉</w>
各 项</w>
产 业
期 徒刑</w>
简 称</w>
初 步</w>
男 性</w>
检 察</w>
实 体</w>
加拿 大</w>
法 庭</w>
言 论</w>
层 面</w>
几 十</w>
东 方</w>
共 有</w>
云 南</w>
工 程
做 好</w>
黄 金</w>
阿 里</w>
土 耳
解 放
短 期</w>
斯 坦</w>
大 力</w>
失 败</w>
各 个</w>
A p
中 学</w>
判 处</w>
总 结</w>
00 亿</w>
物 流</w>
乡 村</w>
知 名</w>
签 订</w>
账 号</w>
房 产</w>
地 球</w>
内 心</w>
1 .</w>
2 .</w>
明 年</w>
所 在</w>
虚 假</w>
博 士</w>
尽 快</w>
3 亿</w>
侦 查</w>
提 示</w>
纳 入</w>
审 批</w>
应 急</w>
印 象</w>
联 盟</w>
文 字</w>
都 市</w>
是 说</w>
英 语</w>
内 地</w>
应 对</w>
200 9年</w>
乐 视</w>
家 中</w>
英 文</w>
邀 请</w>
2 6</w>
十 几</w>
义 务</w>
立 场</w>
差 距</w>
通 信</w>
真 相</w>
成 年人</w>
教 学</w>
商 家</w>
成 熟</w>
3 1</w>
势 力</w>
赚 钱</w>
那 里</w>
财 务</w>
热 点</w>
学 术</w>
研究 所</w>
小 说</w>
此 后</w>
适 应</w>
营 商</w>
识 别</w>
调 控</w>
AP P</w>
现代 化</w>
影 响
情 节</w>
通 道</w>
转 载</w>
一 生</w>
责 任
2 8</w>
见 到</w>
文 学</w>
广 场</w>
追 究</w>
春 节</w>
土耳 其</w>
每 次</w>
转 变</w>
格 局</w>
慢 慢</w>
线 索</w>
外 界</w>
提 起</w>
中 共
涨 幅</w>
仪 式</w>
陕 西</w>
身 份
监 测</w>
电 信</w>
影响 力</w>
伊 朗</w>
盈 利</w>
阳 市</w>
非 洲</w>
电视 台</w>
8 万</w>
中 小
民 生</w>
中共 中央</w>
法 制</w>
主 持</w>
身份 证</w>
人民 共和国</w>
答 案</w>
19 6
之 所以</w>
宗 教</w>
今 后</w>
导 演</w>
尝 试</w>
从 严</w>
理 性</w>
斗 争</w>
兄 弟</w>
发 放</w>
高 于</w>
北 省</w>
中 华</w>
老 百姓</w>
经 典</w>
2 7
19 5
爱 情</w>
轻 松</w>
必 然</w>
大 国</w>
8 亿</w>
早 上</w>
开 启</w>
成 就</w>
说 话</w>
事 项</w>
作 战</w>
居 住</w>
自治 区</w>
职 责</w>
描 述</w>
付 出</w>
中 国
理 财</w>
住 宅</w>
泰 国</w>
得 知</w>
中 介</w>
民 间</w>
更 为</w>
红 色</w>
19 4
芯 片</w>
不 用</w>
最 佳</w>
冠 军</w>
5 G</w>
中华 人民共和国</w>
年 报</w>
h i
10 万</w>
全 市</w>
场 所</w>
谷 歌</w>
工 商</w>
放 在</w>
供 应</w>
有 利于</w>
三 星</w>
10 %</w>
照 顾</w>
下 滑</w>
亏 损</w>
销 量</w>
全 世界</w>
演 讲</w>
外交 部</w>
就 是说</w>
湖 北</w>
转 发</w>
举 措</w>
读 书</w>
年 底</w>
动 员</w>
发 射</w>
清 理</w>
否 则</w>
详 细</w>
全 省</w>
眼 睛</w>
严 肃</w>
预 测</w>
把 握</w>
共 识</w>
场 景</w>
贾 跃
短 信</w>
足 球</w>
担 当</w>
高 中</w>
考 核</w>
马 上</w>
s in
去 世</w>
预 防</w>
人 均</w>
试 验</w>
汇 率</w>
熟 悉</w>
创 作</w>
江 西</w>
对 比</w>
表 演</w>
精 准</w>
第 五</w>
高 端</w>
适 用</w>
楼 市</w>
怀 疑</w>
呼 吁</w>
中 共</w>
上 班</w>
完 整</w>
内 外</w>
不 良</w>
消 息
补 充</w>
自 然
报 名</w>
志 愿
审 核</w>
陆 续</w>
空 军</w>
介 入</w>
l o
安 装</w>
关 税</w>
配 置</w>
十 一</w>
公 务员</w>
开发 商</w>
调 研</w>
w w
办 案</w>
宣 传
的 确</w>
营 收</w>
定 性</w>
d e
指 挥</w>
一 审</w>
安 徽</w>
论 文</w>
江 省</w>
无 数</w>
提 交</w>
2 3
广 西</w>
车 站</w>
不 知</w>
刺 激</w>
爆 发</w>
告 知</w>
健 全</w>
网 民</w>
美 丽</w>
合 格</w>
后 果</w>
行 情</w>
6 万</w>
考 生</w>
危 害</w>
更 新</w>
二 十</w>
l a
o f</w>
an d</w>
打 电话</w>
客 观</w>
分 配</w>
贾跃 亭</w>
聊 天</w>
多 种</w>
首 都</w>
能 否</w>
自 信</w>
每 月</w>
看 法</w>
自 杀</w>
天 下</w>
负 担</w>
效 应</w>
早 已</w>
房 间</w>
课 程</w>
博 物
上 去</w>
大 队</w>
李 克
到 位</w>
移 民</w>
板 块</w>
有 点</w>
有 时</w>
大 规模</w>
2 7</w>
大 多</w>
名 义</w>
密 切</w>
作 家</w>
t t
青 少年</w>
西 部</w>
街 道</w>
毕 业
A I</w>
影 视</w>
查 询</w>
涉 案</w>
商 务</w>
竞 争
脱 贫</w>
福 利</w>
信 任</w>
依 旧</w>
am p</w>
购 物</w>
路 线</w>
内 蒙古</w>
价 值
税 收</w>
新 加
阳 光</w>
核 实</w>
6 亿</w>
中 午</w>
好 好</w>
出 发</w>
样 子</w>
风 格</w>
通 讯
n e
出 售</w>
指 控</w>
市 政府</w>
传 销</w>
海 洋</w>
超 级</w>
抓 获</w>
美 方</w>
进 程</w>
有 期徒刑</w>
20 %</w>
性 质</w>
法 定</w>
否 认</w>
中华 民族</w>
不 如</w>
特 征</w>
认 可</w>
细 胞</w>
国 企</w>
运 用</w>
显 得</w>
权 威</w>
医 学</w>
总 部</w>
峰 会</w>
好 像</w>
某 些</w>
互 动</w>
维 权</w>
主 权</w>
待 遇</w>
不 够</w>
出 版</w>
新 兴</w>
决 心</w>
现 有</w>
人 体</w>
一 代</w>
正 义</w>
郑 州</w>
行 政
特 币</w>
主 流</w>
即 可</w>
1 -
7 亿</w>
快 乐</w>
h a
贸 易
加 载</w>
能 性</w>
带 领</w>
招 聘</w>
极 大</w>
球 队</w>
文 物</w>
财 政
可 见</w>
境 外</w>
动 性</w>
无 人
当 日</w>
2 8
广 东省</w>
存 款</w>
请 求</w>
逻 辑</w>
优 质</w>
估 计</w>
负 面</w>
股 吧</w>
补 偿</w>
什 么样</w>
李克 强</w>
到 达</w>
中 间</w>
手 续</w>
物 业</w>
4 5</w>
发 起</w>
化 名</w>
信 息
黑 龙
新加 坡</w>
少 数</w>
运 会</w>
有 力</w>
税 务</w>
检 验</w>
版 权</w>
装 修</w>
全 力</w>
对 待</w>
协 商</w>
国 民
解 读</w>
男 孩</w>
缴 纳</w>
依 靠</w>
计 算
消息 网</w>
i l
立 法</w>
5 000</w>
采 购</w>
201 6</w>
此 同时</w>
与 此同时</w>
4 亿</w>
幅 度</w>
车 主</w>
规 律</w>
共 计</w>
临 时</w>
李 某</w>
真 是</w>
独 家</w>
秘 书
零 售</w>
恐 怖</w>
经 营
华 商</w>
2 9
球 员</w>
便 利</w>
后 面</w>
整 理</w>
福 建</w>
贵 州</w>
行 车</w>
未 经</w>
会 员</w>
苏 联</w>
积 累</w>
生 存</w>
执 行
各 方</w>
十 八</w>
为 此</w>
特 斯
o f
实 验
奖 励</w>
版 本</w>
客 服</w>
公 寓</w>
新华 网</w>
妇 女</w>
国 际
物 品</w>
越 南</w>
招 生</w>
.. ..
源 于</w>
知 情</w>
展 现</w>
品 质</w>
30 00</w>
e s</w>
考 察</w>
周 围</w>
管理 局</w>
3 .</w>
i c
百分 点</w>
画 面</w>
市 值</w>
相 同</w>
r a
关 闭</w>
冲 击</w>
十 二</w>
心 中</w>
当 局</w>
制 裁</w>
也 就是说</w>
学 历</w>
新 增</w>
小 孩</w>
讲 述</w>
5 0
全 会</w>
师 傅</w>
结 构
受害 者</w>
监 察</w>
落 地</w>
药 物</w>
Q Q</w>
可 能性</w>
航 天</w>
防 范</w>
领 先</w>
广 播</w>
加 速</w>
恒 大</w>
形 态</w>
年 级</w>
袭 击</w>
医 药</w>
流 程</w>
诸 多</w>
观 念</w>
专 题</w>
4 万</w>
县 委</w>
休 息</w>
活 力</w>
打 算</w>
创 业
台 风</w>
发 动机</w>
记 忆</w>
国 人</w>
00 0万</w>
高 管</w>
航 母</w>
本 报</w>
航 班</w>
毕业 生</w>
机 器</w>
当 下</w>
其 次</w>
指 责</w>
沙 特</w>
平 等</w>
出租 车</w>
回 归</w>
研究 生</w>
前 提</w>
周 末</w>
未 能</w>
害 人</w>
志愿 者</w>
主 张</w>
读 者</w>
牺 牲</w>
代 理</w>
担 忧</w>
城 乡</w>
异 常</w>
协 助</w>
客 户
运 营商</w>
不 行</w>
30 %</w>
不 满</w>
境 内</w>
西 亚</w>
队 员</w>
优 惠</w>
难 度</w>
海 市</w>
带 动</w>
天 津
常 常</w>
旅 游
分 析
支 付
解放 军</w>
隐 患</w>
4 00</w>
美 军</w>
中 央
2 9</w>
被 告</w>
王 某</w>
激 烈</w>
反 复</w>
底 线</w>
前 后</w>
有 时候</w>
伊 斯
姑 娘</w>
美 联
注 重</w>
团 结</w>
事 儿</w>
以 往</w>
病 人</w>
准 确</w>
标 志</w>
传 媒</w>
西 藏</w>
杠 杆</w>
马 克
正 当</w>
显 著</w>
估 值</w>
开 心</w>
监 狱</w>
全 体</w>
算 是</w>
杂 志</w>
无 疑</w>
留 言</w>
一 部分</w>
投资 人</w>
从 未</w>
统 筹</w>
瑞 典</w>
转 让</w>
道 理</w>
策 略</w>
总 量</w>
如 下</w>
侵 犯</w>
摄 影</w>
便 宜</w>
收 取</w>
军 人</w>
专 利</w>
层 次</w>
轨 道</w>
消 失</w>
超 市</w>
瞬 间</w>
5 0%</w>
C h
屏 幕</w>
配 套</w>
本 质</w>
纪 念</w>
e s
左 侧</w>
征 收</w>
艺 术
事 务</w>
团 伙</w>
20 年</w>
人民 政府</w>
客户 端</w>
抢 救</w>
舞 台</w>
第 三
人民 网</w>
9 9
支付 宝</w>
秘书 长</w>
心 态</w>
夫 妇</w>
期 货</w>
巴 马</w>
超 越</w>
素 质</w>
清 晰</w>
3 7</w>
高 峰</w>
赶 到</w>
华 盛
价值 观</w>
长 春</w>
优 先</w>
绝 不</w>
结 论</w>
南 部</w>
海 上</w>
ac e
未 成年人</w>
营 养</w>
中新 网</w>
过 度</w>
卫 生
电 池</w>
打 破</w>
外 卖</w>
200 7年</w>
oo k</w>
结构 性</w>
地 面</w>
日 益</w>
暂 时</w>
奥 巴马</w>
证 监会</w>
俱 乐
份 额</w>
计算 机</w>
行 驶</w>
哪 个</w>
爆 料</w>
t o</w>
全 新</w>
i s
寻 求</w>
u r
俱乐 部</w>
保 留</w>
热 情</w>
武 装</w>
无 奈</w>
青 春</w>
整 合</w>
人 次</w>
高 速
3 6
议 员</w>
手 中</w>
劳 动
加 工</w>
公 正</w>
0 1</w>
级 别</w>
城 镇</w>
宏 观</w>
养 老
视 为</w>
或 是</w>
地 址</w>
辽 宁</w>
省 份</w>
公 交</w>
死 刑</w>
激 励</w>
接 着</w>
巨 头</w>
. co
极 端</w>
电视 剧</w>
联 邦</w>
赢 得</w>
业 化</w>
情 感</w>
技 能</w>
痛 苦</w>
主 导</w>
性 能</w>
作 风</w>
强 东</w>
不 但</w>
后 续</w>
战 斗</w>
委 托</w>
出 于</w>
叙 利亚</w>
博物 馆</w>
祖 国</w>
机 遇</w>
最 为</w>
黑 色</w>
总 额</w>
分析 师</w>
复 兴</w>
社 保</w>
华盛 顿</w>
选 手</w>
3 5
地 下</w>
e n</w>
排 除</w>
听 说</w>
公 交
厂 商</w>
国 防
发 展
面 向</w>
类 型</w>
完 美</w>
普 京</w>
家 族</w>
订 单</w>
a s
战 斗
数 学</w>
看 见</w>
比 特币</w>
安 市</w>
秘 密</w>
满 意</w>
既 然</w>
新闻 记者</w>
国 产</w>
连 接</w>
森 林</w>
小 平</w>
开 通</w>
抓 住</w>
买 房</w>
打 工</w>
十 八
4 0
事 后</w>
被 害人</w>
主 持
区 别</w>
竞争 力</w>
进 去</w>
餐 厅</w>
民 主
大 大</w>
主 播</w>
这 部</w>
疯 狂</w>
3 2</w>
大 气</w>
业 内
较 为</w>
预 算</w>
使 馆</w>
业内 人士</w>
侵 权</w>
P O</w>
20 20年</w>
感 染</w>
难 题</w>
国 民</w>
省 级</w>
监 管
外 媒</w>
暂 停</w>
刘 强东</w>
扩 张</w>
剩 下</w>
赶 紧</w>
常 务</w>
实验 室</w>
反 腐</w>
差 异</w>
太 平
害 怕</w>
国 庆</w>
分 为</w>
思 路</w>
海 南</w>
库 存</w>
号 码</w>
由 此</w>
依 赖</w>
审 判</w>
培 育</w>
使 命</w>
个 别</w>
好 友</w>
教育 部</w>
20 万</w>
开 车</w>
活 跃</w>
人 力</w>
张 某</w>
a p
同 一</w>
销 售
主持 人</w>
逮 捕</w>
学 科</w>
不 多</w>
公安 部</w>
奶 奶</w>
固 定</w>
净 利润</w>
情 形</w>
事 务
有 望</w>
纪 念
Ap p</w>
对 抗</w>
a ti
3 7
看 出</w>
撤 销</w>
那 种</w>
旅 行</w>
最 初</w>
独 特</w>
本 地</w>
协 同</w>
占 据</w>
问 责</w>
民 事</w>
地 上</w>
海 域</w>
投 票</w>
辈 子</w>
声 称</w>
3 6</w>
私 人</w>
包 含</w>
青 年报</w>
恶 劣</w>
北 部</w>
跟 着</w>
就 算</w>
国 会</w>
出 版
玻 璃</w>
高 层</w>
传 递</w>
表 面</w>
综 合
10 .
无 效</w>
东 部</w>
意 大
选 人</w>
各 自</w>
缓 解</w>
常 见</w>
特斯 拉</w>
途 径</w>
旁 边</w>
麻 烦</w>
落 后</w>
拓 展</w>
崛 起</w>
商 务
聚 焦</w>
影 片</w>
遵 守</w>
开 除</w>
到 来</w>
基本 上</w>
镜 头</w>
中 级</w>
病 毒</w>
性 格</w>
印 发</w>
明 天</w>
不 仅仅</w>
无人 机</w>
诊 断</w>
200 6年</w>
远 远</w>
包 装</w>
遗 憾</w>
电 动</w>
江 苏
将 来</w>
9 0
光 明</w>
那 时</w>
交易 所</w>
时 尚</w>
宪 法</w>
毫 无</w>
许 可</w>
敏 感</w>
国 防</w>
尽 量</w>
温 度</w>
帮 忙</w>
成 交</w>
o r</w>
火 箭</w>
上 学</w>
过 于</w>
纪 检</w>
上 海市</w>
约 定</w>
审 议</w>
不 起</w>
乘 坐</w>
线 路</w>
气 温</w>
合 适</w>
心 情</w>
一 次
院 士</w>
亚 马
引 领</w>
o m
.. .</w>
自 觉</w>
争 取</w>
分 类</w>
适 当</w>
研究 员</w>
引 进</w>
预 警</w>
垄 断</w>
变 革</w>
网 红</w>
其 它</w>
3 3</w>
职 能</w>
e l
驱 动</w>
厦 门</w>
观 察
殴 打</w>
友 好</w>
10 0万</w>
会 见</w>
老 家</w>
期 限</w>
20 00
战 机</w>
疑 问</w>
全 球
抵 达</w>
姐 姐</w>
钢 铁</w>
各 位</w>
居 然</w>
疑 似</w>
公交 车</w>
现 状</w>
当 初</w>
纪 录</w>
态 势</w>
u n
颜 色</w>
领 袖</w>
领 土</w>
an g
表 态</w>
锻 炼</w>
世界 杯</w>
te ch
金 属</w>
收 获</w>
亚马 逊</w>
b ook</w>
互 相</w>
申 报</w>
认 证</w>
障 碍</w>
白 色</w>
12 0</w>
某 种</w>
飞 行
波 动</w>
难 道</w>
人 工</w>
重 组</w>
平 安</w>
亲 自</w>
借 款</w>
症 状</w>
恶 意</w>
天 天</w>
乃 至</w>
调 查
8 00</w>
回 国</w>
流 行</w>
十八 大</w>
宿 舍</w>
不 到</w>
焦 点</w>
链 接</w>
改 进</w>
顾 客</w>
政治 局</w>
年 初</w>
外 汇</w>
录 取</w>
北 大</w>
见 面</w>
高 兴</w>
租 金</w>
收 集</w>
前 面</w>
干 预</w>
受 贿</w>
赛 季</w>
人 心</w>
联 想</w>
7 万</w>
要 么</w>
开 庭</w>
晚 间</w>
基 金
冰 冰</w>
诞 生</w>
前 景</w>
巴 西</w>
味 道</w>
携 带</w>
翻 译</w>
搭 配</w>
流 传</w>
清 华
当 晚</w>
共 青
200 5年</w>
可 谓</w>
自 行车</w>
F ace
园 区</w>
意大 利</w>
营 业</w>
熊 猫</w>
流 动</w>
青 岛</w>
发 言</w>
气 候</w>
售 价</w>
此 案</w>
一 级</w>
自 称</w>
草 案</w>
村 里</w>
政 府
泡 沫</w>
框 架</w>
下 载</w>
删 除</w>
临 床</w>
焦 虑</w>
队 长</w>
前 期</w>
落 马</w>
华 人</w>
4 5
要 是</w>
主 人</w>
受 理</w>
简 直</w>
以 外</w>
证 书</w>
不 止</w>
江苏 省</w>
9 亿</w>
消 除</w>
票 房</w>
接 下来</w>
尔 ·
十 万</w>
高速 公路</w>
繁 荣</w>
深 圳
a d
8 0
随 时</w>
毒 品</w>
严 厉</w>
乐 视
营 造</w>
谣 言</w>
死 者</w>
贸易 战</w>
凭 借</w>
辞 职</w>
着 力</w>
周 刊</w>
团 体</w>
组 合</w>
大 桥</w>
受害 人</w>
经 贸</w>
长 沙</w>
治 安</w>
6 0
好 几</w>
办 公</w>
隐 私</w>
通讯 员</w>
干 净</w>
山 市</w>
4 8</w>
巴 黎</w>
6 00</w>
频 繁</w>
外 部</w>
全 年</w>
邻 居</w>
金 融
苏 州</w>
组 织
广 州市</w>
条 款</w>
本 科</w>
山 区</w>
驾驶 员</w>
万 达</w>
流 动性</w>
差 不多</w>
美联 储</w>
sin a</w>
养老 金</w>
而 已</w>
之 际</w>
19 3
造 假</w>
和 谐</w>
遭 受</w>
北 方</w>
电 力</w>
成 效</w>
巨 额</w>
常 态</w>
南 京
煤 炭</w>
得 以</w>
外 面</w>
美 团</w>
温 暖</w>
名 称</w>
of o</w>
种 种</w>
助 于</w>
顾 问</w>
吐 槽</w>
转 化</w>
教 练</w>
拍 照</w>
人 人</w>
天 然
哈 尔
救 助</w>
后 者</w>
清华 大学</w>
排 放</w>
返 回</w>
太 阳</w>
弟 弟</w>
感 动</w>
储 备</w>
老 婆</w>
表 情</w>
马 来
出 门</w>
这 时</w>
学 位</w>
男 生</w>
尴 尬</w>
为 止</w>
睡 觉</w>
这 项</w>
新闻 网</w>
回 顾</w>
含 有</w>
/ /
河 南省</w>
早 期</w>
合 并</w>
tech sina</w>
足 以</w>
Face book</w>
频 道</w>
该 案</w>
太 空</w>
i g
省 长</w>
潜 力</w>
供应 商</w>
上 线</w>
基金 会</w>
好 处</w>
研 制</w>
为 由</w>
亲 属</w>
暴 露</w>
银 行
失 踪</w>
彼 此</w>
济 南</w>
导 向</w>
认 知</w>
主 力</w>
国民 党</w>
一 时</w>
恐 怕</w>
回 去</w>
皮 肤</w>
浙 江省</w>
娱 乐
身 亡</w>
树 立</w>
老 公</w>
访 者</w>
虚 拟</w>
自 行</w>
当 选</w>
科 学院</w>
野 生</w>
攻 坚</w>
不 幸</w>
说 是</w>
所 得</w>
热 议</w>
扣 除</w>
停 车</w>
中 文</w>
离 职</w>
30 万</w>
201 5</w>
中 医</w>
意 愿</w>
共青 团</w>
花 费</w>
侵 害</w>
4 .</w>
en t</w>
植 物</w>
轿 车</w>
前 进</w>
户 籍</w>
癌 症</w>
定 期</w>
刘 某</w>
环 保
押 金</w>
保 安</w>
运 作</w>
经济 体</w>
师 范
车 型</w>
深圳 市</w>
有 序</w>
普 通
决 赛</w>
河 北省</w>
所 长</w>
多 多</w>
交 给</w>
致 力</w>
循 环</w>
官 兵</w>
征 求</w>
a g
组 建</w>
天然 气</w>
债 券</w>
3 8</w>
杀 人</w>
修 订</w>
玩 家</w>
发 文</w>
购 房</w>
机 动车</w>
恋 爱</w>
利 息</w>
红 包</w>
马来 西亚</w>
谈 话</w>
买 卖</w>
节 奏</w>
仔 细</w>
清 单</w>
事务 所</w>
接 种</w>
茅 台</w>
阻 止</w>
财政 部</w>
若 干</w>
骚 扰</w>
反 弹</w>
认 同</w>
对 接</w>
假 期</w>
四 川
战 场</w>
回 报</w>
联 赛</w>
别 的</w>
山 东省</w>
鲜 闻</w>
日 期</w>
跌 幅</w>
h tt
用 人</w>
白 宫</w>
信 仰</w>
发 动</w>
高 效</w>
日 军</w>
抗 战</w>
工程 师</w>
三 十</w>
200 3年</w>
氛 围</w>
大 楼</w>
原 油</w>
代 价</w>
各 界</w>
上 级</w>
承 受</w>
原 创</w>
姓 名</w>
全 程</w>
信 用
老 年人</w>
漂 亮</w>
长 大</w>
转 向</w>
htt p
产 量</w>
生 日</w>
加 班</w>
乐 观</w>
第 六</w>
精 力</w>
添 加</w>
标 签</w>
关 联</w>
租 房</w>
海 关</w>
平 稳</w>
分 布</w>
同 步</w>
邮 件</w>
公 示</w>
: //
门 店</w>
立 刻</w>
情 报</w>
婴 儿</w>
作 案</w>
历 史
修 复</w>
爷 爷</w>
梳 理</w>
指 挥
谢 谢</w>
财 物</w>
演 出</w>
5 5</w>
3 4</w>
火 灾</w>
激 发</w>
市 区</w>
执 政</w>
元 素</w>
艰 难</w>
相 似</w>
格 力</w>
一 刻</w>
刑 法</w>
伴 随</w>
初 中</w>
克 兰</w>
本 案</w>
提 及</w>
餐 饮</w>
随 即</w>
拆 迁</w>
以 色
成 分</w>
吸 收</w>
写 道</w>
T h
资 质</w>
发 送</w>
12 .
贫 困
汇 报</w>
大 门</w>
电 梯</w>
没 什么</w>
以色 列</w>
设 计
排 队</w>
助 理</w>
怎 么样</w>
产 能</w>
司 法
签 约</w>
产业 链</w>
大 师</w>
东 京</w>
二 手
万 科</w>
含 量</w>
分 之一</w>
下 半年</w>
从 小</w>
运 动员</w>
余 额</w>
10 亿</w>
摄 像
凤 凰
有 助于</w>
吉 林</w>
观 看</w>
备 案</w>
局 势</w>
。 然而</w>
窗 口</w>
头 发</w>
慈 善</w>
效 益</w>
地 图</w>
交 往</w>
宣 判</w>
国 土</w>
i r
哥 哥</w>
红 军</w>
援 助</w>
停 车
引 入</w>
任 职</w>
军 委</w>
太平 洋</w>
o p
I n
抗 议</w>
用 地</w>
。 。
电 器</w>
庭 审</w>
庞 大</w>
创 建</w>
原 告</w>
发 改
教 训</w>
办公 厅</w>
淘 宝</w>
3 8
职 位</w>
小 姐</w>
哪 怕</w>
品 种</w>
荣 誉</w>
生 长</w>
厕 所</w>
I C
伦 敦</w>
示 范</w>
相 反</w>
上 游</w>
油 价</w>
定 义</w>
住 院</w>
来 讲</w>
血 液</w>
门 槛</w>
延 续</w>
气 质</w>
使 用
大 使</w>
商 标</w>
再 度</w>
会 长</w>
c h</w>
走 访</w>
率 先</w>
火 车</w>
天津 市</w>
那 天</w>
半 岛</w>
不 见</w>
0 2</w>
浪 费</w>
播 出</w>
走 势</w>
正 面</w>
发 达</w>
后 期</w>
防 治</w>
辛 苦</w>
联 通</w>
大 战</w>
5 8</w>
随 意</w>
饮 食</w>
v e</w>
出版 社</w>
o l
奥 运会</w>
炒 作</w>
文 化
监 察
受 访者</w>
带 走</w>
主 角</w>
倾 向</w>
建 造</w>
诉 求</w>
商 品
登 陆</w>
中 全会</w>
下 方</w>
控 制
大 小</w>
专 电</w>
传 承</w>
沈 阳</w>
上 诉</w>
数 十</w>
志 愿</w>
200 4年</w>
战 士</w>
男 女</w>
硬 件</w>
强 奸</w>
. .</w>
全 民</w>
接 待</w>
所 得
乌 克兰</w>
小 心</w>
女 友</w>
5 7
班 子</w>
经 费</w>
例 子</w>
赛 事</w>
微 软</w>
单 独</w>
特 定</w>
比 重</w>
其 余</w>
一 体</w>
动 态</w>
蔡 英文</w>
种 植</w>
8 0%</w>
科 学
考 验</w>
投 放</w>
4 0%</w>
遏 制</w>
皇 帝</w>
列 入</w>
I PO</w>
抱 怨</w>
小 康</w>
重 复</w>
报 案</w>
二 十
董 事</w>
变 更</w>
外 资</w>
紧 密</w>
激 动</w>
年 纪</w>
支 队</w>
极 其</w>
忘 记</w>
困 境</w>
漏 洞</w>
在 家</w>
健 身</w>
信 贷</w>
v i
文 艺</w>
清 华</w>
推 行</w>
发改 委</w>
不 明</w>
永 元</w>
看 待</w>
看 似</w>
蔬 菜</w>
↓ ↓
当 场</w>
s h
5 0万</w>
参 观</w>
手 里</w>
成 交
. c
落 户</w>
党 组织</w>
A d
替 代</w>
夏 天</w>
一 流</w>
黑龙 江</w>
验 证</w>
要 性</w>
银行 卡</w>
民 政
延 伸</w>
比 亚</w>
仲 裁</w>
怀 孕</w>
厉 害</w>
法 人</w>
制 品</w>
0 3</w>
检察 官</w>
援 引</w>
8 5</w>
放 松</w>
拆 除</w>
西 班
敌 人</w>
实 习</w>
下 调</w>
借 贷</w>
— —
泄 露</w>
准 则</w>
6 5</w>
11 .
愤 怒</w>
解 除</w>
四川 省</w>
指 定</w>
公 斤</w>
下 车</w>
辽 宁
商 报</w>
3 9
资 讯</w>
中 院</w>
税 率</w>
乐视 网</w>
懂 得</w>
边 界</w>
2000 年</w>
拉 克</w>
营 业
宣 称</w>
全球 化</w>
鸡 蛋</w>
崔 永元</w>
b o
美 食</w>
怎 么
配 备</w>
车 上</w>
两 会</w>
密 码</w>
陈 某</w>
备 受</w>
市场 化</w>
对 应</w>
无 限</w>
一 个
怎么 办</w>
当 代</w>
反 思</w>
要 素</w>
科 院</w>
新 建</w>
会 谈</w>
服 装</w>
平 米</w>
球 迷</w>
诚 信</w>
进 来</w>
槿 惠</w>
治 国</w>
服务 业</w>
振 兴</w>
共 同
加 息</w>
销 商</w>
忽 视</w>
热 门</w>
e t
货 物</w>
s i
马 斯
甘 肃</w>
化 解</w>
花 钱</w>
粮 食</w>
通 用</w>
原 文</w>
7 0%</w>
截 止</w>
大 连</w>
县 城</w>
通 讯</w>
自 由
机 械</w>
长 生</w>
组 长</w>
生 素</w>
好 看</w>
有 趣</w>
可 怕</w>
神 秘</w>
大 脑</w>
硕 士</w>
嘉 宾</w>
相 继</w>
昆 明</w>
宣传 部</w>
申 请
8 -
协 定</w>
一 百</w>
约 束</w>
监 局</w>
政 党</w>
性 侵</w>
士 兵</w>
审 计</w>
阿 拉
车 票</w>
办 事</w>
透 明</w>
热 爱</w>
定 价</w>
西 南</w>
信 念</w>
坚 强</w>
亲 戚</w>
暴 雨</w>
食 用</w>
身 材</w>
编 制</w>
谈 会</w>
责 令</w>
彩 票</w>
空 中</w>
te r</w>
强 行</w>
可 爱</w>
聚 集</w>
减 轻</w>
边 境</w>
4 2</w>
路 口</w>
安 置</w>
如 说</w>
加 剧</w>
指 示</w>
潜 在</w>
保 存</w>
青 报</w>
贬 值</w>
w s</w>
路 段</w>
北京 大学</w>
化 学</w>
一 共</w>
计 划
货 车</w>
空 调</w>
神 经</w>
谨 慎</w>
电 动车</w>
进 而</w>
省 政府</w>
创 意</w>
7 -
纠 正</w>
20 2
魅 力</w>
时 光</w>
一 点
十 三
运 输
P 2
O S</w>
宇 宙</w>
大 道</w>
干 扰</w>
下 行</w>
东 莞</w>
处 在</w>
山 西省</w>
爱 心</w>
便 是</w>
西 安市</w>
石 家
发 达
人 身</w>
此 类</w>
国防 部</w>
休 闲</w>
量 子</w>
等 于</w>
拨 打</w>
白 天</w>
上 下</w>
会 计</w>
突 发</w>
头 部</w>
水 果</w>
澳 门</w>
维 修</w>
3 -
代表 大会</w>
融 入</w>
9 5</w>
鲜 明</w>
医 保</w>
特 朗</w>
所 有
安 倍</w>
一 辈子</w>
信 托</w>
P2 P</w>
本 月</w>
发达 国家</w>
门 票</w>
提 问</w>
延 长</w>
放 心</w>
大 事</w>
0 5
主 办</w>
超 出</w>
概 率</w>
支 部</w>
大 赛</w>
早 就</w>
3 9</w>
阶 级</w>
睡 眠</w>
物 理</w>
集 团
习 生</w>
网 贷</w>
据 说</w>
家 乡</w>
专 注</w>
想 起</w>
检 方</w>
笔 者</w>
派 出</w>
c e</w>
数 额</w>
A n
勇 气</w>
降 价</w>
模 型</w>
故 宫</w>
_ _
3 60</w>
警 惕</w>
写 作</w>
震 惊</w>
w .
巡 视
古 代</w>
从 此</w>
视 野</w>
眼 前</w>
法 案</w>
合 计</w>
点 评</w>
30 分</w>
查 明</w>
强 度</w>
街 头</w>
统 计
血 管</w>
套 路</w>
语 文</w>
工 作者</w>
户 口</w>
董事 会</w>
I P</w>
规 矩</w>
9 0%</w>
多 么</w>
呼 吸</w>
破 产</w>
妹 妹</w>
信用 卡</w>
教育 局</w>
滥 用</w>
小 镇</w>
人 权</w>
哪 儿</w>
长 远</w>
肌 肉</w>
外 出</w>
e d</w>
佛 教</w>
开发 区</w>
马克 思
飞行 员</w>
体 化</w>
代表 团</w>
人 文</w>
时 间
200 万</w>
蓝 色</w>
工 艺</w>
in g
一 番</w>
男 友</w>
新 华</w>
不 予</w>
首 相</w>
上 课</w>
深 夜</w>
前 来</w>
转 基因</w>
带 有</w>
不 动
15 0</w>
眼 中</w>
咖 啡</w>
院 校</w>
尸 体</w>
乡 镇</w>
聪 明</w>
湖 南省</w>
凤凰 网</w>
北 青报</w>
收 益
经济 学</w>
不 住</w>
失 联</w>
地 理</w>
劳 动力</w>
风 景</w>
单 身</w>
悲 剧</w>
核 查</w>
向 上</w>
尼 亚</w>
保 险
亮 相</w>
总 监</w>
交 通
案 组</w>
开 设</w>
缴 费</w>
增 长
9 9</w>
财 报</w>
多 久</w>
自 家</w>
a b
2 -
终 身</w>
潜 艇</w>
混 乱</w>
摩 托
性 别</w>
调 解</w>
普 及</w>
语 音</w>
代 理
更 换</w>
大 厦</w>
4 1</w>
裁 判</w>
书 面</w>
9 万</w>
陪 伴</w>
场 合</w>
厨 房</w>
书 馆</w>
创业 者</w>
6 0%</w>
不 及</w>
导 师</w>
摄像 头</w>
欧 元</w>
强 势</w>
别 墅</w>
凤 凰</w>
意 志</w>
出 国</w>
中 年</w>
肿 瘤</w>
伤 亡</w>
自 从</w>
某 个</w>
同 行</w>
证 件</w>
被 迫</w>
入 境</w>
中 山</w>
i s</w>
马 拉
娱乐 圈</w>
: 00</w>
军 方</w>
下 发</w>
周 五</w>
西班 牙</w>
借 助</w>
无 关</w>
保 健
艺 人</w>
绝 大多数</w>
下 班</w>
记 者
座 谈会</w>
s p
11 0</w>
终 端</w>
方 位</w>
200 2年</w>
最 高
化 工</w>
候 选人</w>
F F</w>
色 彩</w>
一 面</w>
等 级</w>
所得 税</w>
房 源</w>
学 员</w>
实 时</w>
商品 房</w>
一 家</w>
病 情</w>
爱 国</w>
救 治</w>
下 属</w>
全 文</w>
资 深</w>
周 岁</w>
错 过</w>
生 活
减 税</w>
理 事
珠 海</w>
向 前</w>
不 然</w>
方 针</w>
面 试</w>
仿 佛</w>
缺 少</w>
付 费</w>
中 期</w>
商 场</w>
不 易</w>
淘 汰</w>
会 儿</w>
6 7
政 法</w>
气 象</w>
出 具</w>
庆 祝</w>
厘 米</w>
流 通</w>
食 堂</w>
处 长</w>
双 边</w>
通 行</w>
幸 运</w>
二 战</w>
兰 州</w>
眼 里</w>
4 7</w>
高 通</w>
任 命</w>
上 网</w>
额 度</w>
吉 林
留 学生</w>
播 放</w>
途 中</w>
此 举</w>
尔 特</w>
经 销商</w>
专 访</w>
坚 守</w>
巴 基
体 会</w>
策 划</w>
现 任</w>
积 金</w>
冬 季</w>
骗 子</w>
本 土</w>
敢 于</w>
实 习生</w>
高 温</w>
8 8</w>
农 产品</w>
赌 博</w>
交 代</w>
三 四</w>
起 点</w>
巴基 斯坦</w>
会 晤</w>
交 所</w>
猜 测</w>
子 公司</w>
同 胞</w>
冬 天</w>
岁 月</w>
好 多</w>
邓 小平</w>
长 征</w>
遵 循</w>
公 积金</w>
巩 固</w>
200 1年</w>
领 取</w>
d i
点 赞</w>
求 助</w>
消 防
放 开</w>
阿 姨</w>
一次 性</w>
说 道</w>
国 内外</w>
总 数</w>
纳 税
体 检</w>
婚 礼</w>
大 选</w>
听 取</w>
付 款</w>
25 %</w>
探 讨</w>
强 国</w>
建 设
之 内</w>
职 场</w>
4 000</w>
经营 者</w>
用 品</w>
上 演</w>
信息 化</w>
希 拉
宽 松</w>
工作 室</w>
薪 酬</w>
销售 额</w>
上 年</w>
演 习</w>
15 %</w>
个 体</w>
资 助</w>
并 购</w>
出 租</w>
来 源于</w>
不 利</w>
回 落</w>
倡 议</w>
随 便</w>
路 径</w>
单 纯</w>
5 2</w>
输 入</w>
二 级</w>
路 边</w>
职 权</w>
环 球
课 堂</w>
华 尔
发 明</w>
管 控</w>
陕 西省</w>
战斗 机</w>
录 音</w>
政 权</w>
不 时</w>
幼 儿</w>
遗 体</w>
建 国</w>
透 社</w>
a y</w>
回 头</w>
合 肥</w>
引 力</w>
开 工</w>
何 人</w>
港 口</w>
风 车</w>
短 短</w>
S U
督 察</w>
一 两</w>
现 行</w>
体 育
许 可
工 业
灾 害</w>
罕 见</w>
歧 视</w>
鉴 于</w>
扮 演</w>
参 与
赋 予</w>
清 洁</w>
形 容</w>
脱 离</w>
卫 视</w>
礼 物</w>
哲 学</w>
人 事</w>
0 4</w>
旅 行
老 虎</w>
生 涯</w>
路 透社</w>
分 歧</w>
时 任</w>
港 元</w>
依 照</w>
伊 拉克</w>
出 事</w>
从 业</w>
消 化</w>
两 者</w>
0 5</w>
密 集</w>
外 地</w>
耐 心</w>
辖 区</w>
座 位</w>
业 内</w>
政 务</w>
印 尼</w>
明 珠</w>
旨 在</w>
响 应</w>
南 亚</w>
入 学</w>
跟 踪</w>
不 必</w>
1 3.
见 证</w>
污 染
本 周</w>
4 4</w>
师范 大学</w>
a t</w>
4 7
对 面</w>
ww w.
201 4</w>
回 收</w>
转 账</w>
2 2
西 北</w>
相 处</w>
评 论
陌 生</w>
温 州</w>
步 伐</w>
N B
知 书</w>
少 女</w>
景 点</w>
10 0%</w>
航 天
以 此</w>
华尔 街</w>
初 期</w>
艾 滋
担 保</w>
工 会</w>
极 为</w>
取 代</w>
谴 责</w>
失 望</w>
享 有</w>
比 如说</w>
新 鲜</w>
中 东</w>
购 房
裁 定</w>
抵 制</w>
帝 国</w>
理 学</w>
上 门</w>
6 -
拍 卖</w>
群 岛</w>
中 纪委</w>
舒 服</w>
2. 5</w>
叫 做</w>
伊斯 兰
房 租</w>
子 弹</w>
商务 部</w>
直 至</w>
市场 经济</w>
工 地</w>
重 要性</w>
移 送</w>
in d
看 上去</w>
举 报
民 工</w>
引 擎</w>
商 户</w>
挂 牌</w>
护 人</w>
偶 像</w>
1 /
高 等
超 标</w>
后 悔</w>
长 城</w>
从 不</w>
沿 海</w>
条 约</w>
大 街</w>
应 有</w>
奖 金</w>
资 本
区 委</w>
百 年</w>
马斯 克</w>
块 链</w>
S t
合 影</w>
交 付</w>
玉 米</w>
天 然</w>
4 9</w>
奇 怪</w>
只 不过</w>
店 铺</w>
小 伙伴</w>
自 如</w>
综 艺</w>
档 案</w>
大 局</w>
宁 波</w>
知 识
喝 酒</w>
从 中</w>
记 住</w>
好 事</w>
哈尔 滨</w>
199 8年</w>
除 此
环 比</w>
上 映</w>
善 良</w>
4 3</w>
血 压</w>
美 女</w>
民 进</w>
弘 扬</w>
萨 德</w>
到 处</w>
出 品</w>
报 纸</w>
远 离</w>
惊 人</w>
议 会</w>
精 英</w>
4 6</w>
出 手</w>
图 书馆</w>
科 技
栏 目</w>
客 人</w>
集 资</w>
金 钱</w>
环球 网</w>
如 同</w>
渐 渐</w>
房 企</w>
不 等</w>
免 疫</w>
成 年</w>
等 到</w>
5 .</w>
盗 窃</w>
人 性</w>
事 宜</w>
防 卫</w>
民主 党</w>
顺 风车</w>
雾 霾</w>
留 学</w>
金 庸</w>
放 缓</w>
预 约</w>
.co m
奉 献</w>
可 惜</w>
任 何人</w>
举 动</w>
违 背</w>
结 算</w>
合 作
十 三</w>
会 上</w>
遗 产</w>
咱 们</w>
冻 结</w>
分 公司</w>
经济 学家</w>
http ://
生 物
下 游</w>
统计 局</w>
督 促</w>
依 托</w>
每 周</w>
夫 人</w>
墨 西
装 置</w>
灵 魂</w>
扶 持</w>
得 出</w>
十三 五</w>
竞 选</w>
小 时候</w>
明 明</w>
音 乐
土 壤</w>
决 议</w>
轻 易</w>
时 机</w>
合 伙
行 程</w>
到 期</w>
上 周</w>
正 好</w>
城 管</w>
脸 上</w>
变 动</w>
发 酵</w>
几 百</w>
解 放</w>
宠 物</w>
人 间</w>
快 递
定 书</w>
e c
廉 政</w>
M a
军 区</w>
饭 店</w>
室 内</w>
调 节</w>
混 合</w>
一 同</w>
当 成</w>
大 妈</w>
马克思 主义</w>
摩 擦</w>
理 工
快 讯</w>
缅 甸</w>
纳 税</w>
杀 害</w>
算 法</w>
调查 组</w>
充 电</w>
积 极
称 号</w>
实 名</w>
庆 市</w>
国家 级</w>
火 车站</w>
快 报</w>
饮 料</w>
喜 爱</w>
想 想</w>
黄 色</w>
节 日</w>
第 七</w>
看 好</w>
商 人</w>
医 师</w>
湖 北省</w>
分 裂</w>
.... ..</w>
护 士</w>
常 规</w>
个 人
肚 子</w>
电 影
造 型</w>
头 条</w>
独 自</w>
发 声</w>
生 效</w>
将 近</w>
暴 跌</w>
上 来</w>
许可 证</w>
P o
大 批</w>
心 灵</w>
挖 掘</w>
中 国家</w>
阅 兵</w>
命 令</w>
三 角</w>
葡 萄
欣 赏</w>
陆 军</w>
老 年</w>
内 涵</w>
0 9</w>
十 五</w>
交 换</w>
生 气</w>
屠 杀</w>
太 太</w>
u s</w>
佛 山</w>
记 载</w>
技 巧</w>
扎 实</w>
原 料</w>
过 剩</w>
一 万</w>
送 给</w>
议 题</w>
班 主任</w>
恐 惧</w>
红 利</w>
摩托 车</w>
希拉 里</w>
发展 中国家</w>
接 收</w>
1. 5
江 歌</w>
斯 科</w>
烈 士</w>
合伙 人</w>
管 制</w>
报 复</w>
丧 失</w>
数 据
感 慨</w>
二 审</w>
江 南</w>
功 夫</w>
联 动</w>
券 商</w>
摆 脱</w>
夜 间</w>
全 党</w>
国 旗</w>
继 承</w>
大 于</w>
一 体化</w>
1 4.
te r
建 筑
奇 迹</w>
事 物</w>
龙 头</w>
每 人</w>
x in
日 元</w>
大 使馆</w>
高 院</w>
答 应</w>
斯 ·
中央 军委</w>
隧 道</w>
公 务</w>
将 军</w>
安 徽
补 助</w>
开 学</w>
何 时</w>
伪 造</w>
i m
e m</w>
标 识</w>
太 阳
出 资</w>
选 拔</w>
直 升
自 律</w>
简 历</w>
塑 料</w>
公 诉</w>
巡视 组</w>
严 峻</w>
页 面</w>
收 盘</w>
只 好</w>
县 级</w>
政府 部门</w>
客 车</w>
楼 盘</w>
养 殖</w>
车 道</w>
心 脏</w>
阶 层</w>
情 怀</w>
公 职</w>
东 盟</w>
特 区</w>
推 特</w>
T V</w>
马 路</w>
警 示</w>
答 复</w>
设 定</w>
水 库</w>
该 校</w>
自 愿</w>
受 损</w>
供 述</w>
哈 哈</w>
草 原</w>
协 作</w>
出 身</w>
意 图</w>
架 构</w>
尊 严</w>
偶 尔</w>
终 止</w>
客 机</w>
不 当</w>
Ch in
正 规</w>
6 6</w>
摄 影
电 站</w>
低 价</w>
杀 人
奔 驰</w>
负 债</w>
杜 特
实 地</w>
阿 尔
罪 名</w>
直升 机</w>
广 告
加 油</w>
小 型</w>
起 飞</w>
污 水</w>
短 板</w>
榜 单</w>
商 店</w>
承 包</w>
孕 妇</w>
转 换</w>
收益 率</w>
处 理
传 出</w>
辽宁 省</w>
珍 惜</w>
江 湖</w>
记者 会</w>
199 9年</w>
报 社</w>
评 选</w>
塑 造</w>
吉林 省</w>
上 调</w>
90 后</w>
江 西省</w>
开 会</w>
纳税 人</w>
登 录</w>
抑 制</w>
昨 晚</w>
战 役</w>
修 建</w>
迹 象</w>
P M
进 攻</w>
竞 赛</w>
出 任</w>
节 点</w>
平方 公里</w>
m ar
坦 言</w>
战 胜</w>
对 性</w>
管 道</w>
度 过</w>
斯 特
崩 溃</w>
发 票</w>
共和 党</w>
不 了</w>
眼 镜</w>
外 国人</w>
一 手</w>
务 实</w>
偿 还</w>
M o
题 材</w>
南 昌</w>
加 州</w>
除此 之外</w>
复 制</w>
行 人</w>
实 质</w>
5 3</w>
否 定</w>
传 闻</w>
军 舰</w>
相 机</w>
b er</w>
标 准
之 类</w>
石家 庄</w>
南 都</w>
氧 化
设计 师</w>
艾滋 病</w>
玩 笑</w>
当 今</w>
5 1</w>
学 费</w>
受 益</w>
4 8
M A
E C</w>
签 证</w>
辅 助</w>
交易 日</w>
e t</w>
还 款</w>
性 化</w>
人 气</w>
潮 流</w>
发 力</w>
德 ·
妥 善</w>
双 手</w>
福 州</w>
热 线</w>
困 扰</w>
消 耗</w>
单 一</w>
全 身</w>
传 奇</w>
仲 裁
议 院</w>
督 查</w>
这 笔</w>
中 旬</w>
之 上</w>
买 家</w>
瑞 士</w>
A l
恰 恰</w>
抓 好</w>
告 别</w>
u s
退 役</w>
源 头</w>
智 库</w>
邮 箱</w>
辐 射</w>
杜特 尔特</w>
携 手</w>
C P
观察 者</w>
文 中</w>
迎 接</w>
亮 点</w>
靠 近</w>
沉 默</w>
动 物
莫 斯科</w>
用 途</w>
水 面</w>
捐 款</w>
创 办</w>
ac e</w>
O P
抓 捕</w>
入 口</w>
华 夏</w>
石 化</w>
惩 罚</w>
击 者</w>
损 伤</w>
3 00
恶 化</w>
姿 态</w>
安徽 省</w>
捐 赠</w>
精 心</w>
劳动 者</w>
国家 队</w>
多 方</w>
雷 达</w>
台 独</w>
增 多</w>
农 民工</w>
获 利</w>
牛 肉</w>
贝 尔</w>
毫 米</w>
开 创</w>
差 别</w>
休 假</w>
保护 区</w>
c i
两 三</w>
国际 化</w>
羡 慕</w>
期 望</w>
5 -
特 大</w>
e m
震 荡</w>
权 健</w>
工 商
荣 耀</w>
分 手</w>
难 免</w>
供应 链</w>
罚 金</w>
牌 照</w>
决 书</w>
不 怕</w>
也 好</w>
气 象
申 诉</w>
碰 到</w>
教 室</w>
摩 拜</w>
城 镇
一 律</w>
排 查</w>
远 程</w>
存 量</w>
往 来</w>
宁 夏</w>
大 厅</w>
海 峡</w>
合 约</w>
系 统
属 性</w>
雄 安</w>
命 名</w>
原 有</w>
房 东</w>
忠 诚</w>
体 重</w>
侮 辱</w>
部 位</w>
案 发</w>
得 一
中小 企业</w>
针 对性</w>
看 不到</w>
值 班</w>
党 籍</w>
一个 个</w>
中 等</w>
火 爆</w>
提 名</w>
对 外
数 百</w>
公 开
20 亿</w>
难 民</w>
名 叫</w>
企 图</w>
乱 象</w>
孤 独</w>
P P
艺术 家</w>
愿 望</w>
10 00万</w>
异 地</w>
15 .
深 深</w>
教 材</w>
遇 难</w>
兴 奋</w>
主 演</w>
裁 决</w>
套 餐</w>
停 留</w>
v er
祝 福</w>
周 一</w>
助 力</w>
歌 手</w>
不动 产</w>
亲 人</w>
业 界</w>
情 人</w>
违 约</w>
F -
签 字</w>
事 业
监 委</w>
支 持
低 调</w>
义 务
汉 族</w>
行 使</w>
擅 自</w>
属 实</w>
5 4</w>
- 20</w>
强 劲</w>
天 空</w>
小 朋友</w>
分 工</w>
逃 避</w>
清 醒</w>
墨西 哥</w>
w it
码 头</w>
适 量</w>
生 前</w>
移 交</w>
没 收</w>
试 验
福 建
提 取</w>
4 G</w>
4 6
目 光</w>
e d
颜 值</w>
克 里
惊 喜</w>
约 车</w>
穿 越</w>
0 8</w>
制 药</w>
占 领</w>
凝 聚</w>
0 9
忽 略</w>
走 过</w>
无 罪</w>
因 而</w>
5 00万</w>
届 时</w>
季 节</w>
普通 人</w>
包 容</w>
四 十</w>
a i
点 半</w>
浓 度</w>
宾 馆</w>
加 以</w>
划 分</w>
互 联</w>
区 间</w>
长 期
7 5</w>
通 知书</w>
成交 量</w>
同 年</w>
封 闭</w>
退 款</w>
骄 傲</w>
ati on</w>
开 支</w>
前 沿</w>
看 病</w>
放 下</w>
姐 妹</w>
中 青</w>
荷 兰</w>
录 像</w>
就 医</w>
围 观</w>
不 顾</w>
驾 车</w>
红 星</w>
集团 公司</w>
盲 目</w>
猥 亵</w>
未 必</w>
大 火</w>
致 电</w>
限 购</w>
煤 矿</w>
黄 金
公 号</w>
维 生素</w>
布 斯</w>
吸 毒</w>
灵 活</w>
e p
个 性</w>
邮 报</w>
模 拟</w>
先 是</w>
欺 诈</w>
和 解</w>
舒 适</w>
4 -
生 病</w>
书 法</w>
一 天</w>
19 2
a d</w>
e l</w>
坦 克</w>
部 件</w>
婆 婆</w>
身 高</w>
感 叹</w>
报 考</w>
创 造
无 力</w>
产 妇</w>
iPhon e
风 波</w>
神 奇</w>
司 令
致 使</w>
网 约车</w>
卖 家</w>
判 决书</w>
友 谊</w>
1 7.
紧 紧</w>
5 6</w>
体 内</w>
拉 开</w>
L E
有 利</w>
所 在
借 鉴</w>
h u
附 属</w>
用 心</w>
为 期</w>
失 信</w>
立 方
流 入</w>
歌 曲</w>
嫌 犯</w>
元 化</w>
6 000</w>
航 空
搜 救</w>
回 升</w>
隐 藏</w>
频 频</w>
关 切</w>
放 大</w>
传 说</w>
武 警</w>
小 伙</w>
后 台</w>
着 急</w>
器 官</w>
Th e</w>
印 度
缓 慢</w>
第三 方</w>
反 正</w>
物 资</w>
天 地</w>
I T</w>
不 论</w>
中新 社</w>
兼 职</w>
地 块</w>
云 南省</w>
豆 瓣</w>
0 7</w>
表 述</w>
准 入</w>
本 市</w>
有 机</w>
A S
辉 煌</w>
匹 配</w>
东 南亚</w>
探 测</w>
村 庄</w>
局 部</w>
口 碑</w>
陷 阱</w>
好 吃</w>
受 贿
阿 富
增 值
坚 定
郑 州市</w>
录 片</w>
汽 油</w>
199 7年</w>
缺 失</w>
反 对
制 止</w>
绑 架</w>
游 泳</w>
阻 碍</w>
列 为</w>
8 8
阿富 汗</w>
全 方位</w>
界 面</w>
涨 价</w>
信 访</w>
康 复</w>
富 豪</w>
央 企</w>
景 观</w>
细 化</w>
确 定性</w>
取 证</w>
不 移</w>
u l
运 动
案 子</w>
女 排</w>
默 默</w>
伤 者</w>
下 子</w>
一 行</w>
展 览</w>
大 爷</w>
剧 情</w>
私 募</w>
自 首</w>
锁 定</w>
值 得一
脾 气</w>
所 未
管理 层</w>
火 星</w>
均 价</w>
把 手</w>
练 习</w>
仓 库</w>
重 庆市</w>
跑 步</w>
纪 录片</w>
跟 随</w>
创 下</w>
本 届</w>
安 慰</w>
新 生</w>
批 次</w>
失 误</w>
本 期</w>
倡 导</w>
没 法</w>
权 限</w>
坚定 不移</w>
出 色</w>
次 数</w>
拿 下</w>
儿 女</w>
标 注</w>
授 予</w>
缺 陷</w>
銆 �</w>
势 头</w>
刘 鑫</w>
开 幕</w>
其 间</w>
武 汉
秘 书</w>
圈 子</w>
严 禁</w>
宝 马</w>
专 栏</w>
晨 报</w>
漫 画</w>
故 障</w>
誉 为</w>
被 捕</w>
无 所
临 近</w>
师 生</w>
定 制</w>
积 分</w>
保 障
防 御</w>
甲 醛</w>
牛 市</w>
朝 阳</w>
整 顿</w>
n o
化 学
化 妆
1 6.
寿 命</w>
C N
共同 体</w>
证 人</w>
行 长</w>
确 立</w>
以 内</w>
召 回</w>
视 角</w>
扰 乱</w>
值得一 提</w>
创 立</w>
本 国</w>
精 神
灾 难</w>
公 款</w>
脱 欧</w>
沿 线</w>
4 9
该 国</w>
尽 可能</w>
增 幅</w>
借 口</w>
特 意</w>
科 目</w>
位 居</w>
历 程</w>
充 足</w>
沙 漠</w>
争 夺</w>
一 会儿</w>
锤 子</w>
重 建</w>
专 案组</w>
15 00</w>
场 地</w>
蔓 延</w>
花 园</w>
善 于</w>
猪 肉</w>
减 肥</w>
顶 级</w>
公 约</w>
伯 格</w>
壮 大</w>
希 腊</w>
阳 区</w>
中 部</w>
不 已</w>
早 晨</w>
抵 押</w>
富 有</w>
天 猫</w>
多 样
.co m</w>
手 法</w>
加 盟</w>
上 万</w>
E T
校 方</w>
上 车</w>
巡 逻</w>
渴 望</w>
张 家
传 言</w>
凸 显</w>
石 头</w>
h e
口 号</w>
前 行</w>
分 离</w>
一 下子</w>
无 可
救 灾</w>
新 西
多 元化</w>
上 传</w>
十 足</w>
骗 局</w>
5 7</w>
二手 房</w>
跨 越</w>
施 行</w>
福建 省</w>
必 将</w>
专 用</w>
税 款</w>
好 奇</w>
S N
干 涉</w>
象 征</w>
太 原</w>
打 车</w>
手 上</w>
边 缘</w>
调 侃</w>
蓝 天</w>
证 金</w>
月 球</w>
资 源
增值 税</w>
7 00</w>
注 明</w>
回 购</w>
包 裹</w>
促 使</w>
衡 量</w>
留 给</w>
199 5年</w>
案 情</w>
名 下</w>
原 始</w>
克 服</w>
扩 散</w>
聚 会</w>
a s</w>
便 利
4 0万</w>
黑龙 江省</w>
贪 污</w>
航 行</w>
N A</w>
第 八</w>
高 压</w>
责任 人</w>
中 小学</w>
我 家</w>
车 祸</w>
污染 物</w>
李 小
绩 效</w>
成 人</w>
意 识
6 8</w>
弥 补</w>
家 电</w>
以 为
实 业</w>
吸 引力</w>
丢 失</w>
金 山</w>
球 场</w>
做 事</w>
10 时</w>
暑 假</w>
东 风</w>
5 9</w>
欲 望</w>
冷 静</w>
城镇 化</w>
上 台</w>
车 厢</w>
导 航</w>
容 忍</w>
大 胆</w>
路 人</w>
制 约</w>
激 情</w>
星 期
动物 园</w>
抗 日</w>
图 像</w>
小 微</w>
政 法
种 子</w>
勇 敢</w>
阿 根
苏 宁</w>
前 所未
投 稿</w>
智 能
分 散</w>
争 端</w>
代 替</w>
高 原</w>
降 温</w>
澄 清</w>
第 九</w>
漫 长</w>
平 静</w>
复 苏</w>
过 分</w>
事 处</w>
高 位</w>
停车 场</w>
l in
模 糊</w>
增长 率</w>
历 经</w>
剥 夺</w>
堪 称</w>
年 会</w>
地 质</w>
通 车</w>
立方 米</w>
涵 盖</w>
组织 部</w>
主 观</w>
破 解</w>
党 支部</w>
a y
热 烈</w>
大 熊猫</w>
合 规</w>
.c n</w>
缩 小</w>
三 季度</w>
桥 梁</w>
一 再</w>
民 意</w>
国 主义</w>
新西 兰</w>
购房 者</w>
女 童</w>
就 读</w>
例 行</w>
攻 坚
房 贷</w>
陈 述</w>
电 子
封 面</w>
入 选</w>
电 台</w>
这 时候</w>
提 拔</w>
ig h
惊 讶</w>
防 控</w>
微 信号</w>
重 量</w>
疼 痛</w>
大 地</w>
伦 理</w>
进 度</w>
战 术</w>
垃 圾
几 千</w>
19 .
总 公司</w>
看 守
水 泥</w>
步 步</w>
结 局</w>
18 .
抓 紧</w>
地 产
中 外</w>
接 连</w>
功 效</w>
监管 部门</w>
皮 书</w>
内 瑞
假 如</w>
Ap p
委 内瑞
中 毒</w>
可 靠</w>
搭 载</w>
奥 运</w>
参 赛</w>
历史 性</w>
统 治</w>
宝 贵</w>
目 的
公 立</w>
上 月</w>
践 行</w>
欺 骗</w>
报 销</w>
文 献</w>
起 步</w>
糟 糕</w>
签 名</w>
示 范
新 人</w>
风 光</w>
注 入</w>
武汉 市</w>
意识 形态</w>
忍 不住</w>
p o
e i
9 时</w>
就 此</w>
外 观</w>
阳 县</w>
回 避</w>
党 政</w>
直 言</w>
招 商</w>
8 时</w>
真 诚</w>
典 礼</w>
丝 毫</w>
痕 迹</w>
县 长</w>
党 风</w>
10 0
饰 演</w>
B C</w>
流 失</w>
会 同</w>
省 市</w>
热 闹</w>
外 长</w>
配 送</w>
大 哥</w>
公安 厅</w>
安全 性</w>
人 格</w>
带 头</w>
推 送</w>
理 会</w>
总 共</w>
居 住
积极 性</w>
恐 慌</w>
有 意</w>
地 人</w>
生 人</w>
牵 头</w>
公 关</w>
话 说</w>
所 属</w>
来 临</w>
l y</w>
放 量</w>
一 一</w>
t s</w>
龄 化</w>
争 执</w>
it y</w>
陪 同</w>
诗 人</w>
生 动</w>
斯 坦
失 业</w>
南京 市</w>
刚 才</w>
收 回</w>
商 量</w>
反 击</w>
前所未 有</w>
代 码</w>
不 安</w>
= =
党 建</w>
抖 音</w>
剩 余</w>
眼 泪</w>
地 带</w>
当 作</w>
其 他人</w>
黑 客</w>
秋 天</w>
at e</w>
所在 地</w>
199 6年</w>
有 意思</w>
短 暂</w>
新 生
珍 贵</w>
有 待</w>
追 责</w>
被 动</w>
机 票</w>
执行 官</w>
奇 葩</w>
谋 取</w>
委内瑞 拉</w>
U ber</w>
心 疼</w>
不 便</w>
航 线</w>
时 段</w>
博 文</w>
捍 卫</w>
党 校</w>
个人 所得税</w>
频 率</w>
看守 所</w>
小 学生</w>
一 季度</w>
湾 区</w>
存 储</w>
基 础
在 意</w>
7 2</w>
假 日</w>
以 便</w>
附 加</w>
护 照</w>
帽 子</w>
名 人</w>
黑 暗</w>
各 样</w>
操 纵</w>
同 一个</w>
刊 登</w>
过 年</w>
管 局</w>
稍 微</w>
百 亿</w>
宣 言</w>
跨 境</w>
长期 以来</w>
分 化</w>
次 日</w>
彰 显</w>
大 致</w>
微 笑</w>
十 四</w>
撤 离</w>
报 ·
w or
在 乎</w>
拥 抱</w>
相 声</w>
合 力</w>
黄 某</w>
黑 洞</w>
导 游</w>
场 面</w>
不 确定性</w>
细 则</w>
人 选</w>
格 外</w>
注 定</w>
携 程</w>
取 决
加 油
取决 于</w>
化妆 品</w>
长 久</w>
支 配</w>
G B</w>
工 委</w>
养 成</w>
颠 覆</w>
技 术
侵 略</w>
00 -
金 牌</w>
调 动</w>
膨 胀</w>
毫 无
杨 某</w>
搬 迁</w>
暗 示</w>
大 豆</w>
例 外</w>
随 机</w>
食 材</w>
互 通</w>
零 售
中 信</w>
6 4</w>
南 北</w>
中 队</w>
访 华</w>
爱 好</w>
抄 袭</w>
厂 家</w>
m e</w>
业 者</w>
郁 症</w>
好 者</w>
令 人
共 建</w>
上 百</w>
风 暴</w>
身 影</w>
掀 起</w>
战 友</w>
涨 停</w>
有 所
总 值</w>
越 是</w>
i f
身 后</w>
退 还</w>
管 辖</w>
一点 点</w>
家 具</w>
上 任</w>
显 现</w>
指 引</w>
整 整</w>
少 数
罪 犯</w>
驳 回</w>
a k
不 力</w>
奶 粉</w>
评 级</w>
政法 委</w>
大 屠杀</w>
多 边</w>
帮 扶</w>
阿根 廷</w>
强 迫</w>
产 阶级</w>
深 处</w>
之 路</w>
缺 口</w>
留 守</w>
5 8
一 贯</w>
P S</w>
爱 好者</w>
↓↓ ↓</w>
6 3</w>
剧 本</w>
览 会</w>
时 常</w>
台 北</w>
美 金</w>
间 接</w>
董 明珠</w>
有 害</w>
一 来</w>
银 行业</w>
沿 着</w>
对外 开放</w>
涉 案
真 实
兴 起</w>
课 题</w>
管 委会</w>
嫌 疑</w>
炸 弹</w>
工作 日</w>
立 足</w>
均 衡</w>
加 重</w>
6 7</w>
骨 干</w>
进 驻</w>
网 点</w>
新 年</w>
狗 狗</w>
两 地</w>
ti on</w>
部 级</w>
约 翰
不 久
区 分</w>
难 者</w>
诉 人</w>
毫 不</w>
人 大
逃 离</w>
天 价</w>
脂 肪</w>
目 录</w>
报 价</w>
0 6</w>
终 结</w>
春 晚</w>
电 网</w>
完 毕</w>
适 度</w>
何 况</w>
上 前</w>
la y</w>
返 还</w>
中 秋</w>
不久 前</w>
上 方</w>
大 人</w>
a r</w>
恩 来</w>
中 原</w>
科 普</w>
天 堂</w>
浦 东</w>
好 转</w>
关 爱</w>
平 凡</w>
争 论</w>
裁 员</w>
归 属</w>
夏 季</w>
啤 酒</w>
青 海</w>
委 屈</w>
春 天</w>
靠 谱</w>
钱 包</w>
这 边</w>
偶 然</w>
书 籍</w>
小 事</w>
盟 友</w>
人大 代表</w>
业 态</w>
总 会</w>
家 园</w>
枪 支</w>
无 线</w>
拥 堵</w>
原 理</w>
评 分</w>
布 置</w>
质 押</w>
索 赔</w>
成 都市</w>
双 重</w>
不 容
r o</w>
州 区</w>
发 育</w>
通 话</w>
通 告</w>
进 口
目的 地</w>
洪 水</w>
二 手</w>
走 廊</w>
磋 商</w>
优 雅</w>
票 价</w>
发 稿</w>
凶 手</w>
牛 奶</w>
事 先</w>
占 用</w>
隐 瞒</w>
报· 中青</w>
无 比</w>
高 新区</w>
办 事处</w>
保 健</w>
脖 子</w>
安 静</w>
步 骤</w>
碰 撞</w>
平 常</w>
投 机</w>
车 子</w>
层 层</w>
红 旗</w>
卫 队</w>
主 场</w>
几 万</w>
秋 季</w>
媳 妇</w>
一 道</w>
厅 长</w>
永 久</w>
富 裕</w>
服 用</w>
相 比
首 发</w>
司 长</w>
G 20</w>
攻坚 战</w>
陈 世
豪 华</w>
灰 色</w>
制造 商</w>
负 债
千 亿</w>
过 往</w>
独 立
无 锡</w>
舰 队</w>
二 线</w>
开 盘</w>
u m
便 捷</w>
气 氛</w>
来 看</w>
商 城</w>
马拉 松</w>
限 度</w>
计 委</w>
网 购</w>
查 获</w>
扫 黑</w>
先 行</w>
保 姆</w>
会 场</w>
an d
周 恩来</w>
对 不起</w>
款 人</w>
底 部</w>
地 域</w>
动 手</w>
伤 口</w>
审 美</w>
6 2</w>
战 略
参与 者</w>
高 新
3 00万</w>
笔 录</w>
建 华</w>
不 妨</w>
少数 民族</w>
误 解</w>
至 此</w>
住 建
培 训
窗 户</w>
总 之</w>
学 生
大 盘</w>
骗 取</w>
流 向</w>
个 税</w>
新 政</w>
考 上</w>
一 般
白 酒</w>
介 石</w>
种 类</w>
国 债</w>
贿 赂</w>
30 亿</w>
船 舶</w>
演 技</w>
排 行
复 旦</w>
绝 望</w>
糖 尿
中国 队</w>
蒋 介石</w>
获 奖</w>
款 项</w>
恐 怖
医 护</w>
浪 漫</w>
星 期</w>
抢 劫</w>
c on
还 原</w>
网 传</w>
片 酬</w>
主 义
模 仿</w>
常 年</w>
女 方</w>
民 航</w>
提 议</w>
工作 组</w>
全 都</w>
克 斯</w>
遇 见</w>
辩 护</w>
出 让</w>
计划 生育</w>
犯 罪
晋 升</w>
排行 榜</w>
中 超</w>
199 4年</w>
额 外</w>
上 访</w>
惩 戒</w>
急 救</w>
幕 式</w>
博 弈</w>
十 六</w>
重 申</w>
上 报</w>
预 售</w>
服务 器</w>
力 争</w>
出 示</w>
首 要</w>
旅行 社</w>
开 拓</w>
眼 光</w>
操 作
运 转</w>
有 效
代表 人</w>
人 为</w>
6 9</w>
罪 行</w>
追 踪</w>
早 报</w>
铁 路
测 量</w>
常 识</w>
安 保</w>
乘 车</w>
知 乎</w>
黄 河</w>
蛋 白</w>
分 成</w>
验 收</w>
分 数</w>
长 假</w>
玩 具</w>
安全 感</w>
外 来</w>
8 000</w>
新 高</w>
英 镑</w>
真实 性</w>
熬 夜</w>
模 范</w>
延 安</w>
中 药</w>
糖尿 病</w>
出 境</w>
风 雨</w>
路 面</w>
讲 究</w>
受贿 罪</w>
功 率</w>
挪 用</w>
打 印</w>
洛 杉
广 阔</w>
随 之</w>
7 0
引 用</w>
关 村</w>
优 良</w>
6 .</w>
论 证</w>
招 呼</w>
申请 人</w>
生 育
好 人</w>
or e</w>
199 3年</w>
A T
除 非</w>
江 市</w>
国际 法</w>
9 1</w>
前 不久</w>
预 案</w>
四 处</w>
稳 步</w>
步 入</w>
雷 军</w>
防 护</w>
起 床</w>
文 书</w>
工 信
严 惩</w>
钥 匙</w>
格 兰</w>
指 南</w>
博 士
办 学</w>
达 标</w>
说 说</w>
机 型</w>
抑 郁症</w>
上 千</w>
卫生 间</w>
做 成</w>
缩 短</w>
刊 发</w>
一 千</w>
高 额</w>
在 场</w>
北 约</w>
20 .
面 子</w>
详 情</w>
向 往</w>
护 理</w>
垂 直</w>
官 司</w>
义务 教育</w>
订 阅</w>
相比 之下</w>
号 称</w>
前 途</w>
净 化</w>
伊斯兰 国</w>
长 效</w>
链 条</w>
杭 州市</w>
克 尔</w>
钓 鱼
学 期</w>
贫困 户</w>
五 十</w>
LE D</w>
节 约</w>
舆 情</w>
傍 晚</w>
指挥 部</w>
高 价</w>
除 恶</w>
误 导</w>
变 为</w>
201 3</w>
认 罪</w>
村 委会</w>
扩 展</w>
特 尔</w>
演 变</w>
抗 日
人 社
阿拉 伯</w>
股 民</w>
教 科
埃 及</w>
观 测</w>
感 冒</w>
前 夕</w>
击 败</w>
co m</w>
脚 步</w>
流 浪</w>
小 哥</w>
增 量</w>
谈 及</w>
孙 子</w>
做 人</w>
分 管</w>
不 乏</w>
刻 意</w>
老 龄化</w>
禁 区</w>
残 酷</w>
受 害</w>
时 速</w>
打 通</w>
众 人</w>
中 兴</w>
王 毅</w>
引 来</w>
填 写</w>
赶 赴</w>
样 本</w>
实 用</w>
食 药
颁 发</w>
之 为</w>
10 -
山 县</w>
宣 告</w>
蚂 蚁</w>
灾 区</w>
5 2
现 身</w>
逾 期</w>
评 审</w>
标准 化</w>
为 人</w>
首 富</w>
组 成
感 恩</w>
网 约</w>
滨 海</w>
公 报</w>
e -
u t
组成 部分</w>
更 是</w>
兑 换</w>
客 运</w>
蛋 白
正 恩</w>
欺 凌</w>
一 代
衔 接</w>
疾 控</w>
手 指</w>
美 媒</w>
挣 钱</w>
强 硬</w>
天 使</w>
周 知</w>
ne ws</w>
报 酬</w>
员 国</w>
自 动
租 客</w>
波 兰</w>
不 对</w>
讲 座</w>
头 脑</w>
采 集</w>
残 疾
快递 员</w>
互 利</w>
升 值</w>
6 00
测 算</w>
传 来</w>
P C</w>
M ar
领导 班子</w>
火 锅</w>
新 房</w>
改 编</w>
丑 闻</w>
燃 烧</w>
拦 截</w>
志 强</w>
设 想</w>
考 研</w>
低 迷</w>
起 码</w>
湿 地</w>
尺 寸</w>
6 0万</w>
擅 长</w>
宣 誓</w>
国家 机关</w>
国 足</w>
国 王</w>
务 局</w>
农 业
诱 惑</w>
看 望</w>
代 购</w>
楼 下</w>
入 侵</w>
中 小</w>
风 气</w>
洛杉 矶</w>
法 学</w>
阵 地</w>
疫 情</w>
出 轨</w>
颁 奖</w>
抛 弃</w>
餐 馆</w>
利 好</w>
3 D</w>
部 委</w>
真 心</w>
称 之为</w>
研 讨
间 谍</w>
中 关村</w>
请 问</w>
被 盗</w>
小 伙
保 密</w>
沉 重</w>
数 千</w>
书 写</w>
防 空</w>
目 击者</w>
主 编</w>
养 生</w>
王 晓
冲 动</w>
11 时</w>
精 致</w>
质 性</w>
反 抗</w>
偷 偷</w>
投 行</w>
前 者</w>
执行 人</w>
众 所
一 把手</w>
服 刑</w>
犹 豫</w>
夺 冠</w>
2 1
门 前</w>
干 事</w>
亿 万</w>
过 期</w>
素 养</w>
199 2年</w>
虐 待</w>
走 私</w>
撰 文</w>
动 画</w>
亲 密</w>
烦 恼</w>
· ·
5 5
尔 多
小 小</w>
u c
D NA</w>
占 比</w>
博 览会</w>
分 开</w>
N o
异 议</w>
A D</w>
行 走</w>
f or</w>
辱 骂</w>
再 审</w>
大 米</w>
冰 箱</w>
枢 纽</w>
十 字
薄 弱</w>
攀 升</w>
R o
车 间</w>
精 品</w>
南 沙</w>
不 惜</w>
陈世 峰</w>
诈 骗
6 8
9 2</w>
题 目</w>
第 二
不 禁</w>
蛋 糕</w>
总 队</w>
众所 周知</w>
T O</w>
8 点</w>
难 得</w>
纯 粹</w>
占 有</w>
拼 命</w>
特 ·
数据 库</w>
降 雨</w>
禁 令</w>
华 北</w>
北 美</w>
摄影 师</w>
指 向</w>
行 贿</w>
陌 生人</w>
热 度</w>
这 块</w>
辣 椒</w>
时 隔</w>
效 力</w>
分 行</w>
岛 礁</w>
学 业</w>
贩 卖</w>
而 来</w>
帖 子</w>
客 厅</w>
大 佬</w>
保健 品</w>
承 载</w>
入 股</w>
IC O</w>
果 然</w>
县 政府</w>
创业 板</w>
前 方</w>
i t</w>
201 9</w>
年 限</w>
字 样</w>
or m
过 错</w>
脆 弱</w>
资 委</w>
细 菌</w>
小 雨</w>
立 马</w>
每 股</w>
城 市
假 设</w>
贵 阳</w>
渗 透</w>
查 阅</w>
失 控</w>
前 列</w>
系统 性</w>
开 辟</w>
s e</w>
童 年</w>
硅 谷</w>
出 炉</w>
不 准</w>
名 誉</w>
下 达</w>
该 院</w>
有 名</w>
加 密</w>
on e</w>
神 经
20 20</w>
8 月份</w>
里 人</w>
环保 局</w>
物 种</w>
7 7</w>
3 4
至 关
着 手</w>
0 -
骨 折</w>
无 视</w>
工信 部</w>
迟 迟</w>
飞 船</w>
清 除</w>
内 在</w>
桌 子</w>
叔 叔</w>
传 达</w>
书 店</w>
清 洗</w>
水 稻</w>
奠 定</w>
稳 健</w>
敦 促</w>
型 号</w>
辅 导</w>
视 率</w>
肇 事</w>
至关 重要</w>
机 组</w>
下 水</w>
改 革
全 线</w>
p e
u b
赵 某</w>
艰 苦</w>
占 地</w>
本 轮</w>
早 日</w>
不 适</w>
波 音</w>
大 声</w>
空 白</w>
军 事
4 S</w>
长 安
通 胀</w>
绝 大部分</w>
理事 会</w>
作 文</w>
丝 绸
萝 卜</w>
瞩 目</w>
掩 盖</w>
小 小
大 片</w>
并 未</w>
密 度</w>
浏 览
是 的</w>
古 城</w>
发 帖</w>
� �</w>
王 者</w>
机 动</w>
发 给</w>
V E
贵 州
周 三</w>
重 伤</w>
使用 权</w>
角 落</w>
t r
莱 坞</w>
李 嘉
根 源</w>
A R
9 月份</w>
周 四</w>
0 7
爱 人</w>
配 偶</w>
工 业化</w>
大 宗</w>
东 亚</w>
遗 址</w>
致 富</w>
燃 料</w>
查 封</w>
阴 影</w>
眼 神</w>
民 办</w>
挑 选</w>
物 价</w>
圆 满</w>
那 边</w>
革 命
渔 船</w>
收 拾</w>
移 植</w>
上 图</w>
爸 妈</w>
民 族
挑 衅</w>
底 层</w>
刑 拘</w>
9 点</w>
第 十</w>
清 晨</w>
丝绸 之路</w>
表 决</w>
科学 技术</w>
变 相</w>
东 北
颁 布</w>
狂 犬
刷 屏</w>
温 柔</w>
残疾 人</w>
权 人</w>
在 校</w>
专 车</w>
6 1</w>
追 问</w>
9 8</w>
我 省</w>
勇 于</w>
区 块链</w>
篮 球</w>
古 人</w>
1. 5</w>
舰 艇</w>
抗日 战争</w>
m l</w>
贵州 省</w>
言 语</w>
注 销</w>
图 书</w>
中 医药</w>
面 部</w>
特 性</w>
暂 行</w>
契 机</w>
压 缩</w>
笔 记</w>
病 例</w>
支 援</w>
孔 子</w>
合 成</w>
司法 部</w>
网 页</w>
东 海</w>
党 章</w>
乐 天</w>
旗 帜</w>
增 值</w>
侵 占</w>
争 吵</w>
App le</w>
大 海</w>
7 6</w>
脑 子</w>
国 情</w>
编 译</w>
物 联网</w>
年 内</w>
供 暖</w>
赞 同</w>
定 向</w>
增 进</w>
程 序
狂犬 病</w>
善 意</w>
有 用</w>
年 均</w>
保 守</w>
成 员国</w>
延 迟</w>
q u
进 军</w>
重 重</w>
199 0年</w>
相 亲</w>
杜 绝</w>
学 界</w>
凡 是</w>
以 至于</w>
致 敬</w>
致 命</w>
私 下</w>
恶 性</w>
奥 会</w>
立 波</w>
恐怖 主义</w>
夸 张</w>
动 摇</w>
女 神</w>
私 有
早 餐</w>
合 资</w>
索 要</w>
任 期</w>
贫 穷</w>
等 奖</w>
指 令</w>
双 向</w>
今 晚</w>
青 睐</w>
眼 球</w>
起 火</w>
西 湖</w>
服务 费</w>
巡 查</w>
知 名
扭 曲</w>
岛 内</w>
守 护</w>
富 士
大 都</w>
救 护
牢 牢</w>
开 放
m m</w>
7 8</w>
气 息</w>
刷 新</w>
而 出</w>
奥 迪</w>
18 0</w>
水 质</w>
影 视
影 像</w>
容 量</w>
再 说</w>
下 旬</w>
停 产</w>
那 年</w>
时 长</w>
拖 欠</w>
s t</w>
赔 偿
悄 悄</w>
关 怀</w>
交 叉</w>
渔 民</w>
深 厚</w>
校 区</w>
国 资委</w>
初 衷</w>
做 饭</w>
处 级</w>
哈 佛</w>
微 信
冷 空气</w>
f f
海 拔</w>
受 访</w>
南 宁</w>
诸 如</w>
姿 势</w>
农 户</w>
一 阵</w>
津 贴</w>
家 居</w>
爆 出</w>
布 鲁
履 职</w>
中 科院</w>
te d</w>
学 金</w>
连 锁</w>
抚 养</w>
廉 洁</w>
小 刚</w>
奢 侈
震 撼</w>
良 性</w>
斯 基</w>
奖 项</w>
I M
话 语</w>
半 夜</w>
2 2.
逆 转</w>
载 人</w>
跳 楼</w>
以 免</w>
全 局</w>
不 堪</w>
装 饰</w>
查 出</w>
搭 建</w>
前 一天</w>
光 荣</w>
南京 大屠杀</w>
住 户</w>
N e
号 召</w>
小伙 子</w>
宗 旨</w>
传 输</w>
科 幻</w>
股 指</w>
浪 潮</w>
举报 人</w>
诉 讼
农 场</w>
贪 腐</w>
承 办</w>
出 动</w>
第十 二</w>
专 业
y o
高 档</w>
老 兵</w>
相 识</w>
奶 茶</w>
拉 动</w>
南 市</w>
C C
救 人</w>
征 集</w>
运 气</w>
斯 特</w>
阐 述</w>
输 出</w>
榜 样</w>
查 组</w>
动 荡</w>
20 00万</w>
男 朋友</w>
模 特</w>
立 法
民 用</w>
归 还</w>
处理 器</w>
三 分之一</w>
看 重</w>
消防 员</w>
摧 毁</w>
实 质性</w>
在 职</w>
一 味</w>
9 9.
7 月份</w>
长 安</w>
卧 室</w>
出 面</w>
不 仅
报 网</w>
上 限</w>
o m</w>
深 受</w>
极 限</w>
散 户</w>
受 灾</w>
一 汽</w>
真 理</w>
总 计</w>
足 协</w>
沃 尔
出 差</w>
口 味</w>
igh t</w>
T C</w>
各 族</w>
倒 是</w>
集 中
用 车</w>
幕 后</w>
7 3</w>
老 太太</w>
经 纪
房 产
开 业</w>
大 臣</w>
唯 有</w>
名 校</w>
倒 入</w>
妥 协</w>
海 报</w>
流 域</w>
新 社</w>
预 报</w>
警 官</w>
自动 化</w>
单 元</w>
马 云</w>
自 豪</w>
纠 结</w>
心 思</w>
得 益</w>
干 脆</w>
规 范
限 于</w>
宝 强</w>
班 级</w>
招 标</w>
色 情</w>
考 量</w>
生 成</w>
忙 碌</w>
走 路</w>
走 红</w>
前 段</w>
进 出口</w>
战 区</w>
高等 教育</w>
美 术</w>
拯 救</w>
路 过</w>
细 致</w>
确 诊</w>
病 房</w>
动 能</w>
分 割</w>
p lay</w>
红 线</w>
手 表</w>
些 年</w>
不 宜</w>
9 6</w>
里 程</w>
接 入</w>
蛋白 质</w>
加 之</w>
全 家</w>
东 南</w>
选 民</w>
村 子</w>
中 间
中 心
转 入</w>
批 示</w>
批 判</w>
执 照</w>
没 事</w>
塑 料
x j
古 老</w>
出 自</w>
新 规</w>
按 时</w>
7 4</w>
省 会</w>
倾 斜</w>
作 物</w>
耕 地</w>
白 皮书</w>
充 当</w>
访 谈</w>
生 命
战 线</w>
开 幕式</w>
不仅 如此</w>
科 长</w>
眼 下</w>
民 国</w>
月 饼</w>
幻 想</w>
外 科</w>
B A</w>
整 天</w>
en g
好 莱坞</w>
右 手</w>
近 年</w>
收 紧</w>
联 手</w>
公 投</w>
阳 台</w>
辩 论</w>
王 思
柬 埔
年 薪</w>
闸 蟹</w>
特 约</w>
I S
轻 微</w>
电 竞</w>
推 迟</w>
执 法
岐 山</w>
奢侈 品</w>
倒 闭</w>
门 诊</w>
诗 词</w>
英 特尔</w>
百分 之
h o
空 间
各 种
修 正
大 会
内 阁</w>
老 鼠</w>
水 域</w>
个 性化</w>
提 供
亲 友</w>
R e
N N
L e
暴 涨</w>
政 委</w>
提 倡</w>
自 发</w>
牢 固</w>
演 唱
当 事</w>
站 台</w>
段 子</w>
广 电</w>
参 照</w>
2 1.
金 服</w>
正 如</w>
月 亮</w>
各种 各样</w>
透 过</w>
果 断</w>
201 2</w>
行 星</w>
管理 者</w>
收 视率</w>
基 建</w>
二 者</w>
编 造</w>
清 算</w>
柴 油</w>
酒 精</w>
批 发</w>
发 电</w>
服务 员</w>
An d
粗 暴</w>
CN N</w>
不 服</w>
港 独</w>
注 意
望 远
战 队</w>
境 界</w>
3 3
进 球</w>
指 纹</w>
流 出</w>
注意 力</w>
杀 死</w>
交 涉</w>
负 有</w>
住 宿</w>
i d</w>
极 度</w>
春 运</w>
可 怜</w>
化 腾</w>
基 数</w>
社 团</w>
吸 烟</w>
养 殖
荣 获</w>
良 心</w>
生产 力</w>
无 意</w>
放 宽</w>
服 从</w>
一 经</w>
轰 炸
周 六</w>
出 血</w>
PM 2.5</w>
行 李</w>
彩 礼</w>
保 证金</w>
不 堪
一次 次</w>
模 样</w>
航天 员</w>
党 人</w>
灯 光</w>
常 用</w>
p ro
Chin a</w>
跑 道</w>
放 假</w>
战斗 力</w>
咖 啡
刑 事
201 7-
货 量</w>
督 导</w>
前 任</w>
生 死</w>
永 康</w>
恐 吓</w>
区 块</w>
1 200</w>
竞 技</w>
15 万</w>
柬埔 寨</w>
。 至于</w>
轨 迹</w>
美 洲</w>
称 赞</w>
尼 亚
处 处</w>
好 评</w>
同 情</w>
P ro</w>
表 彰</w>
船 只</w>
重 磅</w>
水 源</w>
户 外</w>
大 闸蟹</w>
大 奖</w>
出 路</w>
瞄 准</w>
编 队</w>
站 点</w>
望远 镜</w>
小 李</w>
共产 党人</w>
al l</w>
水 下</w>
施 压</w>
录 制</w>
b y</w>
车 牌</w>
晓 明</w>
扬 子</w>
卡 车</w>
参 谋
两 侧</w>
5 00
露 出</w>
更 名</w>
救护 车</w>
8 2</w>
挣 扎</w>
售 卖</w>
注 射</w>
实 话</w>
安 理会</w>
起 草</w>
火 热</w>
克 ·
W i
驱 逐
基本 面</w>
代表 性</w>
文 明
奥 斯
大 肆</w>
分 期</w>
亲 切</w>
穆 斯
日 记</w>
损 坏</w>
迫 使</w>
试 行</w>
4 00
想 不到</w>
而 知</w>
演 绎</w>
充 电
导 体</w>
公 主</w>
界 定</w>
演唱 会</w>
小小 的</w>
.com /
智 商</w>
片 区</w>
难 过</w>
口 岸</w>
热 搜</w>
温 馨</w>
宁 市</w>
b i
酱 油</w>
载 体</w>
情 景</w>
颇 为</w>
慰 问</w>
危 险
冷 战</w>
辖 市</w>
m o
里 约</w>
舞 蹈</w>
第 二十
有 益</w>
开 玩笑</w>
促 销</w>
世 贸</w>
诚 意</w>
消 灭</w>
意 料</w>
南 非</w>
再 生</w>
精 确</w>
商 业化</w>
募 集</w>
牢 记</w>
智能 化</w>
中 断</w>
迫 切</w>
忍 受</w>
微信 群</w>
如 实</w>
原 材料</w>
6 9
高 官</w>
电 话
手 臂</w>
生产 总值</w>
点 名</w>
领 馆</w>
游 玩</w>
毫无 疑问</w>
执 业</w>
十 七</w>
村 干部</w>
供 电</w>
警 车</w>
出 演</w>
经纪 人</w>
水 分</w>
裤 子</w>
放 到</w>
w hi
绿 化</w>
破 获</w>
国务 卿</w>
画 家</w>
充 值</w>
任 性</w>
古 巴</w>
青 山</w>
尤 为</w>
健 林</w>
3 5%</w>
竣 工</w>
神 话</w>
博 主</w>
199 1年</w>
18 0万</w>
赶 上</w>
四 五</w>
高 血压</w>
院 子</w>
演 练</w>
增 大</w>
热 衷</w>
游 行</w>
消费 品</w>
浏览 器</w>
慰 安
长 度</w>
输 送</w>
证 券
批 复</w>
V R</w>
经 纪</w>
成 品
台 阶</w>
过 渡</w>
轰炸 机</w>
执 勤</w>
兑 现</w>
8 1</w>
造 谣</w>
转 身</w>
外 贸</w>
十 二
被 执行人</w>
多 样</w>
凭 证</w>
主 任
当 地人</w>
首 尔</w>
研讨 会</w>
挂 钩</w>
加油 站</w>
追 溯</w>
过 后</w>
讽 刺</w>
无 辜</w>
打 压</w>
微 商</w>
刚 好</w>
驱逐 舰</w>
扬 子
估 算</w>
生 于</w>
停 放</w>
供 需</w>
X X</w>
诗 歌</w>
段 性</w>
有 钱</w>
云 计算</w>
三 峡</w>
递 交</w>
求 是</w>
所有 制</w>
十 亿</w>
副 教授</w>
迪 士
流 浪
收 费
收 缩</w>
唱 歌</w>
知识 分子</w>
王 岐山</w>
王 子</w>
杰 出</w>
主义 者</w>
。 原</w>
环 境
轰 炸</w>
评论 员</w>
我 市</w>
少 量</w>
均 匀</w>
y le</w>
那 段</w>
试验 区</w>
抵 抗</w>
开 门</w>
节 省</w>
掌 控</w>
报 告
喜 剧</w>
冒 充</w>
隔 离</w>
逝 世</w>
沙 发</w>
敲 诈
当 做</w>
情 侣</w>
夜 晚</w>
台 媒</w>
S p
扭 转</w>
判 定</w>
决 不</w>
顶 尖</w>
生 态
汉 语</w>
气 体</w>
退 市</w>
李嘉 诚</w>
少 林
公 然</w>
公 有
征 税</w>
血 病</w>
lo g
量 刑</w>
每 当</w>
揭 露</w>
关 停</w>
8 4</w>
折 扣</w>
宽 带</w>
假 冒</w>
鲁 迅</w>
近 来</w>
范 畴</w>
朝 阳区</w>
债 权</w>
状 元</w>
钓鱼 岛</w>
T A</w>
近 代</w>
相 差</w>
短 缺</w>
2 3.
欺 负</w>
n i
扣 押</w>
长 官</w>
5 000万</w>
虚 构</w>
联合 会</w>
筹 备</w>
周 二</w>
名 气</w>
维 度</w>
坚 实</w>
取 保</w>
剧 中</w>
不 符</w>
ati on
阶 段性</w>
起 初</w>
常 住</w>
G oo
源 自</w>
河 道</w>
职 称</w>
社 科院</w>
瑞 海</w>
安 心</w>
合作 社</w>
偏 见</w>
半 场</w>
内 幕</w>
关 节</w>
7 1</w>
老 大</w>
本 金</w>
尊 敬</w>
加 值</w>
8 7</w>
遇 难者</w>
新 城</w>
公 共
成品 油</w>
R VE
节 能</w>
致 辞</w>
大 雨</w>
鞋 子</w>
美 景</w>
养 费</w>
骨 头</w>
直 属</w>
摆 放</w>
导 员</w>
稿 件</w>
曲 线</w>
克 斯坦</w>
诊 疗</w>
笑 话</w>
数 字
严 谨</w>
问 及</w>
署 名</w>
明 知</w>
合 一</w>
司 令</w>
叠 加</w>
得 分</w>
征 程</w>
8 6</w>
迪士 尼</w>
登 记
深 远</w>
半 导体</w>
二手 车</w>
。。 。</w>
水 量</w>
样 品</w>
逃 跑</w>
谈 论</w>
提 案</w>
co m
滋 事</w>
往 年</w>
巡 航</w>
量 化</w>
著 作</w>
日 方</w>
Ad d</w>
7 .</w>
转 为</w>
赠 送</w>
激 活</w>
惠 州</w>
察 组</w>
M H
历 时</w>
一代 人</w>
战略 性</w>
判 刑</w>
军 民</w>
保护 伞</w>
王 小
w s
邮 政</w>
水 中</w>
事 记</w>
晚 会</w>
保护 主义</w>
支持 者</w>
富士 康</w>
同 等</w>
上 空</w>
隐 形</w>
白 血病</w>
树 斌</w>
推 向</w>
零 部件</w>
美 容</w>
第 3</w>
温 和</w>
破 裂</w>
疲 劳</w>
沉 迷</w>
急 需</w>
实 实</w>
讲 解</w>
离 家</w>
推 销</w>
团 员</w>
Po s</w>
10 0亿</w>
物 理
国 队</w>
SU RVE
SURVE Y</w>
Ad Pos</w>
面 包</w>
到 场</w>
b e
制 性</w>
原 谅</w>
中 文
这 儿</w>
忽 然</w>
八 十</w>
弹 性</w>
豆 腐</w>
折 磨</w>
合 伙</w>
出 院</w>
设 有</w>
投 案</w>
海 岸</w>
面 包
类 别</w>
沦 为</w>
残 疾</w>
亲 子</w>
诺 贝尔</w>
穆斯 林</w>
慰安 妇</w>
ar e</w>
远 处</w>
窝 点</w>
生 理</w>
甘 肃
入 住</w>
评 为</w>
提 请</w>
三 亚</w>
谋 划</w>
商 会</w>
洗 澡</w>
法 拉
华 南</w>
阵 容</w>
直 辖市</w>
旅游 局</w>
射 击</w>
劝 阻</w>
10 月份</w>
降 幅</w>
规 划
纤 维</w>
月 薪</w>
5 0亿</w>
残 忍</w>
女 孩子</w>
7 00
学 霸</w>
上 个
边 防</w>
全 场</w>
一 旁</w>
简 介</w>
墙 上</w>
保 卫</w>
岛 屿</w>
安 门</w>
妹 子</w>
北 斗</w>
数字 化</w>
度 假</w>
公 认</w>
会 面</w>
世 人</w>
贪 官</w>
动 漫</w>
不 好
6 月份</w>
鼻 子</w>
爆 炸
清 新</w>
海 底</w>
房 地产
免 职</w>
幽 默</w>
t o
甘肃 省</w>
核 武器</w>
标 的</w>
c m</w>
P l
阵 营</w>
酒 吧</w>
积 蓄</w>
私有 化</w>
暑 期</w>
据 此</w>
寻 常</w>
最 好</w>
搜 寻</w>
生育 率</w>
代理 人</w>
重 返</w>
父 子</w>
军 官</w>
7 时</w>
驻 华</w>
—— ——
展 望</w>
基本 法</w>
续 费</w>
清 朝</w>
北 上</w>
s s</w>
比 利
削 减</w>
一 会</w>
行政 区</w>
民 企</w>
改 正</w>
常 人</w>
吵 架</w>
闺 蜜</w>
悲 伤</w>
敲诈 勒
当 庭</w>
公有 制</w>
两 万</w>
购 票</w>
7 点</w>
畅 通</w>
候 审</w>
不 上</w>
25 .
方 便
抹 黑</w>
规 避</w>
分 红</w>
a m</w>
未 成年</w>
审 判
长 沙
封 锁</w>
体 力</w>
文 艺
差 点</w>
6 6
干 活</w>
军 演</w>
9 3</w>
麦 当
比 亚
动 用</w>
事 迹</w>
水 位</w>
林 市</w>
7 000</w>
默 克尔</w>
遇 害</w>
右 侧</w>
免 去</w>
着 眼</w>
愉 快</w>
地 步</w>
高 大</w>
防 务</w>
烟 草</w>
一 向</w>
身 心</w>
赶 来</w>
资本 主义</w>
次 于</w>
C o
金融 业</w>
小 张</w>
关 门</w>
下 列</w>
v e
车 位</w>
修 正</w>
减 刑</w>
个 股</w>
12 %</w>
天 才</w>
C D</w>
贯 穿</w>
澳 洲</w>
搜 集</w>
地 处</w>
新 款</w>
p er
标 价</w>
土 豆</w>
捆 绑</w>
万 一</w>
阻 力</w>
辟 谣</w>
旅游 业</w>
幸 福
单 方面</w>
皇 家</w>
涉 事</w>
对 立</w>
依 次</w>
st yle</w>
谅 解</w>
汇 总</w>
此 刻</w>
底 下</w>
刑 警</w>
寻 衅
贝 尔
修正 案</w>
d e</w>
出 场</w>
六 十</w>
党 政
t -
洛 阳</w>
笑 容</w>
涌 现</w>
中 生</w>
海 口</w>
期 刊</w>
抬 头</w>
不 光</w>
1 30</w>
辩 护人</w>
197 8年</w>
赛 场</w>
王 朝</w>
不 论
3 000万</w>
201 8-
麦当 劳</w>
维 和</w>
平 民</w>
可 乐</w>
减 弱</w>
代 谢</w>
下 一代</w>
11 点</w>
应 付</w>
专 业化</w>
大 叔</w>
变 现</w>
剧 烈</w>
穿 过</w>
图 文</w>
出 庭</w>
假 货</w>
8 3</w>
风 口</w>
面 貌</w>
爱 上</w>
实 实
厂 房</w>
劝 说</w>
一 步步</w>
集 会</w>
视 线</w>
归 来</w>
少 于</w>
领 事
言 之</w>
市 级</w>
仪 器</w>
李 彦
大会 堂</w>
区 长</w>
公 益
监 视</w>
80 后</w>
高 尔
连 夜</w>
核 准</w>
学生 会</w>
人 情</w>
说 服</w>
界 限</w>
朝 着</w>
警 力</w>
彼 时</w>
上 帝</w>
词 汇</w>
生产 线</w>
小 幅</w>
天 文
g in
铁 站</w>
逐 年</w>
覆 盖
耳 朵</w>
湖 区</w>
撰 写</w>
初 心</w>
J o
少林 寺</w>
不 动</w>
扎 克
不 知
顶 层</w>
证 会</w>
消 极</w>
198 5年</w>
正 非</w>
i OS</w>
高 手</w>
持 平</w>
尼 斯</w>
辞 去</w>
流 水</w>
决 定书</w>
借 款人</w>
扬子 晚报</w>
AP EC</w>
理工 大学</w>
急 性</w>
困 惑</w>
单 价</w>
刷 单</w>
从 业者</w>
A M
遥 远</w>
打 架</w>
女 王</w>
名 额</w>
上个 月</w>
重 心</w>
训 练
景 象</w>
娃 娃</w>
25 0</w>
支 行</w>
后 代</w>
2 7.
黑 名单</w>
白 云</w>
新 浪
农 药</w>
黑 恶</w>
缺 点</w>
主 线</w>
突 破
描 绘</w>
贩 子</w>
聘 请</w>
职 业
水 电</w>
支 柱</w>
大 幅度</w>
外 籍</w>
在 在</w>
卖 淫</w>
分 级</w>
8 9</w>
队 友</w>
费 率</w>
弹 道
开 口</w>
实实 在在</w>
大 风</w>
光 线</w>
老 太</w>
热 潮</w>
流 转</w>
派 遣</w>
揭 开</w>
影 子</w>
小 偷</w>
华 东</w>
中 山
推 测</w>
含 义</w>
I S</w>
选 项</w>
培训 班</w>
B BC</w>
9 -
行政 部门</w>
联 络</w>
男 方</w>
影 业</w>
关 注
3 70</w>
祝 贺</w>
得 起</w>
周 日</w>
廉 价</w>
入 手</w>
民 宿</w>
分 之
停 职</w>
体 量</w>
正 值</w>
2 4.
小 王</w>
创 事记</w>
黑 社会</w>
英 寸</w>
报 讯</w>
国 籍</w>
交 谈</w>
环 卫</w>
河 流</w>
妨 碍</w>
6 4
续 性</w>
注 册
无 期徒刑</w>
宣 扬</w>
口 径</w>
供 图</w>
价 比</w>
th at</w>
文 革</w>
力 气</w>
一 年
概 括</w>
卓 越</w>
侦 办</w>
高 调</w>
简 化</w>
监 督
有 毒</w>
制 服</w>
外 套</w>
发 售</w>
印 证</w>
包 围</w>
201 0</w>
期 盼</w>
个 案</w>
198 8年</w>
迷 茫</w>
话 语
药 业</w>
感 知</w>
扫 码</w>
而 后</w>
知名 度</w>
比 分</w>
星 级</w>
弹道 导弹</w>
口 头</w>
g le</w>
厅 级</w>
ti c
往 返</w>
第 2</w>
攻 略</w>
性 价比</w>
器 械</w>
言 行</w>
新 品</w>
挽 回</w>
为 首</w>
不 一</w>
铁路 局</w>
晓 东</w>
2 6.
惩 治</w>
13 亿</w>
稳 定性</w>
购 买
奇 艺</w>
剧 院</w>
7 9</w>
解 答</w>
蓬 勃</w>
哥 伦
财 年</w>
开 头</w>
国民 经济</w>
一 心</w>
解 说</w>
斐 讯</w>
舒 吉</w>
肝 脏</w>
离 世</w>
时间 表</w>
持 久</w>
招 募</w>
布 尔</w>
守 法</w>
脏 病</w>
时 空</w>
散 发</w>
强 奸
储 存</w>
7 5%</w>
198 7年</w>
行 列</w>
提 速</w>
司令 员</w>
发 病</w>
元 首</w>
气象 台</w>
出 入</w>
C F
t h</w>
热 心</w>
张 小
呼 和
同 类</w>
削 弱</w>
F i</w>
话语 权</w>
终 究</w>
放 置</w>
呼 吸
发 性</w>
侧 面</w>
te x
an g</w>
诠 释</w>
罗 马</w>
体 质</w>
产 值</w>
义 勇
16 0</w>
飙 升</w>
监 护人</w>
宽 容</w>
N O
腹 部</w>
9 5%</w>
难 受</w>
适 时</w>
称 呼</w>
新浪 网</w>
折 射</w>
导 读</w>
美 味</w>
王思 聪</w>
激 进</w>
智 力</w>
推 翻</w>
扎克 伯格</w>
底 气</w>
呼 声</w>
买 单</w>
赞 赏</w>
试 试</w>
健 身
er s</w>
淫 秽</w>
弱 势</w>
对 照</w>
冰 雪</w>
s hi
态 化</w>
对 峙</w>
不论 是</w>
官 场</w>
安 倍
公 式</w>
伊斯 兰</w>
任 正非</w>
A T</w>
车 门</w>
民政 部</w>
运 送</w>
终 点</w>
物 体</w>
取 出</w>
生活 费</w>
呼和 浩
万 万</w>
12 万</w>
是 非</w>
与 会</w>
5 9
著 作
ou n
ET F</w>
4 5%</w>
赌 场</w>
独 生
k e</w>
0 8月</w>
顺 应</w>
跨 国</w>
文 /
商 铺</w>
追 逐</w>
此 处</w>
方 面
政 变</w>
增 至</w>
口 中</w>
海 南省</w>
C O
置 业</w>
港 股</w>
年 间</w>
试 卷</w>
考 古</w>
无 非</w>
刹 车</w>
规 格</w>
冒 险</w>
税 法</w>
改革 委</w>
惯 例</w>
ur e</w>
高新 技术</w>
抢 险</w>
折 合</w>
感 器</w>
中 长期</w>
门 户</w>
第十 一</w>
检察 长</w>
所有 权</w>
我 军</w>
二 氧化
当 即</w>
助 手</w>
点 燃</w>
泛 亚</w>
入 职</w>
30 .
脑 袋</w>
用 力</w>
梅 西</w>
6 点</w>
艰 辛</w>
耽 误</w>
日 报社</w>
尺 度</w>
i c</w>
h t
致 死</w>
早 年</w>
查 找</w>
显 示
宝 贝</w>
创 新
亚 太
三 角
科 生</w>
毛 病</w>
巅 峰</w>
足 彩</w>
账 单</w>
富 人</w>
宝 鸡</w>
联 社</w>
编 剧</w>
库 克</w>
品 类</w>
达 州</w>
衰 退</w>
折 腾</w>
原 先</w>
监 制</w>
汇 聚</w>
势 必</w>
社 保
炒 股</w>
抗 癌</w>
悄 然</w>
尔 斯</w>
出 口
催 生</w>
二 期</w>
m ent</w>
玩 耍</w>
加 拉
换 届</w>
手 续费</w>
侦 破</w>
爱 奇艺</w>
断 裂</w>
承 包
实 事
实事 求是</w>
完 工</w>
多 元</w>
五 六</w>
不 法</w>
机 械
无 线
惩 处</w>
异 性</w>
2 O</w>
计 生
故 乡</w>
山 水</w>
局 限</w>
天津 港</w>
治 病</w>
昔 日</w>
摔 倒</w>
中小 学生</w>
难 点</w>
标 志
工商 局</w>
匿 名</w>
S T</w>
那 位</w>
没 用</w>
宏 伟</w>
安 德
手 术
主 办
两 千</w>
专 辑</w>
公 证</w>
九 寨
贡 献
失 职</w>
延 误</w>
口 袋</w>
代理 商</w>
发 掘</w>
高 龄</w>
菲 特</w>
小 于</w>
商 用</w>
黑 人</w>
安 卓</w>
劳 务</w>
探 访</w>
探 测
变 形</w>
充 实</w>
二 号</w>
3 50</w>
水 利</w>
乐 园</w>
s on</w>
g e</w>
自 贸</w>
疗 法</w>
环保 部</w>
方便 面</w>
匆 匆</w>
泄 漏</w>
欢 乐</w>
极 致</w>
先 锋</w>
主 讲</w>
敬 畏</w>
据 称</w>
小 孩子</w>
e x
脚 下</w>
浓 厚</w>
江 区</w>
上 次</w>
车 身</w>
窃 取</w>
散 步</w>
家 庭
周 某</w>
低 端</w>
顺 丰</w>
赵 丽
听 证会</w>
发 行
乌 鲁
顺 序</w>
稳 中
用 户
日 后</w>
天 赋</w>
外 人</w>
口 市</w>
仅 次于</w>
开发 者</w>
开 枪</w>
复 核</w>
六 中全会</w>
全 长</w>
名 词</w>
无论 如何</w>
搜 索
6 时</w>
纪念 馆</w>
服 役</w>
天 上</w>
哈 萨
代 言</w>
老 赖</w>
台 湾
保护 法</w>
犯罪 分子</w>
收 支</w>
天 生</w>
医 务</w>
筹 码</w>
坚 信</w>
视 察</w>
地 缘</w>
图 案</w>
一 时间</w>
执 纪</w>
城 县</w>
跟 进</w>
筛 选</w>
激 素</w>
店 主</w>
巴 克</w>
ar d</w>
秦 岭</w>
同 性
男 童</w>
声 誉</w>
I I</w>
1. 0
心 脏病</w>
业 率</w>
性 感</w>
关键 字</w>
身 着</w>
纲 要</w>
电 气</w>
春 市</w>
意 向</w>
债 权人</w>
阴 阳</w>
逆 差</w>
路 军</w>
自 贸
流 感</w>
异 化</w>
定 点</w>
遍 布</w>
实 战</w>
增 添</w>
不 懈</w>
适 宜</w>
车 队</w>
乌鲁 木
欧 阳
加 深</w>
投 身</w>
基 准</w>
P K</w>
O 2O</w>
I B
汉 字</w>
孙 中山</w>
前 线</w>
利 润
项 目
老 乡</w>
昌 市</w>
废 物</w>
存 放</w>
启 用</w>
升 高</w>
E N
起 源</w>
满 满
传 感器</w>
起 诉
征 信</w>
独 角
从 轻</w>
辩 护
辗 转</w>
患 病</w>
优 异</w>
亚 运会</w>
药 店</w>
意 味</w>
大 湾区</w>
全 县</w>
传 导</w>
缓 刑</w>
打 仗</w>
几 十万</w>
b u
华 侨</w>
出 狱</w>
星 球</w>
馒 头</w>
赶 往</w>
未 知</w>
引 爆</w>
198 4年</w>
缺 席</w>
现 年</w>
西 斯</w>
猛 料</w>
牌 子</w>
标 语</w>
尽 力</w>
其 后</w>
修 养</w>
__ __
银 监会</w>
苦 难</w>
细 分</w>
孙 某</w>
唐 山</w>
sp ace</w>
他 家</w>
9 00</w>
随 身</w>
雷 锋</w>
篡 改</w>
第 1</w>
建 军</w>
侦 察</w>
中 西部</w>
本 性</w>
成 品</w>
华 西</w>
运 营
没 关系</w>
妇 联</w>
瓶 颈</w>
打 捞</w>
市 政</w>
门 外</w>
议 案</w>
衣 物</w>
台 词</w>
内 政</w>
进 化</w>
运 河</w>
该 局</w>
王 俊
拖 延</w>
口 感</w>
即 时</w>
伤 心</w>
犹 如</w>
博 客</w>
顶 部</w>
星 人</w>
宅 基地</w>
名 片</w>
等 候</w>
平 原</w>
四 季</w>
麦 克
集 成</w>
醒 来</w>
洋 葱</w>
五 千</w>
议 书</w>
捐 献</w>
常 态化</w>
5 6
闲 置</w>
命 题</w>
供 热</w>
领事 馆</w>
酒 后</w>
空间 站</w>
海 洋
操 控</w>
庄 家</w>
半 天</w>
零 食</w>
迈 出</w>
客 流</w>
为 人
薪 资</w>
执 着</w>
战 后</w>
开 具</w>
辅 警</w>
讨 厌</w>
大 方</w>
填 报</w>
国 庆
商 业
可 疑</w>
198 2年</w>
0 8
集 聚</w>
军 工</w>
SU V</w>
197 9年</w>
知 晓</w>
王 文
幸福 感</w>
审 讯</w>
兼 顾</w>
I C</w>
詹 姆
安 检</w>
2 8.
该 市</w>
论 述</w>
救 命</w>
征 地</w>
飞 往</w>
私 自</w>
李彦 宏</w>
拿 走</w>
念 头</w>
停 牌</w>
Goo gle</w>
12 3
鼓 舞</w>
p x</w>
罗 永
缩 水</w>
尔 德</w>
9 7</w>
疑 惑</w>
不可 避免</w>
巴 菲特</w>
一 举</w>
12 时</w>
长 寿</w>
若 是</w>
避 开</w>
水 准</w>
大 半</w>
合 法
趋 于</w>
iP ad</w>
M i
萎 缩</w>
白 人</w>
激 光</w>
天 安门</w>
大 姐</w>
江 山</w>
一 号</w>
饮 酒</w>
现 阶段</w>
力 军</w>
b an</w>
Mo de
I N
法 新社</w>
钱 财</w>
早 早</w>
出 走</w>
驾驶 证</w>
逃 税</w>
累 积</w>
恶 心</w>
魅 族</w>
扩 建</w>
忽 悠</w>
下 次</w>
8 0万</w>
节 假日</w>
博士 生</w>
经济 带</w>
民 调</w>
新 版</w>
左 手</w>
各 省</w>
冯 小刚</w>
n e</w>
失 衡</w>
参 议院</w>
出 名</w>
高 空</w>
预 定</w>
日 渐</w>
救 市</w>
山 寨</w>
好 在</w>
固 定
滞 留</w>
昂 贵</w>
抑 郁</w>
兼 任</w>
关 乎</w>
200 亿</w>
记 本</w>
编 号</w>
经 商</w>
救 援
天 文</w>
卷 入</w>
7 7
皇 马</w>
欣 欣</w>
归 案</w>
限 期</w>
芝 麻</w>
旋 律</w>
德 里</w>
公共 场所</w>
重 型</w>
平 日</w>
备 用</w>
勤 奋</w>
高 等</w>
震 慑</w>
胞 胎</w>
网 吧</w>
学 子</w>
住 所</w>
白 领</w>
涌 入</w>
传 染
高 低</w>
私 营</w>
满 意
控制 人</w>
拉 美</w>
心 愿</w>
延 期</w>
园 林</w>
召 集</w>
隔 壁</w>
降 级</w>
迄 今</w>
查 证</w>
柏 林</w>
改 名</w>
便利 店</w>
国防 部长</w>
制 度
全 军</w>
触 及</w>
相 遇</w>
狼 2</w>
民 心</w>
投 足彩</w>
愿 景</w>
前 述</w>
研究 室</w>
电 路</w>
洗 衣
就 诊</w>
反对 派</w>
绘 画</w>
建筑 物</w>
互 信</w>
2 9.
追 赶</w>
符 号</w>
享 年</w>
红 灯</w>
知 情人</w>
榜 首</w>
回 想</w>
te -
造 就</w>
胎 儿</w>
orm al</w>
称 作</w>
数 百万</w>
招 牌</w>
强 力</w>
寻衅 滋事</w>
夸 大</w>
侥 幸</w>
一 无
送 达</w>
自贸 区</w>
第十 三</w>
示 威</w>
率 领</w>
楚 天</w>
午 餐</w>
心 理学</w>
D A</w>
货 运</w>
第 4</w>
放 权</w>
夺 得</w>
w en</w>
﻿ ﻿</w>
198 0年</w>
致 歉</w>
熟 知</w>
性 骚扰</w>
军 训</w>
乐 队</w>
一般 来说</w>
罗永 浩</w>
紧 接着</w>
产 出</w>
联 系
能 源
火 车票</w>
彭 博
分 泌</w>
运输 部</w>
赞 成</w>
坠 毁</w>
三 级</w>
武 力</w>
来 回</w>
整 容</w>
教 学
lin e-
豪 车</w>
自 来
护 航</w>
反 响</w>
动 辄</w>
隆 重</w>
羁 押</w>
礼 品</w>
放 过</w>
划 定</w>
下 乡</w>
预 订</w>
迟 到</w>
要 点</w>
电 厂</w>
战 狼2</w>
对 付</w>
大 军</w>
农 田</w>
g o
示范 区</w>
抚 养费</w>
尽 早</w>
P P</w>
扬 州</w>
恰 好</w>
卡 舒吉</w>
俄 方</w>
不 法
20 时</w>
1 40</w>
永 信</w>
马 尔
营 运</w>
用 水</w>
外 逃</w>
二 代</w>
bo tt
打 响</w>
巴 布
集 体
行 性</w>
聂 树斌</w>
本 事</w>
外 表</w>
公 道</w>
不 通</w>
程序 员</w>
肢 体</w>
抽 查</w>
张 国
展 出</w>
君 子</w>
上 路</w>
责任 感</w>
刑 罚</w>
下 线</w>
C R
里 程
煽 动</w>
明 书</w>
护 栏</w>
便 于</w>
何 种</w>
欠 款</w>
开 花</w>
责 编</w>
放 学</w>
n ormal</w>
line- he
气 愤</w>
保 卫
专 科</w>
通 往</w>
纠 缠</w>
立 体</w>
建 交</w>
嘴 里</w>
调 价</w>
现 货</w>
浑 身</w>
悬 挂</w>
开 采</w>
自然 保护区</w>
屡 屡</w>
高 潮</w>
选 择
突 击</w>
民政 局</w>
掌 声</w>
bott om</w>
兑 付</w>
黄 牛</w>
警 察
装 箱</w>
活 性</w>
度 假
发 扬</w>
世 间</w>
督 察组</w>
收费 站</w>
快 捷</w>
心 人</w>
共 鸣</w>
事 态</w>
来 不及</w>
克 制</w>
丰 田</w>
5 时</w>
比利 时</w>
受 益
僵 尸</w>
华 中</w>
纳 粹</w>
环境 部</w>
海 水</w>
捕 捉</w>
头 像</w>
大 化</w>
外 形</w>
可 行</w>
关 口</w>
充 斥</w>
丽 江</w>
4 4
触 犯</w>
背 部</w>
春 雨</w>
定 力</w>
出 不
船 员</w>
白 银</w>
法 学院</w>
崇 拜</w>
层 出不
层出不 穷</w>
gin -
立法 会</w>
寒 冷</w>
3 3.
查 清</w>
古 典</w>
9 4</w>
8 .</w>
自来 水</w>
种 族</w>
求 证</w>
峰 值</w>
勘 查</w>
近 些年</w>
议 程</w>
眼 看</w>
医 学院</w>
人 寿</w>
驱 逐</w>
调 度</w>
无 聊</w>
作 弊</w>
众 筹</w>
不 能
水 利
按 摩</w>
悟 空</w>
D e
着 陆</w>
指 望</w>
打 招呼</w>
想 必</w>
安全 法</w>
邪 教</w>
超 级
医 科</w>
b er
.c n
配 图</w>
请 假</w>
认 购</w>
班 长</w>
太阳 能</w>
国 资</w>
信 办</w>
tex t-
25 万</w>
美 术
知 情
拼 搏</w>
就 职</w>
利润 率</w>
低 头</w>
en t
通讯 社</w>
政 事儿</w>
党 纪</w>
特 权</w>
固 然</w>
text- ind
text-ind ent</w>
mar gin-
2 em</w>
10 px</w>
西 瓜</w>
点 儿</w>
人社 部</w>
20 30</w>
引 人
s ://
http s://
调 取</w>
证 言</w>
莫 迪</w>
不法 分子</w>
20 00亿</w>
1.5 em</w>
茶 叶</w>
熟 人</w>
承 接</w>
双 十一</w>
决 定性</w>
锦 赛</w>
谎 言</w>
消 毒</w>
安 抚</w>
字 号</w>
大 中
不 足以</w>
三 文
远 方</w>
综合 性</w>
牙 齿</w>
g u
轮 胎</w>
外 婆</w>
咳 嗽</w>
出 货量</w>
优 点</w>
不 慎</w>
下 架</w>
抽 检</w>
峰 期</w>
复 查</w>
调 任</w>
法 医</w>
星 巴克</w>
低 俗</w>
on g</w>
194 9年</w>
降 落</w>
诉讼 法</w>
血 糖</w>
层 级</w>
全 区</w>
何 某</w>
野 蛮</w>
启 发</w>
踏 实</w>
赵丽 颖</w>
税 费</w>
清 水</w>
此 文</w>
平 板</w>
工 伤</w>
博 会</w>
margin- bottom</w>
H I
游 览</w>
挽 救</w>
华 润</w>
医 疗
事业 部</w>
穷 人</w>
手 工</w>
市 中心</w>
不好 意思</w>
七 八</w>
l d</w>
配 方</w>
科 大</w>
海 鲜</w>
步 行</w>
晋 三</w>
哥伦 比亚</w>
5 月份</w>
迄 今
禁 毒</w>
彭博 社</w>
l ang
迄今 为止</w>
法 师</w>
更 改</w>
供 水</w>
通 行
配 资</w>
迅 猛</w>
贵 族</w>
芝 加
戏 剧</w>
城市 化</w>
海 航</w>
防 汛</w>
谋 求</w>
糊 涂</w>
投 降</w>
慎 重</w>
line-he ight</w>
a o
弟 子</w>
whi te-
泉 州</w>
家 门口</w>
省 部级</w>
燕 郊</w>
搭 乘</w>
三 中全会</w>
。 正如</w>
老 伴</w>
筹 集</w>
社 长</w>
燃 油</w>
数 万</w>
配 件</w>
治 愈</w>
校 友</w>
定 罪</w>
林 业</w>
当 面</w>
15 亿</w>
热 量</w>
已 然</w>
外 商</w>
不 料</w>
街 上</w>
福 特</w>
化 率</w>
繁 华</w>
书 记
xin wen</w>
挫 折</w>
常 州</w>
夜 里</w>
多样 化</w>
12 30
第 四
浏 览</w>
材 质</w>
低 估</w>
一 百
视 听</w>
王 林</w>
列 出</w>
阻 挡</w>
燃 气</w>
杠 杆
忘 录</w>
往 事</w>
审 视</w>
K TV</w>
9 9%</w>
空 前</w>
摄 入</w>
废 除</w>
备 忘录</w>
任 用</w>
4 时</w>
10 000</w>
降 费</w>
遗 传</w>
肥 胖</w>
安倍 晋三</w>
参谋 长</w>
万 物</w>
white- space</w>
计 生</w>
时 节</w>
散 布</w>
产业 园</w>
wit h</w>
il l</w>
Al p
防 守</w>
背 着</w>
涉案 人员</w>
必 定</w>
刀 切</w>
犹 太
标志 性</w>
成 龙</w>
CP I</w>
重 塑</w>
胡 同</w>
澄 湖</w>
总 和</w>
责 成</w>
网 信办</w>
方 向
孵 化</w>
华 裔</w>
中 标</w>
专 属</w>
不 曾</w>
m a
进 取</w>
豪 宅</w>
西 洋</w>
笔 记本</w>
限 额</w>
再 见</w>
NB A</w>
美联 社</w>
本 着</w>
打 败</w>
元 旦</w>
满 满</w>
龙 虾</w>
闻 名</w>
问 卷</w>
起 伏</w>
蒙 古
旗 舰</w>
山 路</w>
发 点</w>
主办 方</w>
明 尼
促 成</w>
三文 鱼</w>
三 千</w>
高 昂</w>
肆 意</w>
油 田</w>
信 徒</w>
量 级</w>
股 份
永 不</w>
0. 5</w>
聚 力</w>
吸 取</w>
刑 侦</w>
罚 单</w>
李 文
入 狱</w>
6 5
面 板</w>
芝加 哥</w>
素 材</w>
最高 法</w>
成 名</w>
愈 发</w>
地 下
变 迁</w>
交 道</w>
精 度</w>
税 务局</w>
比亚 迪</w>
审 慎</w>
官 微</w>
光 大</w>
ti on
198 6年</w>
16 3</w>
滑 坡</w>
滋 生</w>
机 密</w>
店 员</w>
冬 奥会</w>
兵 团</w>
中央 政府</w>
饺 子</w>
察 看</w>
13 %</w>
透 明
自 助</w>
工程 院</w>
受 骗</w>
下 周</w>
上 证</w>
F B
10 1</w>
见 义勇
缩 减</w>
研究 者</w>
本 领</w>
剧 组</w>
入 党</w>
仲裁 案</w>
音 频</w>
苏 丹</w>
旗 号</w>
徐 州</w>
奋 力</w>
勾 结</w>
似 的</w>
198 9年</w>
首 脑</w>
长沙 市</w>
派 驻</w>
普 惠</w>
习 俗</w>
董事 局</w>
农业 部</w>
专 职</w>
17 时</w>
鲜 肉</w>
山 上</w>
G O</w>
观 望</w>
督 办</w>
盘 点</w>
慢 性</w>
急 剧</w>
感 激</w>
周 永康</w>
i d
耳 机</w>
搜 狐</w>
W TO</w>
登 场</w>
基 站</w>
伤 员</w>
车 组</w>
发 货</w>
S te
阅 读
落 网</w>
拓 宽</w>
奔 跑</w>
盘 中</w>
政府 军</w>
单 词</w>
五 花
首 选</w>
饲 养</w>
打 扮</w>
大 腿</w>
动 向</w>
停 电</w>
T e
2. 0
0. 0
维 吾
王 健林</w>
居住 证</w>
托 管</w>
共产 党员</w>
世 上</w>
s u
黄金 周</w>
英 九</w>
巴 勒
野 心</w>
画 像</w>
曼 联</w>
打 假</w>
悲 观</w>
得 罪</w>
在 建</w>
惯 性</w>
少 许</w>
嘲 笑</w>
蓝 图</w>
热 血</w>
时 髦</w>
处 境</w>
商 贸</w>
乾 隆</w>
之 以
3 点</w>
纵 容</w>
干 警</w>
多样 性</w>
反 恐</w>
重 度</w>
追 缴</w>
运 载
开 关</w>
平 台
善 后</w>
唐 爽</w>
百 白
思 想
彼 得
女 婿</w>
公开 信</w>
作 假</w>
' s</w>
议 论</w>
绑 定</w>
直 销</w>
烟 台</w>
温 泉</w>
思 议</w>
张 晓
观 光</w>
第 5</w>
瘫 痪</w>
水 上</w>
服 饰</w>
才 华</w>
引 力
右 翼</w>
元/ 平米</w>
马 桶</w>
点 赞
O LED</w>
秋 节</w>
福 布斯</w>
打 动</w>
屁 股</w>
从 前</w>
N E
40 分</w>
饱 受</w>
通 州</w>
推 开</w>
原 审</w>
r y</w>
7 5
里 ·
观 者</w>
自 卫队</w>
湖 泊</w>
感 染
安 县</w>
团 委</w>
勉 强</w>
0 9月</w>
酒 驾</w>
言 不
热 带</w>
开 水</w>
凝 土</w>
进 出</w>
混 凝土</w>
对 策</w>
学 前
A 57
A57 ban</w>
拥 护</w>
形 状</w>
刘 海
不可 思议</w>
不 定</w>
上 当</w>
18 时</w>
资 管</w>
而 易
盘 前</w>
打 扫</w>
实 处</w>
外 语</w>
反 驳</w>
闭 幕</w>
宏 斌</w>
后 人</w>
创造 性</w>
3 时</w>
量 产</w>
肩 负</w>
死 亡
惊 艳</w>
形 式
山 村</w>
传 播
乔 布斯</w>
质 问</w>
规范 化</w>
营业 执照</w>
私 家
晚 年</w>
左 方</w>
仍 旧</w>
赔偿 金</w>
穿 着</w>
从 容</w>
生 猪</w>
毫 不
毛 利率</w>
风 情</w>
预 言</w>
重 症</w>
终 审</w>
搞 笑</w>
同 盟</w>
党 派</w>
赛 后</w>
自 拍</w>
树 木</w>
举 例</w>
中 海</w>
L i
天 宫
乐 趣</w>
填 补</w>
作 坊</w>
一 日</w>
I D
门 市</w>
票 据</w>
留 意</w>
模 块</w>
悉 尼</w>
娜 娜</w>
东 莞
疏 解</w>
开 办</w>
对 阵</w>
笔 试</w>
正 视</w>
最 先</w>
分 解</w>
A R</w>
身 价</w>
营 养
大 额</w>
公 信
备 战</w>
天 皇</w>
暗 访</w>
揭 秘</w>
抗 生素</w>
小 姑娘</w>
霸 座</w>
牟 利</w>
海 底
春 秋</w>
揭 示</w>
名 牌</w>
动 脉</w>
信 访
躲 避</w>
考 证</w>
探测 器</w>
担 负</w>
实 物</w>
国 强</w>
雇 佣</w>
离 去</w>
盘 价</w>
招 商
鲜 花</w>
继 承
生 机</w>
出 入境</w>
一 刀切</w>
p p
b e</w>
运载 火箭</w>
痛 点</w>
歌 词</w>
抢 占</w>
姆 ·
合 物</w>
保 养</w>
B S</w>
造 福</w>
盖 茨</w>
无 形</w>
怀 念</w>
地 级</w>
不 胜
lang -
寂 寞</w>
套 现</w>
失 眠</w>
农 历</w>
轻 轻</w>
百白 破</w>
懂 事</w>
诱 导</w>
联 璧</w>
婚 后</w>
反 省</w>
难 忘</w>
赢 家</w>
滞 后</w>
林 业
征 服</w>
尼 泊
寺 庙</w>
壁 垒</w>
刚 性</w>
产业 化</w>
3 4.
迁 移</w>
老 实</w>
深 感</w>
总 收入</w>
地 价</w>
入 围</w>
仲裁 庭</w>
xin lang-
xinlang- xinwen</w>
j i</w>
自 制</w>
更 何况</w>
挤 压</w>
历 任</w>
排 水</w>
共产 主义</w>
主 业</w>
Pl us</w>
4 点</w>
衍 生</w>
船 上</w>
星 星</w>
自 治</w>
港 区</w>
换 取</w>
私家 车</w>
昏 迷</w>
巴 萨</w>
因 果</w>
后 勤</w>
何 处</w>
L o
30 -
0 7月</w>
追 捧</w>
基 亚</w>
全 资</w>
主 人
首 页</w>
长 相</w>
根 基</w>
拉 升</w>
双 双</w>
博物 院</w>
储 蓄</w>
p s</w>
炫 耀</w>
教 堂</w>
奖 学金</w>
独生 子女</w>
汕 头</w>
无 知</w>
大 衣</w>
团 长</w>
U S
经营 权</w>
硬 币</w>
林 彪</w>
坠 落</w>
众 议院</w>
腺 癌</w>
办公 楼</w>
产 物</w>
w e
进 城</w>
开 局</w>
纯 属</w>
纪念 日</w>
实 录</w>
乌鲁木 齐</w>
中 秋节</w>
稳 妥</w>
募 捐</w>
刘 强</w>
会 议
首 日</w>
198 3年</w>
蔚 来</w>
执 政党</w>
伴 侣</w>
中 考</w>
世界 级</w>
16 %</w>
视 力</w>
疗 效</w>
徐 某</w>
1 点</w>
颈 部</w>
隶 属</w>
核 心
响 起</w>
停 工</w>
ro id</w>
W e
T o
直 径</w>
海底 捞</w>
把 关</w>
吴 某</w>
退 回</w>
跻 身</w>
法 西斯</w>
地 板</w>
七 十</w>
Mode l</w>
高 峰期</w>
维 亚</w>
离 岸</w>
无 情</w>
批 量</w>
年 华</w>
尼 奥</w>
取 缔</w>
公信 力</w>
东莞 市</w>
行 者</w>
研 判</w>
出 借
偏 好</w>
4 3
10 点</w>
顽 强</w>
表 演
打 赏</w>
山 甲</w>
塞 尔
各 家</w>
倒 塌</w>
亲 情</w>
高 点</w>
驾 照</w>
航 局</w>
控制 权</w>
夫 ·
国 性</w>
国 安</w>
口 腔</w>
压 制</w>
购 物
矿 业</w>
反 导</w>
v er</w>
采 纳</w>
专 家
m an</w>
高 三</w>
迷 信</w>
en ce</w>
纪 检
文 本</w>
几 率</w>
严 密</w>
f or
珠 三角</w>
步 枪</w>
方 言</w>
头 疼</w>
公 办</w>
克 林
斯 里
房地产 税</w>
奔 波</w>
外 围</w>
参 数</w>
逐 一</w>
虽 说</w>
杀人 罪</w>
接 纳</w>
振 华</w>
忠 实</w>
听 见</w>
乒 乓
赤 字</w>
脸 书</w>
罢 了</w>
理 应</w>
堵 塞</w>
3 月份</w>
遗 忘</w>
警 务</w>
解 救</w>
相 连</w>
主 营
面包 车</w>
理 智</w>
指 导
除 外</w>
电视 机</w>
海 滩</w>
口 气</w>
从 没</w>
五 角
解 散</w>
线 条</w>
油 气</w>
文 学
挑 起</w>
座 椅</w>
务 必</w>
力 学</w>
亲 生</w>
淀 区</w>
日 媒</w>
屋 子</w>
咨 询
分 明</w>
严 查</w>
T wit
长 途</w>
续 航</w>
参 保</w>
诽 谤</w>
蜂 蜜</w>
聘 用</w>
按 钮</w>
反 过来</w>
一 角</w>
见义勇 为</w>
绿 地</w>
直 观</w>
椅 子</w>
张 大
写 字
关 系
明 朝</w>
家 暴</w>
二 三</w>
三 四
18 %</w>
阳 澄湖</w>
达 人</w>
礼 金</w>
接 口</w>
伤 情</w>
不 在
黑 白</w>
防 线</w>
泛 滥</w>
不 解</w>
资 费</w>
章 程</w>
尼泊 尔</w>
制 片
兰 卡</w>
隐 蔽</w>
羊 肉</w>
涉 黑</w>
沉 淀</w>
歉 意</w>
改 判</w>
张 勇</w>
并 举</w>
出 道</w>
Alp ha
1. 3
价 位</w>
郊 区</w>
融 资
目 睹</w>
心 目</w>
徒 步</w>
名 声</w>
乌 镇</w>
主 打</w>
OP PO</w>
肩 膀</w>
职 员</w>
器 材</w>
苦 苦</w>
盒 子</w>
不 至于</w>
下 级</w>
下 令</w>
1. 8
近 乎</w>
研究 会</w>
淡 定</w>
杀 手</w>
孙 女</w>
增 收</w>
出 游</w>
领导 者</w>
限 行</w>
电 量</w>
数 码</w>
撤 回</w>
危 及</w>
孙 宏斌</w>
国家 标准</w>
全 国性</w>
考 场</w>
穿 山甲</w>
如 期</w>
兵 力</w>
亲 身</w>
诺 基亚</w>
m g</w>
25 00</w>
爱 尔
旺 季</w>
决 策
餐 桌</w>
胸 部</w>
And roid</w>
迷 人</w>
自 有</w>
片 子</w>
流 氓</w>
强 有力</w>
口 罩</w>
中 途</w>
严 正</w>
玻 璃
搜索 引擎</w>
总 编辑</w>
世界 大战</w>
神 州</w>
满意 度</w>
杀人 案</w>
汲 取</w>
历 来</w>
分 娩</w>
军 团</w>
一 早</w>
集 装箱</w>
欣 慰</w>
枪 手</w>
杨 振
李 咏</w>
悠 久</w>
录 用</w>
应 聘</w>
将 要</w>
健 康
氏 度</w>
准 确
贴 吧</w>
警 员</w>
王 国</w>
歪 曲</w>
招 录</w>
元/ 平方米</w>
3 6.
饮 用</w>
迈 向</w>
环 评</w>
横 幅</w>
核 算</w>
情 愿</w>
购 置</w>
社会 保险</w>
插 座</w>
前 辈</w>
主 帅</w>
出 海</w>
峡 谷</w>
助 攻</w>
2 点</w>
选 出</w>
海 淀区</w>
斯 达
喊 话</w>
任 意</w>
药 材</w>
p re
IB M</w>
202 2年</w>
马 航</w>
诟 病</w>
有效 期</w>
迅 雷</w>
财 经
新 任</w>
大 自然</w>
升 温</w>
优 美</w>
业 余</w>
曹 德
原 判</w>
公 车</w>
上 将</w>
特 有</w>
查 实</w>
青 海
螃 蟹</w>
游 记</w>
提 振</w>
宁 愿</w>
复 习</w>
卫 国</w>
创造 力</w>
假 装</w>
透 支</w>
财 税</w>
盘 后</w>
新生 儿</w>
基 调</w>
动 车组</w>
偏 差</w>
预 见</w>
平 县</w>
好 玩</w>
出借 人</w>
为 名</w>
不 容</w>
相 关
市 面</w>
发 自</w>
a u
白 菜</w>
学 习
委员 长</w>
城 里</w>
国庆 节</w>
呕 吐</w>
初 级</w>
4 0亿</w>
食药 监</w>
违 章</w>
日 程</w>
en d
频 发</w>
性 关系</w>
巡 回</w>
大 同</w>
城 际</w>
合 同
参 议员</w>
不 会</w>
3 2.
较 量</w>
起诉 书</w>
威 力</w>
分 流</w>
了 不起</w>
S -
L O
9 8
4 月份</w>
集 合</w>
铭 记</w>
轮 车</w>
查 办</w>
未 果</w>
基 督
反 感</w>
ou r
理事 长</w>
插 手</w>
接 手</w>
屏 蔽</w>
少 见</w>
学 术
取 暖</w>
亲 爱</w>
税 负</w>
献 血</w>
彭 斯</w>
奋 战</w>
参 会</w>
停 业</w>
1. 4
雨 水</w>
肇 事
疲 惫</w>
渲 染</w>
港 媒</w>
沪 指</w>
减 免</w>
辩护 律师</w>
诊 所</w>
握 手</w>
去 向</w>
军 用</w>
事 变</w>
半 数</w>
准 备
不 息</w>
高 盛</w>
金 立</w>
责任 制</w>
生 率</w>
王 磊</w>
王 永
撞 击</w>
富 翁</w>
保 管</w>
面 孔</w>
焚 烧</w>
苏 享
福 祉</w>
张 艺
引力 波</w>
店 家</w>
化 器</w>
内 存</w>
11 %</w>
酝 酿</w>
摄 氏度</w>
酷 派</w>
片 段</w>
夺 取</w>
刘 德
民 俗</w>
来 往</w>
室 友</w>
出 处</w>
低 位</w>
政治 权利</w>
支 书</w>
对 冲</w>
住建 部</w>
风 云
篇 章</w>
桂 园</w>
室 外</w>
威 尔
回 报
出 发点</w>
yo u</w>
齐 全</w>
默 认</w>
雪 山</w>
逃 犯</w>
赔 付</w>
设 法</w>
废 弃</w>
乡 亲</w>
韩 联社</w>
趣 味</w>
起 义</w>
虐 童</w>
背 离</w>
烟 花</w>
抵 御</w>
人 脸</w>
长 春市</w>
跨 界</w>
约翰 ·
投 标</w>
影视 剧</w>
停 滞</w>
村 落</w>
挪 威</w>
冷 漠</w>
> >
骑 行</w>
韭 菜</w>
经 纬</w>
满满 的</w>
光 环</w>
伸 出</w>
I T
: 30</w>
限 量</w>
贯 通</w>
计生 委</w>
8 5%</w>
6 00万</w>
演 艺</w>
弹 药</w>
好 不
地 利</w>
喜 悦</w>
3 8.
车 窗</w>
综合 治理</w>
多 重</w>
国 道</w>
加 热</w>
预 料</w>
盛 大</w>
监察 部</w>
抨 击</w>
华 大</w>
光 辉</w>
低 保</w>
- 1</w>
现 役</w>
液 体</w>
后 方</w>
自 查</w>
特 勒</w>
早 晚</w>
抽 烟</w>
打 下</w>
哈尔 滨
卸 任</w>
露 面</w>
近 视</w>
组 委会</w>
系 数</w>
检 疫</w>
基础 性</w>
南 华</w>
前 身</w>
与 其</w>
201 6-
销 毁</w>
行 事</w>
来 得</w>
杠杆 率</w>
双 胞胎</w>
布 拉
就 近</w>
增 加值</w>
交 互</w>
忧 虑</w>
大 院</w>
同性 恋</w>
净 值</w>
a v
反 倒</w>
党政 机关</w>
犹太 人</w>
学前 教育</w>
和 尚</w>
书 院</w>
E S
难 怪</w>
细 腻</w>
求 生</w>
斯里 兰卡</w>
年 末</w>
审 计
短 线</w>
生 子</w>
理 政</w>
星 座</w>
卫 计委</w>
倒 下</w>
逼 近</w>
来 华</w>
列 举</w>
再 现</w>
九寨 沟</w>
韩 元</w>
碧 桂园</w>
吉 利</w>
。 二</w>
g h
花 样</w>
楼 房</w>
敲诈勒 索</w>
形式 主义</w>
公 顷</w>
主营 业务</w>
X S</w>
记 忆
景 气</w>
中国 银行</w>
一 二线</w>
m e
3 7.
14 %</w>
衰 老</w>
永 恒</w>
母 子</w>
旅 馆</w>
提 现</w>
宁 县</w>
名 录</w>
低 收入</w>
选 取</w>
洗 钱</w>
沙 特
曹德 旺</w>
扎 根</w>
发 作</w>
儿 科</w>
早 前</w>
媒 介</w>
两 制</w>
T V
股 本</w>
斯 科
出租 汽车</w>
灭 火</w>
夯 实</w>
制 作
金 色</w>
精 选</w>
应 届</w>
巨 人</w>
家 务</w>
分 发</w>
健身 房</w>
举 一
in e</w>
监 禁</w>
负债 率</w>
药 监局</w>
对 称</w>
t e</w>
Twit ter</w>
缓 和</w>
窒 息</w>
求 职</w>
拐 卖</w>
将 领</w>
ag e</w>
盛 行</w>
混 改</w>
徘 徊</w>
公 募</w>
全 美</w>
免 疫
19 1
鸡 汤</w>
说 实话</w>
被 子</w>
自然 资源</w>
旺 盛</w>
国 歌</w>
回报 率</w>
C om
边 上</w>
想 象
启 示</w>
会 计
PP P</w>
那 儿</w>
艰 巨</w>
网 店</w>
植 物
标 杆</w>
国 土
不 觉</w>
语 气</w>
定 于</w>
告 诫</w>
30 1</w>
王 志
毒 性</w>
存 者</w>
化学 品</w>
E n
高 地</w>
抛 售</w>
励 志</w>
剧 照</w>
4 00万</w>
气 味</w>
楼 梯</w>
政治 部</w>
富 强</w>
低 下</w>
ar t
遗 留</w>
神 圣</w>
毛 衣</w>
俗 称</w>
优 酷</w>
ou r</w>
.cn /
投 票
巴 士</w>
分 支</w>
侵 华</w>
一 侧</w>
3 9.
17 %</w>
1/ 3</w>
融 创</w>
心 声</w>
外 援</w>
地 铁站</w>
亚太 地区</w>
行 径</w>
著作 权</w>
而 上</w>
晚 饭</w>
12 亿</w>
联 军</w>
粒 子</w>
灵 感</w>
深 情</w>
实 效</w>
处 方</w>
各 区</w>
钢 琴</w>
多 彩</w>
发 射
顿 时</w>
肝 癌</w>
束 缚</w>
T C
逼 迫</w>
科 室</w>
直 线</w>
热 水</w>
点赞 ↓↓↓</w>
典 范</w>
http:// www.
2 时</w>
05 31</w>
王俊 凯</w>
渎 职</w>
来 得
市 县</w>
实 干</w>
丰 厚</w>
轻 伤</w>
评 判</w>
解 析</w>
赡 养</w>
年 收入</w>
十 月</w>
倾 听</w>
网 络
绿 水</w>
寄 托</w>
大 山</w>
之 地</w>
与 否</w>
三 百</w>
700 0531</w>
霸 气</w>
跳 舞</w>
财 力</w>
置 于</w>
清 白</w>
法拉 第</w>
大 大
伪 装</w>
5 点</w>
长 征
赚 取</w>
嫦 娥</w>
初 创</w>
全 额</w>
免 责</w>
偏 偏</w>
不 说</w>
8 7
珠 江</w>
江 北</w>
教科 书</w>
张 贴</w>
九 十</w>
12 点</w>
独角 兽</w>
海 淀</w>
教 官</w>
恰 当</w>
地 形</w>
和 平
考 入</w>
疏 散</w>
江 县</w>
恒 星</w>
必 备</w>
崭 新</w>
安 宁</w>
场 馆</w>
号 牌</w>
农 家</w>
201 1</w>
里 皮</w>
想象 力</w>
高 涨</w>
限 定</w>
迪 拜</w>
这 天</w>
本 书</w>
手 脚</w>
大 巴</w>
南 极</w>
八 路军</w>
丰 收</w>
一 中</w>
香 烟</w>
集 群</w>
孤 立</w>
处 罚
商 界</w>
否 决</w>
互 补</w>
S h
膝 盖</w>
电话 会议</w>
民 法</w>
三 轮车</w>
H K</w>
雷 斯</w>
返 乡</w>
电影 节</w>
晚 期</w>
1. 5万</w>
领 军</w>
搜 查</w>
帷 幕</w>
可 观</w>
二 季度</w>
主 席
e y</w>
W at
政 策
好不 容易</w>
S C
组 装</w>
约 谈</w>
泉 水</w>
得 主</w>
影 院</w>
居 民
婚 恋</w>
五 百</w>
相 撞</w>
毁 灭</w>
无线 电</w>
庄 严</w>
幸 存者</w>
山 体</w>
小 吃</w>
受 不了</w>
击 中</w>
错 案</w>
花 生</w>
由 此
然 大
殖 民
家 里人</w>
命 案</w>
写 信</w>
主人 公</w>
罗 伯
拘 禁</w>
译 者</w>
淘 宝
时 不时</w>
整 形</w>
太 平</w>
信 誉</w>
佩 戴</w>
中 产阶级</w>
d o
8 5
重 任</w>
车 头</w>
起 家</w>
苏享 茂</w>
狮 子</w>
本 科生</w>
景 色</w>
打 听</w>
打 入</w>
在 逃</w>
光 伏</w>
两 边</w>
17 0</w>
浮 动</w>
敲 诈</w>
确 切</w>
放 出</w>
帅 气</w>
复 合</w>
原 市</w>
i a</w>
香 味</w>
经 查</w>
终 极</w>
特 种</w>
打 交道</w>
恶 性
差 价</w>
厨 师</w>
置 换</w>
流 行
极 力</w>
无 偿</w>
9 .</w>
霸 权</w>
阻 挠</w>
赞 助</w>
细 心</w>
城 墙</w>
灿 烂</w>
泽 涛</w>
明 市</w>
户 型</w>
停 靠</w>
主 意</w>
赃 款</w>
获 胜</w>
地 段</w>
出 局</w>
9 7
野 外</w>
课 本</w>
繁 殖</w>
旧 金山</w>
改 制</w>
报 到</w>
带 队</w>
大 象</w>
四 周</w>
偏 远</w>
1 万亿</w>
高 超</w>
无 不</w>
情 商</w>
宣 讲</w>
唤 醒</w>
司令 部</w>
面 对面</w>
救援 队</w>
崇 高</w>
客 场</w>
克 拉
T OP
蒸 发</w>
日 均</w>
党 性</w>
代 币</w>
麻 将</w>
苏 格兰</w>
理工 学院</w>
潜 逃</w>
核 电</w>
核 潜艇</w>
10 00亿</w>
10 0.
狂 欢</w>
树 林</w>
德 里
尔 顿</w>
产 地</w>
袋 子</w>
绝 非</w>
工 匠</w>
Wi Fi</w>
天 下
外交 部长</w>
同 日</w>
写字 楼</w>
B AT</w>
== ==
肯 尼亚</w>
税 制</w>
机 身</w>
春 莹</w>
日 趋</w>
收 养</w>
差 异化</w>
巧 合</w>
特斯 拉
海 里</w>
接 力</w>
家庭 教育</w>
婴 幼儿</w>
儿 媳</w>
举 证</w>
50 分</w>
轰 动</w>
身 家</w>
自 强</w>
米 饭</w>
病 率</w>
排 斥</w>
总 统
小 麦</w>
乏 力</w>
15 时</w>
随 手</w>
镜 子</w>
迎 合</w>
数 以
救 济</w>
家 伙</w>
过 节</w>
搭 档</w>
奢 侈</w>
大 蒜</w>
.... ....
身 为</w>
蜂 窝</w>
汇 款</w>
春 风</w>
山 竹</w>
咸 阳</w>
停 运</w>
也 门</w>
1. 6
通 俗</w>
拉 斯</w>
前 台</w>
问 答</w>
过 硬</w>
辞 退</w>
晋 级</w>
指 明</w>
国 美</w>
即 日</w>
保 守
互 助</w>
苍 蝇</w>
榆 林</w>
哈萨 克斯坦</w>
取 向</w>
先 前</w>
格 里
柜 台</w>
出 访</w>
中 学生</w>
波 及</w>
创 伤</w>
其 一</w>
入 院</w>
a o</w>
官 僚
宁 泽涛</w>
塑料 袋</w>
七 八
落 到
肠 道</w>
无 异</w>
pe op
0 6月</w>
越 发</w>
讯 问</w>
落到 实处</w>
站 立</w>
看 中</w>
每 位</w>
李 晓
张 学
加 价</w>
中 止</w>
p l
ind o
4 9.
关 押</w>
i z
- 2</w>
- 10</w>
集 成
政 绩</w>
平 息</w>
席 位</w>
大 夫</w>
坍 塌</w>
。 习</w>
班 人</w>
换 句
川 县</w>
佩 奥</w>
99 6</w>
线 图</w>
火 山</w>
浸 泡</w>
批 捕</w>
化 石</w>
勇 士</w>
刊 文</w>
养 犬</w>
下 沉</w>
A r
饭 局</w>
辛 格</w>
说 明书</w>
环 环</w>
物 理学</w>
敬 业</w>
大 关</w>
减 排</w>
倘 若</w>
一 国
I P
1 月份</w>
贫困 县</w>
来得 及</w>
拉 ·
抵 扣</w>
偷 拍</w>
高尔 夫
攻 击
持 续性</w>
户 区</w>
庄 市</w>
外交 官</w>
原 地</w>
该 车</w>
点 钟</w>
有 偿</w>
震 动</w>
钻 石</w>
通 关</w>
固定 资产</w>
哈尔滨 市</w>
克林 顿</w>
降 水</w>
邻 国</w>
留 住</w>
活 泼</w>
推 文</w>
东 欧</w>
误 会</w>
英 媒</w>
绿 灯</w>
港 币</w>
津 巴布
母 公司</w>
收 缴</w>
压 抑</w>
财政 局</w>
痛 心</w>
投资 方</w>
年 龄
哈 哈哈</w>
克 力</w>
上 亿</w>
25 亿</w>
期 权</w>
曙 光</w>
投 向</w>
不 必要</w>
O S
顺 德</w>
面 粉</w>
过 关</w>
理 事</w>
梯 队</w>
标 普</w>
政 局</w>
屋 内</w>
头 衔</w>
固 体</w>
劳 工</w>
秉 持</w>
看 作</w>
疏 导</w>
实 事</w>
跟 鞋</w>
观 赏</w>
自 此</w>
脑 海</w>
换句 话说</w>
拇 指</w>
加 紧</w>
鸿 祎</w>
连 带</w>
萨 尔
来 电</w>
1230 6</w>
肺 病</w>
管理 员</w>
科 员</w>
旗 舰
学 问</w>
孔 雀</w>
净 资产</w>
中 高端</w>
神 舟
火 箭
彭 博</w>
年 份</w>
埃 尔多
务 工</w>
人 道
舍 不得</w>
签 发</w>
着 重</w>
牛 股</w>
爱尔 兰</w>
新 村</w>
只 见</w>
医 药
自治 州</w>
此 人</w>
多 余</w>
7 0万</w>
金 字
精神 病</w>
李 开
方向 盘</w>
军 机</w>
3 5.
越 过</w>
病 床</w>
决 胜</w>
预 告</w>
纵 观</w>
斯 托
操作 系统</w>
护 卫
出 击</w>
保 定</w>
上 角</w>
in d</w>
N AS
误 区</w>
域 性</w>
业 务
问 候</w>
车 企</w>
积 水</w>
疑 虑</w>
特 质</w>
开 行</w>
供 求</w>
4 0.
3 500</w>
13 00</w>
诚 实</w>
肉 类</w>
缩 影</w>
斯 蒂
关 机</w>
顺 畅</w>
里程 碑</w>
表 格</w>
稀 缺</w>
手 枪</w>
奋 进</w>
回 族</w>
反 制</w>
单 日</w>
作 证</w>
薪 水</w>
团 中央</w>
就 任</w>
对 口</w>
安 区</w>
司 马
书记 处</w>
M 2</w>
颗 粒</w>
趁 着</w>
竟 是</w>
归 根
小 组
大 面积</w>
埃尔多 安</w>
f ro
衬 衫</w>
蓬 佩奥</w>
索 尼</w>
枪 击</w>
孟 晚
大 林</w>
一国 两制</w>
V IP</w>
D a
赶 快</w>
空 姐</w>
桂 林</w>
来 袭</w>
推 介</w>
分 校</w>
之 谦</w>
5 0.
30 年</w>
辱 华</w>
知 青</w>
毫 升</w>
增 资</w>
下 手</w>
E R
追 赃</w>
生产 商</w>
最 大化</w>
T PP</w>
那 场</w>
薛 之谦</w>
获 得
耳 光</w>
比 喻</w>
武 术</w>
棚 户区</w>
校 外</w>
岛 市</w>
大 队长</w>
利 性</w>
16 3.
送 礼</w>
着 实</w>
机 长</w>
时间 段</w>
大 一</w>
A ir
19 0
沿 途</w>
天 真</w>
大 连
围 棋</w>
公 章</w>
3 6%</w>
建设 性</w>
w h
高等 学校</w>
顾 虑</w>
电 源</w>
检 索</w>
揭 晓</w>
廊 坊</w>
原 子弹</w>
不能 不</w>
追 逃</w>
拥 挤</w>
战 绩</w>
快 手</w>
八 卦</w>
马 英九</w>
葡 萄</w>
胚 胎</w>
玉 林</w>
猫 咪</w>
快 车</w>
人 脉</w>
航 展</w>
腿 部</w>
盗 版</w>
引 渡</w>
创 客</w>
ap p</w>
看 齐</w>
监 护</w>
殡 仪
坠 楼</w>
吸 纳</w>
上 衣</w>
B u
说 到底</w>
背 面</w>
水 产</w>
有 率</w>
教 会</w>
投 机
打 包</w>
可 用</w>
钓 鱼</w>
跟 不上</w>
赛 道</w>
西 沙</w>
猜 想</w>
款 式</w>
斯坦 福</w>
太 湖</w>
大 势</w>
同 伴</w>
吊 销</w>
台 上</w>
加 班
冷 冻</w>
信 赖</w>
产 权
20 -
玩 法</w>
毒 素</w>
投 产</w>
处 以</w>
吃 惊</w>
人 行
交 友</w>
交 出</w>
简 约</w>
海 量</w>
提 成</w>
坏 事</w>
助 学</w>
面 膜</w>
隐 身</w>
流 血</w>
折 叠</w>
复 杂
光 灯</w>
- 15</w>
风 控</w>
远 东</w>
过 时</w>
明 日</w>
新 媒体</w>
拼 多多</w>
嘴 巴</w>
伸 手</w>
人道 主义</w>
j i
an ce</w>
O ne</w>
4 8.
津巴布 韦</w>
机 上</w>
北 区</w>
仓 储</w>
五角 大楼</w>
钱 江</w>
筷 子</w>
普 查</w>
平 壤</w>
半 生</w>
饲 料</w>
领 会</w>
评 定</w>
自然 人</w>
偏 离</w>
14 时</w>
雇 主</w>
理 所
点 击
淀 粉</w>
摘 要</w>
崩 盘</w>
垃圾 桶</w>
古 镇</w>
南 山</w>
s te
风 貌</w>
电 机</w>
注册 制</w>
格 式</w>
194 5年</w>
解 锁</w>
统 一
教 委</w>
孟晚 舟</w>
境 地</w>
16 时</w>
师 大</w>
寒 冬</w>
A N
飞行 器</w>
杨振 宁</w>
交易 额</w>
r u
IM F</w>
省 内</w>
甜 蜜</w>
殡仪 馆</w>
塔 尔</w>
z h
顺 差</w>
法 则</w>
报 送</w>
产 科</w>
I F
网 帖</w>
滚 滚</w>
渔 业</w>
切 断</w>
几 百万</w>
佣 金</w>
产 假</w>
不 公</w>
种 族
矿 石</w>
塞 尔</w>
不可 或
不 尽</w>
英 勇</w>
繁 忙</w>
有效 性</w>
实 惠</w>
复 兴
印 方</w>
座 谈</w>
切 换</w>
不可或 缺</w>
9 85</w>
骑 车</w>
重 案组</w>
穿 戴</w>
炮 弹</w>
滑 雪</w>
弹 劾</w>
停车 位</w>
k m</w>
2 11</w>
数 值</w>
改 装</w>
总 人口</w>
1. 2</w>
葡萄 酒</w>
洲 际</w>
悲 痛</w>
保 住</w>
W indo
4 3.
途 经</w>
耗 费</w>
去 除</w>
l u
音 速</w>
集 结</w>
跳 槽</w>
该 县</w>
衰 竭</w>
打 拼</w>
友 情</w>
书 画</w>
选 址</w>
让 步</w>
演 唱</w>
期 末</w>
新 娘</w>
大 西洋</w>
4 4.
高 山</w>
编 写</w>
滋 味</w>
张 文
基 点</w>
去 年底</w>
催 收</w>
朴 素</w>
商 学院</w>
周 立波</w>
保 暖</w>
表 扬</w>
行 凶</w>
联 播</w>
用 餐</w>
如 意</w>
天 性</w>
三 板</w>
高 举</w>
迈 进</w>
当 月</w>
屋 顶</w>
大 户</w>
中 性</w>
饮 用水</w>
过 失</w>
死 去</w>
建 奎</w>
主 教练</w>
丹 麦</w>
阴 谋</w>
礼 貌</w>
版 图</w>
格 证</w>
感 悟</w>
尽 责</w>
失 业率</w>
嘻 哈</w>
吃 亏</w>
中 立</w>
闯 入</w>
遗 书</w>
社会 科学</w>
熟 练</w>
昆 山</w>
佩 服</w>
仇 恨</w>
18 万</w>
鞍 山</w>
陈 志
辜 负</w>
触 动</w>
拍 戏</w>
单 单</w>
公 摊</w>
1. 7
高 楼</w>
顺 便</w>
曼 谷</w>
就 餐</w>
负 荷</w>
记 录
见 识</w>
街 区</w>
爱 因
整 齐</w>
政 客</w>
代 言人</w>
难 以
附 件</w>
老 总</w>
相 爱</w>
支 教</w>
报 表</w>
ation al</w>
14 亿</w>
衰 落</w>
航 运</w>
经 受</w>
纵 横</w>
特 地</w>
构 筑</w>
搅 拌</w>
挑 战
嘲 讽</w>
s s
鲜 活</w>
高 跟鞋</w>
风 力</w>
死亡 率</w>
明 亮</w>
教育 厅</w>
噪 音</w>
下 半场</w>
wor k
未 曾</w>
生命 力</w>
掩 饰</w>
干 燥</w>
屋 里</w>
你 好</w>
传染 病</w>
葡萄 牙</w>
纵 深</w>
复 印
代 会</w>
d s</w>
阅读 量</w>
连 日
溢 价</w>
恋 情</w>
场 上</w>
叶 子</w>
加 征</w>
元/ 吨</w>
车 库</w>
群 里</w>
珠 宝</w>
流 泪</w>
料 酒</w>
少 年
保卫 战</w>
老 挝</w>
简 政
童 话</w>
碎 片</w>
11 月份</w>
镇 长</w>
老 化</w>
盐 城</w>
提供 者</w>
惨 重</w>
思 念</w>
天宫 二号</w>
发 热</w>
其 二</w>
风 景区</w>
理 科</w>
心 血管</w>
基 石</w>
创 性</w>
下 台</w>
ap er
驾驶 人</w>
服务 商</w>
宜 居</w>
外 包</w>
制 订</w>
养 护</w>
依 规</w>
英 超</w>
精 华</w>
深 陷</w>
摘 自</w>
广 义</w>
尼 西亚</w>
制 成</w>
便 民</w>
严 重
选 用</w>
结 婚
约 会</w>
查 验</w>
德 纲</w>
好 奇
出 头</w>
a w
EN D</w>
5 00亿</w>
逆 袭</w>
朱 某</w>
内 战</w>
MA X</w>
连日 来</w>
警 情</w>
李 春
施 策</w>
抓 手</w>
患 儿</w>
急 于</w>
风 云</w>
过 敏</w>
莫 过于</w>
纳 德·
租 户</w>
猛 烈</w>
山 顶</w>
字 母</w>
台 下</w>
采 写</w>
违 约
言 辞</w>
生 姜</w>
渤 海</w>
授 课</w>
射 程</w>
圣 诞
2 2%</w>
高 清</w>
非 凡</w>
起 身</w>
贫 富</w>
落 入</w>
泳 池</w>
奥 地利</w>
加 码</w>
下 雨</w>
7 37
轮 流</w>
照 明</w>
楼 上</w>
友 人</w>
价 钱</w>
网 讯</w>
笼 子</w>
火 力</w>
北 海</w>
遗 嘱</w>
胳 膊</w>
破 除</w>
男 篮</w>
天 鹅</w>
国 产
华 丽</w>
俱 进</w>
an c
陈 小
闹 剧</w>
本 能</w>
敦 煌</w>
敛 财</w>
弥 漫</w>
厂 区</w>
低 温</w>
r ou
逃 生</w>
生物 学</w>
李开 复</w>
文 科</w>
总 领馆</w>
婚 姻
一 月</w>
P ro
8 6
规 模
排 污</w>
得 意</w>
强 制性</w>
亲 手</w>
交 接</w>
陆 地</w>
郑 成
越 野
矿 产</w>
燃 煤</w>
照 料</w>
普通 话</w>
接 班人</w>
军 衔</w>
何 以</w>
维 稳</w>
简政 放权</w>
时 俱进</w>
开 销</w>
住 处</w>
伤 势</w>
H TC</w>
省 纪委</w>
李 世
有 色
施 加</w>
总 价</w>
国 语</w>
呵 呵</w>
跳 水</w>
英 格兰</w>
自 驾</w>
离 子</w>
海 尔</w>
海 外
扬 言</w>
总 面积</w>
大 气
洲 杯</w>
国 学</w>
化 妆</w>
交 织</w>
6 5%</w>
跃 进</w>
空 袭</w>
小 心
长 辈</w>
镇 江</w>
这 话</w>
词 语</w>
牛 仔
叙 述</w>
颖 而出</w>
脱 颖而出</w>
继 而</w>
深 入
档 次</w>
显示 屏</w>
场 外</w>
东 北部</w>
ic e</w>
MH 370</w>
雕 塑</w>
牙 膏</w>
3 2
逃 脱</w>
王 储</w>
当 当</w>
八 一</w>
a x
面 条</w>
选 票</w>
该 剧</w>
艰 苦
管理 处</w>
李 明</w>
招 收</w>
家 门</w>
动 人</w>
中 石化</w>
中 山市</w>
m an
育 儿</w>
礼 仪</w>
护卫 舰</w>
印 刷</w>
利 亚
198 1年</w>
1 时</w>
阿 勒
贩 毒</w>
自 在</w>
精 细</w>
新 书</w>
教 师
建 材</w>
处 女
同 业</w>
儿 童
传 唤</w>
郑成 月</w>
裙 子</w>
蕴 含</w>
狗 肉</w>
爱 国主义</w>
总 决赛</w>
单 田
借 用</w>
罗 斯
纪检 组</w>
爱 护</w>
身 心
起 因</w>
网 址</w>
概 念
摸 索</w>
世 锦赛</w>
g z
胡 某</w>
拉 萨</w>
手 册</w>
外 星人</w>
噩 梦</w>
合法 性</w>
亲 近</w>
辩 解</w>
方面 面</w>
支持 率</w>
惊 叹</w>
坏 人</w>
国 立</w>
口 子</w>
东 方
锅 炉</w>
贝尔 奖</w>
肺 癌</w>
耿 爽</w>
管 家</w>
检 查
报 刊</w>
宏 大</w>
宁 静</w>
可 想
不 及
非 公有制</w>
涉 足</w>
有 机
时 分</w>
方 方面面</w>
微 观</w>
何 在</w>
人 流</w>
一 等奖</w>
B o
黄 车</w>
金 华</w>
炒 房</w>
演 化</w>
定 金</w>
可想 而知</w>
伊斯 坦
s c
西 装</w>
相 传</w>
爱因 斯坦</w>
柔 软</w>
引 资</w>
少 将</w>
单田 芳</w>
通 货
经 合</w>
本 山</w>
时 限</w>
时 性</w>
德 斯</w>
强 军</w>
9 8.
诋 毁</w>
征 点</w>
差 评</w>
增 设</w>
克 萨
人民 警察</w>
不 清</w>
诱 发</w>
艺术 品</w>
水 体</w>
曲 折</w>
建 平</w>
如 其
剧 场</w>
与 时俱进</w>
不 严</w>
2 4%</w>
肾 脏</w>
盛 宴</w>
皇 后</w>
生产 率</w>
卡 通</w>
保 监会</w>
余 地</w>
r b
预 示</w>
热 传</w>
汗 水</w>
弱 化</w>
局 级</w>
家 境</w>
处罚 法</w>
击 案</w>
出 警</w>
不 许</w>
质 检</w>
红 楼
激 起</w>
方 队</w>
斯达 克</w>
年龄 段</w>
大 庆</w>
围 墙</w>
亦 凡</w>
覆盖 率</w>
海 警</w>
济 南市</w>
有 史
手 下</w>
修 身</w>
万 众</w>
5 5%</w>
3 3%</w>
认 清</w>
表 白</w>
花 椒</w>
法 制
欢 喜</w>
文明 办</w>
搜 狗</w>
小组 赛</w>
契 合</w>
太 原市</w>
中 亚</w>
09 -
维 奇</w>
热 词</w>
水 电站</w>
总统 府</w>
佛 罗
体 性</w>
伊斯兰 教</w>
石家 庄市</w>
数 次</w>
初 一</w>
佛 山市</w>
随 处
督 查组</w>
百 货</w>
有色 金属</w>
年 化</w>
容 纳</w>
免 除</w>
买 入</w>
g o</w>
6. 5%</w>
红楼 梦</w>
红 叶</w>
管理 部</w>
海 内外</w>
会 所</w>
中 路</w>
越 界</w>
新 药</w>
引 述</w>
年 终
巴勒 斯坦</w>
台 区</w>
印度 尼西亚</w>
党 纪
乒乓 球</w>
饱 和</w>
界 线</w>
搞 定</w>
巧 妙</w>
呼 唤</w>
变 身</w>
D R</w>
镇 上</w>
王 欣</w>
测 评</w>
水 军</w>
放 眼</w>
攻 关</w>
子 宫</w>
sin a
9 5
追 加</w>
关 联
院 方</w>
篮 子</w>
放 射
创 板</w>
入 场</w>
企 事业</w>
他 国</w>
五 一</w>
三 万</w>
d u
进 场</w>
瀑 布</w>
深 交所</w>
品 格</w>
写 入</w>
牌 号</w>
数 目</w>
打 折</w>
通 风</w>
缴 获</w>
纳 斯达克</w>
第十 八</w>
民 党</w>
教 养</w>
找 回</w>
不 怎么</w>
除 去</w>
洗衣 机</w>
侦 察
ra m</w>
西 医</w>
无 所谓</w>
操 场</w>
建 房</w>
醒 目</w>
直 面</w>
安 置
克 罗
光 芒</w>
er e</w>
0 6
由此 可见</w>
玫 瑰</w>
无 权</w>
听 听</w>
亚 军</w>
物理 学家</w>
无 处</w>
攻 势</w>
抱 歉</w>
报 料</w>
年终 奖</w>
好 比</w>
遴 选</w>
辨 认</w>
源 地</w>
开 朗</w>
寝 室</w>
修 缮</w>
人 品</w>
G o</w>
限 价</w>
部 落</w>
私 利</w>
狭 窄</w>
泪 水</w>
来 访</w>
天 数</w>
大 部</w>
午 后</w>
公 诉人</w>
2 万亿</w>
18 00</w>
载 机</w>
贺 建奎</w>
警 戒</w>
破 碎</w>
浙 大</w>
既 定</w>
投 融资</w>
成 就
思 潮</w>
好奇 心</w>
南 通</w>
剖 析</w>
坐 标</w>
卫生 院</w>
停 下</w>
事 主</w>
载 有</w>
生活 会</w>
头 顶</w>
大 兴
勃 勃</w>
分 队</w>
保 利</w>
亚 投行</w>
R E
试 飞</w>
背 负</w>
疑 点</w>
有史 以来</w>
愚 蠢</w>
公 元</w>
下 放</w>
安 娜</w>
商 机</w>
任 教</w>
交易 量</w>
上 岗</w>
牧 民</w>
损 毁</w>
20 25</w>
谈 谈</w>
结 尾</w>
爆 款</w>
大 有
同 龄
冲 刺</w>
1- 2</w>
间 断</w>
筛 查</w>
总 的
年 年</w>
受 众</w>
18 9
行 李
老 牌</w>
相 对
清 代</w>
搬 家</w>
国 力</w>
台 办</w>
2 3%</w>
菜 品</w>
添 加
发 烧</w>
一 瞬间</w>
高 雄</w>
诺 贝尔奖</w>
留 存</w>
描 写</w>
奉 行</w>
劫 持</w>
饭 菜</w>
规模 化</w>
毛 巾</w>
明尼 苏
心 头</w>
尼亚 州</w>
前 天</w>
上 行</w>
15 0万</w>
藏 族</w>
马 某</w>
领 队</w>
时 有
无 核
放 贷</w>
排 列</w>
张 玉
v o</w>
该 片</w>
春 季</w>
年 头</w>
嫌 弃</w>
女 主</w>
公 社</w>
俄 国</w>
专 员</w>
21 时</w>
邯 郸</w>
诈骗 罪</w>
灭 绝</w>
港 澳
沸 腾</w>
沉 浸</w>
拐 点</w>
幌 子</w>
小 轿车</w>
全球 性</w>
光 学</w>
体 验
优 步</w>
九 月</w>
高 尚</w>
质 感</w>
罗 某</w>
演 戏</w>
弹 头</w>
天 花
叙 事</w>
临 沂</w>
3 1.
赞 美</w>
编 程</w>
敞 开</w>
接 单</w>
察 觉</w>
大 巴
辍 学</w>
吴 晓
4 5.
高 利
足 联</w>
科 夫</w>
白 糖</w>
班 车</w>
涉 恶</w>
李 明
当 着</w>
小 额</w>
实 名
周 转</w>
原 型</w>
减 速</w>
x i
es e</w>
c t
退 货</w>
结 石</w>
箱 子</w>
潜 规则</w>
求 学</w>
斯 大林</w>
师 资</w>
匮 乏</w>
包 袱</w>
冰 岛</w>
不得 已</w>
鼓 吹</w>
莫 名
潜 水
淹 没</w>
无 缘</w>
同龄 人</w>
亲 朋
科 级</w>
橄 榄
暴 利</w>
彩 虹</w>
布 什</w>
学 系</w>
大 阪</w>
NO .
过 量</w>
管 辖
本 色</w>
政治 家</w>
各 行
包 子</w>
分之 二</w>
兴 业</w>
全 景</w>
一 并</w>
说 不定</w>
画 画</w>
沙 滩</w>
张 志
领 海</w>
青 年人</w>
自 救</w>
管辖 权</w>
监管 层</w>
时有 发生</w>
布 朗</w>
巨 星</w>
局 地</w>
尘 肺病</w>
婷 婷</w>
受 审</w>
反 转</w>
占 有率</w>
交 集</w>
NAS A</w>
CP U</w>
20 分</w>
16 00</w>
足 迹</w>
诞 辰</w>
第十 五</w>
攻 克</w>
击 落</w>
k g</w>
4 7.
武 侠
感 人</w>
A C
9 6
196 4年</w>
视 点</w>
获得 者</w>
荒 唐</w>
极 端
无 一
愈 烈</w>
客 运
创 作者</w>
过 户</w>
衣 裙</w>
菩 萨</w>
生 殖</w>
殖 民</w>
新 鲜
拨 款</w>
2 8%</w>
革 新</w>
衡 阳</w>
草 根</w>
立 项</w>
弄 虚
常 驻</w>
品 尝</w>
听 话</w>
右 上角</w>
可 行性</w>
华 谊</w>
升 起</w>
剑 桥</w>
T -
4 2.
腹 泻</w>
母 校</w>
捏 造</w>
开 场</w>
尖 锐</w>
w ei
问 问</w>
脱 发</w>
穿 梭</w>
相 伴</w>
濒 危</w>
标 配</w>
杨 卫
旋 转</w>
失 效</w>
趣 店</w>
衣 食
特 警</w>
浪 尖</w>
残 骸</w>
既 往</w>
发 型</w>
不知 不觉</w>
耗 时</w>
第 6</w>
穆 罕
狠 狠</w>
热 水
活 动
敬 明</w>
周 小
向 来</w>
再 三</w>
中山 大学</w>
税 额</w>
电影 院</w>
田 园</w>
根 本性</w>
指 使</w>
强 拆</w>
婚姻 法</w>
墓 地</w>
企 稳</w>
尽 头</w>
安 康</w>
字 体</w>
主 要
青 瓦
附 带</w>
深 思</w>
沈 阳市</w>
歹 徒</w>
放 任</w>
安 居
固 醇</w>
危 急</w>
Windo ws</w>
饭 碗</w>
调查 局</w>
解 体</w>
脸 部</w>
经营 性</w>
管 网</w>
小 赵</w>
163. com</w>
轻 重</w>
莹 颖</w>
编 辑
显 而易
巡 逻
官僚 主义</w>
合 肥
位 一体</w>
京 都</w>
阳 性</w>
长 生
遣 返</w>
硬 化</w>
演 愈烈</w>
悼 念</w>
其 妙</w>
c k
U ni
19 %</w>
陆 慷</w>
母 女</w>
李 健</w>
有 余</w>
无 故</w>
无 声</w>
张 建
大 理</w>
大 潮</w>
主任 医师</w>
b j
S u
货 币
触 发</w>
然 不同</w>
无 条件</w>
市 内</w>
嫖 娼</w>
委 托
奥 林
fro m</w>
难 关</w>
转 折</w>
评 议</w>
致 癌</w>
村 支书</w>
晚 宴</w>
显而易 见</w>
崇 尚</w>
坐 落</w>
唐 代</w>
品 味</w>
倾 销</w>
债 务
以 待</w>
N G</w>
HI V</w>
FB I</w>
高 薪</w>
食 盐</w>
苏 轼</w>
换 乘</w>
并 存</w>
平 面</w>
孕 育</w>
呵 护</w>
协 和</w>
分 量</w>
养 育</w>
使用 者</w>
IC U</w>
警察 局</w>
字 眼</w>
堆 积</w>
嚣 张</w>
低 谷</w>
过 渡
组织 者</w>
清 退</w>
水 县</w>
本 场</w>
店 面</w>
干 线</w>
帐 篷</w>
协 议书</w>
主 板</w>
3 G</w>
香 蕉</w>
青 藏</w>
抢 夺</w>
愈 演愈烈</w>
希 特勒</w>
大 意</w>
霸 道</w>
集团 军</w>
迟 早</w>
资 料
生产 者</w>
有 线
持 枪</w>
手 游</w>
开 阔</w>
右 边</w>
驶 入</w>
随处 可见</w>
破 门</w>
斗 鱼</w>
折 不
弄虚 作假</w>
尾 声</w>
妇 幼</w>
回 合</w>
准 时</w>
ep aper
高 高
软 银</w>
理 赔</w>
收 复</w>
地 方
黄 山</w>
骑 士</w>
银 河</w>
郑 重</w>
校 内</w>
施 工
接 送</w>
口 角</w>
分 数
丢 掉</w>
AT M</w>
A A</w>
7 6
青瓦 台</w>
紫 光
枪 击案</w>
土 豪</w>
四 季度</w>
单 个</w>
刑事 诉讼法</w>
2 1%</w>
10 8</w>
沮 丧</w>
免疫 力</w>
京 华</w>
逃 逸</w>
西 城区</w>
莎 ·
核 桃</w>
向 着</w>
北 风</w>
动 不动</w>
全 员</w>
间 隔</w>
边 际</w>
胁 迫</w>
置 疑</w>
管 用</w>
平 行</w>
害 性</w>
决 不能</w>
不 舍</w>
预 估</w>
联 名</w>
索 取</w>
第 一百
打 扰</w>
3 00亿</w>
马 尼
裁 定书</w>
脸 色</w>
生 生</w>
核心 区</w>
收 盘价</w>
均 值</w>
午 饭</w>
2. 0</w>
诸 葛
急 诊
工商 联</w>
居 高
奥 委会</w>
值 钱</w>
B e
重 工</w>
获 救</w>
白 云
水 资源</w>
抢 票</w>
侵 蚀</w>
超 额</w>
见 习</w>
神 器</w>
犯 错</w>
小 巷</w>
奥斯 卡</w>
头 痛</w>
发 光</w>
印度 洋</w>
副 作用</w>
为人 知</w>
2. 5
秦 皇
犯 人</w>
牵 涉</w>
淡 化</w>
抢 走</w>
复 议</w>
制度 化</w>
再 不</w>
辽宁 舰</w>
有 色</w>
哀 悼</w>
乞 讨</w>
上 缴</w>
19 时</w>
银 联</w>
瑜 伽</w>
琢 磨</w>
没 错</w>
南 区</w>
全 力
侵 略
风 采</w>
集成 电路</w>
赞 助
独 有</w>
法 律
小 车</w>
大 雪</w>
只 得</w>
化 疗</w>
万 千</w>
× ×</w>
顺 着</w>
满 分</w>
海 湾</w>
收 敛</w>
士 顿</w>
墙 壁</w>
参 展</w>
去 掉</w>
莫名 其妙</w>
生 鲜</w>
熊 市</w>
武 装
基督 教</w>
地 气</w>
南 路</w>
V S</w>
醉 酒</w>
邮 寄</w>
贪 婪</w>
气 球</w>
晚 餐</w>
撤 职</w>
完 备</w>
区 域性</w>
刘 志
全力 以
全力以 赴</w>
昼 夜</w>
拘 役</w>
扶 贫
刑 期</w>
q i
0. 1</w>
透明 度</w>
评 委</w>
联 席
笼 罩</w>
成 千
复 出</w>
地下 室</w>
南 县</w>
升 空</w>
保 洁</w>
主 旨</w>
不 见
通 缉
背 叛</w>
终 生</w>
精 密</w>
留 下来</w>
民 航局</w>
巨 型</w>
定 论</w>
奔 赴</w>
埃 塞
体 能</w>
d er</w>
* *
铺 设</w>
连 任</w>
计 时</w>
触 碰</w>
良 知</w>
舅 舅</w>
网 瘾</w>
矿 山</w>
推 崇</w>
破 灭</w>
王 室</w>
漩 涡</w>
关注 度</w>
a f
用户 数</w>
控 诉</w>
东 县</w>
4 6.
23 时</w>
通行 证</w>
猝 死</w>
无核 化</w>
探 望</w>
往 期</w>
寓 意</w>
可 笑</w>
南 开</w>
上 交</w>
5 A</w>
10 年</w>
考 点</w>
第十 四</w>
瓜 子</w>
牛仔 裤</w>
流浪 狗</w>
棚 改</w>
本 该</w>
合 金</w>
儒 家</w>
主要 矛盾</w>
中 之
不 大</w>
领 事</w>
复印 件</w>
售 票</w>
叮 嘱</w>
不 在乎</w>
纺 织</w>
精 美</w>
筹 建</w>
突破 口</w>
百 科</w>
星 空</w>
不可 少</w>
B 2
锦 鲤</w>
都 市
转 折
计 较</w>
溺 水</w>
浮 躁</w>
村 镇</w>
无 愧</w>
像 素</w>
九 龙
3. 0
露 天</w>
邮 轮</w>
道 具</w>
花 卉</w>
监管 局</w>
彻 查</w>
强奸 罪</w>
参 演</w>
会议 室</w>
东 南部</w>
上 下
胶 囊</w>
索 斯</w>
电 线</w>
感 触</w>
两 百</w>
一 如
r m
老 子</w>
破 坏
源 源
注 目</w>
替 换</w>
早 点</w>
一 日
10 2</w>
点 点</w>
文 人</w>
技 艺</w>
尼 日
女 星</w>
低 碳</w>
云 集</w>
ac k</w>
高利 贷</w>
重 灾区</w>
轮 椅</w>
足 足</w>
破 案</w>
排 骨</w>
封 建</w>
上 交所</w>
评论 区</w>
警 队</w>
脱 落</w>
福 利
源源 不断</w>
抗 洪</w>
存 活</w>
交通 部</w>
镇 政府</w>
连 连</w>
经济 效益</w>
游 击
总 工会</w>
天 眼</w>
壮 族</w>
傲 慢</w>
P G</w>
隐 性</w>
造 车</w>
走 近</w>
议 庭</w>
蒂 斯</w>
著 称</w>
美 德</w>
水 道</w>
案 卷</w>
心 动</w>
弊 端</w>
体 积</w>
A m
西 城</w>
沃 斯</w>
报 业</w>
女 足</w>
出 厂</w>
倒 数</w>
G al
舍 得</w>
美 学</w>
纸 质</w>
筹 划</w>
昆 明市</w>
散 落</w>
拖 累</w>
悲 哀</w>
刚 需</w>
交 纳</w>
专 人</w>
M ate</w>
M A</w>
7 8
飓 风</w>
调 料</w>
谁 知</w>
目 组</w>
海 明</w>
格 尔</w>
庆 幸</w>
乡 市</w>
C on
飞 速</w>
风 俗</w>
芬 兰</w>
聊 聊</w>
第 十九</w>
李 鸿
整 车</w>
屡 次</w>
发 病率</w>
举 债</w>
专家 组</w>
马克 思</w>
降 临</w>
胆 固醇</w>
肯 德
睡 着</w>
招商 引资</w>
抬 高</w>
并 列</w>
实名 制</w>
大 为</w>
传 志</w>
te n
马 哈
米 兰</w>
烹 饪</w>
流 产</w>
拜 访</w>
家 用</w>
品 牌
史 料</w>
你 家</w>
书 法
久 久</w>
4 000万</w>
越野 车</w>
河 区</w>
求 救</w>
李 鹏</w>
推 断</w>
崔 顺
固 有</w>
切 尔
高 中生</w>
飞 跃</w>
长 三角</w>
统 治
省 政协</w>
微 妙</w>
庄 村</w>
同 仁</w>
内 衣</w>
信 件</w>
黑 车</w>
风 口
面 目</w>
结 识</w>
精 细化</w>
撤 出</w>
捐 助</w>
挖 掘
各 业</w>
卡 斯特
问 世</w>
气象 局</w>
学 籍</w>
奥林 匹
低 点</w>
一如 既往</w>
M e
降 息</w>
貌 似</w>
清 真
水 管</w>
横 向</w>
执 导</w>
封 杀</w>
亲朋 好友</w>
il y</w>
过 境</w>
行 贿
监 护
添加 剂</w>
混 淆</w>
水 区</w>
榆 林市</w>
带 入</w>
头 号</w>
刘 少
京 城</w>
202 5年</w>
1. 5亿</w>
运动 会</w>
路 子</w>
西 站</w>
留 党
留党 察看</w>
瑕 疵</w>
干 什么</w>
国 门</w>
凝 聚力</w>
人 际
三 分之二</w>
ou t</w>
雇 员</w>
补 课</w>
简 洁</w>
用 工</w>
推 卸</w>
戏 剧
庭 长</w>
平 和</w>
上 周五</w>
s k
om e</w>
13 时</w>
马 里</w>
菜 单</w>
脂 肪
必 要性</w>
同 级</w>
Wat ch</w>
202 1年</w>
运输 机</w>
警 醒</w>
旅 程</w>
息 息
大大 小小</w>
千 克</w>
交 替</w>
5 1.
12 -
等 同</w>
残 留</w>
分数 线</w>
体 操</w>
伤 痕</w>
不 经
青海 省</w>
贴 近</w>
莎 普
职 守</w>
笔 下</w>
猴 子</w>
治 国
欠 缺</w>
抗 争</w>
击 毙</w>
全 网</w>
烧 伤</w>
国务 委员</w>
各行 各业</w>
动 画
内 需</w>
ha ve</w>
莫 名</w>
股 灾</w>
缅 怀</w>
李 金
曹 操</w>
普 法</w>
小 丽</w>
可 贵</w>
会计 师</w>
二氧化 碳</w>
中 南</w>
E x
193 7年</w>
11 万</w>
连 衣裙</w>
赵 薇</w>
必 不可少</w>
压 迫</w>
优 越</w>
调 研
船 长</w>
联 大</w>
林业 局</w>
有线 电视</w>
批 号</w>
分 担</w>
TC L</w>
197 6年</w>
重 中之
重中之 重</w>
请 示</w>
落 幕</w>
营 救</w>
科 创板</w>
盈 率</w>
港 珠</w>
波 罗
根 据
核 电站</w>
小 明</w>
威 廉
充 裕</w>
R O
超 大</w>
航 员</w>
穆罕 默
社会 化</w>
标 明</w>
执 教</w>
悬 赏</w>
巧 克力</w>
左 边</w>
堕 落</w>
团 聚</w>
发 起
充电 宝</w>
东 路</w>
t a
验 证
预 留</w>
阿 联
辨 别</w>
装 有</w>
航 道</w>
聚 餐</w>
站 长</w>
王 书
流 水
吕 梁</w>
名 将</w>
合 议庭</w>
休 息
伊 利</w>
连 云
序 列</w>
审 稿</w>
初 次</w>
公 证
联系 人</w>
山 镇</w>
克 /
5 1%</w>
已 婚</w>
大 概率</w>
不 由
不 平</w>
· 阿
2 月份</w>
马 蜂窝</w>
谋 杀</w>
核 对</w>
军 费</w>
鱼 类</w>
幸 好</w>
塔 利
利 比亚</w>
利 人</w>
th epaper
I G</w>
高 新</w>
退 休
路 撒
贴 心</w>
耶 路撒
申请 书</w>
方 正</w>
成千 上万</w>
心 理
并 非
兴 建</w>
公 租房</w>
了 之</w>
2 7%</w>
营业 额</w>
球 星</w>
演 示</w>
政策 性</w>
撤 退</w>
回 过</w>
原 子</w>
分 区</w>
偷 税</w>
一 对
一 大
197 5年</w>
马 化腾</w>
深 知</w>
智 利</w>
效 能</w>
合肥 市</w>
卡 尔
保 罗</w>
2 6%</w>
颠 覆
秘 诀</w>
癌 细胞</w>
烟 头</w>
抉 择</w>
席 卷</w>
家 风</w>
家 长
安 定</w>
同 居</w>
史 蒂
中 层</w>
耶路撒 冷</w>
狂 犬</w>
标 记</w>
掩 护</w>
戴 威</w>
怀 着</w>
外 流</w>
化 合物</w>
刘 文
人 生
为 数
阻 拦</w>
调 剂</w>
白 白</w>
生 根</w>
收 割</w>
房产 证</w>
平 淡</w>
商 行</w>
呼 应</w>
冤 案</w>
交 管</w>
身 子</w>
用 房</w>
德 军</w>
嘉 兴</w>
侧 重</w>
St ore</w>
G M
顺 势</w>
老 字号</w>
环 卫
斯 顿</w>
呼 格
伙 同</w>
le ad
es t</w>
195 6年</w>
课 外</w>
西 红
纽 带</w>
特 市</w>
数 十万</w>
头 人</w>
外 国语</w>
四 分之一</w>
十 佳</w>
体 面</w>
主 政</w>
th er</w>
阿联 酋</w>
组 团</w>
紧 缩</w>
惊 心</w>
心 跳</w>
岩 石</w>
内 科</w>
代表 作</w>
人行 道</w>
京 剧</w>
韧 性</w>
美 化</w>
搞 好</w>
徐 坤</w>
天 体</w>
不 在</w>
36 5</w>
高 发</w>
部 长
辩 称</w>
车 速</w>
路 易
灾 情</w>
明 码</w>
县 人</w>
划 算</w>
养 活</w>
过 滤</w>
转 弯</w>
读 书
真 人
海 面</w>
正 常
效 仿</w>
名 言</w>
党 工委</w>
光 电</w>
假 药</w>
乳 腺癌</w>
9 000</w>
违约 金</w>
篇 幅</w>
特 效</w>
朱 晓东</w>
心 底</w>
噱 头</w>
p or
雅 加
随 地</w>
紫光 阁</w>
矫 正</w>
看 成</w>
生 计</w>
照 样</w>
河 水</w>
截 然不同</w>
成 功率</w>
忌 惮</w>
异 味</w>
宜 昌</w>
喜 好</w>
卡 特</w>
中 石油</w>
5 2.
黑 马</w>
键 盘</w>
诚 挚</w>
海 啸</w>
县 域</w>
保 费</w>
为 难</w>
NB C</w>
鲜 血</w>
缓 缓</w>
死 因</w>
改 建</w>
抗 体</w>
惠 及</w>
加 盟
g c
8 00万</w>
挖掘 机</w>
原 定</w>
剪 辑</w>
出 人
S O
99 9</w>
美 人</w>
绳 子</w>
甲 方</w>
悬 念</w>
底 蕴</w>
平 安
工业 园区</w>
厚 度</w>
卫 报</w>
剔 除</w>
别 国</w>
分 辨
。 。</w>
T r
饱 满</w>
阵 风</w>
购买 力</w>
惨 烈</w>
惋 惜</w>
怀 抱</w>
帝 国主义</w>
劲 儿</w>
到 手</w>
杨卫 泽</w>
岸 边</w>
失 落</w>
参 选</w>
入 伍</w>
H e
雅加 达</w>
重 演</w>
盛 典</w>
明 月</w>
抽 取</w>
往 常</w>
威 慑</w>
交 锋</w>
f lo
食药 监局</w>
红 薯</w>
突 变</w>
洗 牌</w>
杀 案</w>
挂 号</w>
惠 民</w>
三 月</w>
an t</w>
In st
马 车</w>
芳 华</w>
立 志</w>
海 区</w>
旗舰 店</w>
弱 点</w>
州 人</w>
崔顺 实</w>
外 衣</w>
增长 点</w>
器 件</w>
可 见
东 城区</w>
专 卖
血 迹</w>
膳 食</w>
肯德 基</w>
私 信</w>
检 讨</w>
机 体</w>
国 法</w>
唯 独</w>
各 路</w>
主任 委员</w>
食 用
计 价</w>
纳 米</w>
桃 花</w>
数 十亿</w>
敌 对</w>
剂 量</w>
不得 而知</w>
麻 醉</w>
知识 点</w>
息息 相关</w>
好 坏</w>
同 性</w>
利 斯</w>
况 且</w>
伊斯坦 布尔</w>
二十 四</w>
世 家</w>
阐 释</w>
痛 哭</w>
每 逢</w>
星 系</w>
抗 拒</w>
契 约</w>
头 版</w>
呼和浩 特</w>
减 负</w>
兴 奋
业 务员</w>
G PS</w>
道 义</w>
美 图</w>
简 易</w>
电 费</w>
无 需</w>
土 地
周 期
义 乌</w>
i p
D o
莫 焕
翻 倍</w>
绽 放</w>
秀 波</w>
社会 学</w>
民 兵</w>
橙 色</w>
暧 昧</w>
无 期</w>
学 长</w>
刘 晓
内 陆</w>
元/ 股</w>
s h</w>
2- 3</w>
196 2年</w>
195 5年</w>
10 00
里 根</w>
翻 炒</w>
知 网</w>
真 假</w>
波 士顿</w>
李 斌</w>
晚 报网</w>
放 水</w>
川 市</w>
少 不了</w>
孙 悟空</w>
天花 板</w>
大 革命</w>
坊 市</w>
1 20万</w>
重 创</w>
退 学</w>
纸 币</w>
无 助</w>
好 心</w>
先 例</w>
u n</w>
迷 失</w>
自 理</w>
用 率</w>
烧 烤</w>
法 兰
明 清</w>
无 尽</w>
屏 障</w>
尸 检</w>
客 栈</w>
堵 住</w>
埃塞 俄
中 金</w>
195 8年</w>
链 家</w>
逼 供</w>
通货 膨胀</w>
答 卷</w>
沙特 阿拉伯</w>
林 某</w>
数 亿</w>
房 客</w>
台 海</w>
制 宜</w>
创 始</w>
13 万</w>
贡献 率</w>
自 私</w>
秘 鲁</w>
监 测
权 法</w>
捷 径</w>
头 目</w>
半 径</w>
举 起</w>
一 对</w>
22 时</w>
预 警
霍 尔
诈骗 案</w>
宜 家</w>
定 居</w>
学 部</w>
保险 费</w>
专 程</w>
Ma x</w>
5 3.
风 味</w>
随 之
金字 塔</w>
绍 兴</w>
牡 丹
段 落</w>
次 年</w>
放 手</w>
地 狱</w>
制片 人</w>
不在 少数</w>
衡 水</w>
空 置
盒 饭</w>
火 锅
抽 象</w>
性 病</w>
上 阵</w>
11 -
鄂 尔多
汇 集</w>
奥林匹 克</w>
哭 泣</w>
减 产</w>
亟 待</w>
10 5</w>
院 内</w>
遗 弃</w>
进 站</w>
莫焕 晶</w>
篮 板</w>
本 世纪</w>
接 管</w>
接 替</w>
房产 税</w>
废 墟</w>
大连 市</w>
地 中海</w>
优 惠
价 格
12 6.
货 款</w>
论 调</w>
讯 飞</w>
经济 区</w>
破 损</w>
特 工</w>
台 州</w>
发 财</w>
兰 花</w>
争 相</w>
d is
餐 饮
雄 厚</w>
释 永信</w>
郑 某</w>
身心 健康</w>
英 雄
英 里</w>
正 气</w>
师 长</w>
埃塞俄 比亚</w>
可 信</w>
功 能
会 展</w>
人 手</w>
11 亿</w>
跑 车</w>
负债 表</w>
谩 骂</w>
肠 胃</w>
老 爸</w>
相 约</w>
狠 抓</w>
渐 进</w>
每 家</w>
工作 量</w>
子 怡</w>
剥 离</w>
红 十字
祖 先</w>
煎 熬</w>
居 多</w>
分辨 率</w>
人 意</w>
主 旋律</w>
风 雨
讨 好</w>
节 气</w>
美术 馆</w>
州 长</w>
卡 拉</w>
刘 国
。 而
W or
H o
197 4年</w>
雅 虎</w>
深 切</w>
海 道</w>
教师 节</w>
建设 者</w>
F- 35</w>
脚 踏
胡 萝卜</w>
比 方</w>
多 半</w>
刑 讯</w>
从 来
不 言
NB J
险 情</w>
银 隆</w>
规 章</w>
深 渊</w>
封 存</w>
孟 加拉
仕 途</w>
书 包</w>
不 足
Ma c</w>
黄 埔</w>
风口 浪尖</w>
阅 兵
追 查</w>
落 水</w>
短 片</w>
施 救</w>
敬 请</w>
师 德</w>
小 贷</w>
好 心人</w>
坠 江</w>
人 性化</w>
鸡 肉</w>
首 创</w>
片 面</w>
大 笑</w>
原 著</w>
八 月</w>
位 数</w>
五 星级</w>
6. 7%</w>
迈 克
联 络
红十字 会</w>
竞 价</w>
相 近</w>
海 边</w>
杆 菌</w>
大 通</w>
圣 诞</w>
匈 牙
体育 场</w>
6 000万</w>
问 道</w>
过 早</w>
讲 师</w>
譬 如</w>
老 一
二 三十</w>
N et
200 8</w>
资源 部</w>
研究 生
根据 地</w>
枉 法</w>
有所 不同</w>
平 衡
围 堵</w>
劣 势</w>
利 器</w>
侵 入</w>
今 年初</w>
五 四</w>
遵 义</w>
见 面
英 烈</w>
美 美</w>
失 事</w>
天 涯</w>
切 割</w>
兼 并</w>
马尼 拉</w>
门 人</w>
美 观</w>
张 海
大 王</w>
壮 观</w>
后 天</w>
台 市</w>
6 0亿</w>
5 4.
驾 驭</w>
马 蓉</w>
钢 筋</w>
而 今</w>
置 评</w>
瓶 子</w>
浓 郁</w>
未 婚</w>
时 至
按 揭</w>
心 仪</w>
市 盈率</w>
安 东
卡 塔尔</w>
15 00万</w>
12 3</w>
长 治
选择 性</w>
群 主</w>
暴 风</w>
教 徒</w>
庆 典</w>
四 中全会</w>
sin ac
if eng
a i</w>
阵 雨</w>
自 卑</w>
用 以</w>
微 生物</w>
康 熙</w>
居 家</w>
大 势
卢 布</w>
上 班
vi vo</w>
ne ws
3 8%</w>
齐 鲁</w>
骑 手</w>
自然 灾害</w>
眼 皮</w>
浇 水</w>
明 代</w>
战 部</w>
严 明</w>
一 致
一 口气</w>
T i
P e
P U</w>
贝 索斯</w>
用 作</w>
海 事</w>
注 射
治国 理政</w>
李小 璐</w>
整 洁</w>
奢 华</w>
回 流</w>
m in
L T
钟 某</w>
讲 台</w>
草 地</w>
税 改</w>
申 购</w>
狂 热</w>
点 球</w>
收 录</w>
寺 院</w>
关 照</w>
下 岗</w>
peop le</w>
高速 路</w>
非 但</w>
零 件</w>
践 踏</w>
赛 前</w>
聆 听</w>
尼日 利亚</w>
媒 体
好 感</w>
历 代</w>
供应 量</w>
书 评</w>
一 新</w>
10 4</w>
补 缴</w>
第 7</w>
科技 部</w>
洛 阳市</w>
沿 岸</w>
年 金</w>
天 河</w>
多 头</w>
全 职</w>
一 不
Y ou
P V</w>
陶 瓷</w>
远 在</w>
辅 导员</w>
语 录</w>
用 性</w>
春 华</w>
学 士</w>
回 首</w>
卡斯特 罗</w>
入 睡</w>
gz h</w>
V C</w>
C D
缴 存</w>
毋 庸
播 放量</w>
成交 额</w>
序 幕</w>
富 二代</w>
复 牌</w>
南 昌市</w>
w ill</w>
3 万亿</w>
心 酸</w>
彩 色</w>
属 地</w>
外 事</w>
合 理性</w>
受 阻</w>
原 生</w>
P D
5 8.
领 到</w>
诚 恳</w>
解 开</w>
畸 形</w>
民政 部门</w>
学 森</w>
受 限</w>
与 众
警 报</w>
罗 马
移 民
换 上</w>
悬 崖</w>
好 日子</w>
天 府</w>
刑事 犯罪</w>
位 列</w>
从 政</w>
一 身</w>
鸟 类</w>
转 给</w>
联席 会议</w>
精 简</w>
福 克斯</w>
特 产</w>
承 诺
小 林</w>
军 校</w>
入 驻</w>
以 南</w>
事业 群</w>
中 市</w>
el l</w>
G e
.com .cn</w>
音乐 会</w>
银 川</w>
连 锁
画 作</w>
拉 斯
抽 调</w>
就 地</w>
大 体</w>
五 万</w>
个 个</w>
L F</w>
翼 翼</w>
校 服</w>
恩 爱</w>
尼 克
中 村</w>
2. 4
许 家
要 不</w>
萧 条</w>
盆 地</w>
皮 球</w>
市场 准入</w>
奈 何</w>
唐 纳德·
吻 合</w>
单 品</w>
保 值</w>
与众 不同</w>
R A
金 量</w>
跳 出</w>
矿 泉水</w>
电 磁
本 站</w>
大 树</w>
因 子</w>
发 泄</w>
原 件</w>
不 只</w>
万 分</w>
xj gzh</w>
x xjgzh</w>
gc xxjgzh</w>
O K</w>
繁 重</w>
社 论</w>
新 股</w>
敏 锐</w>
收 购
急 速</w>
急 诊</w>
快 要</w>
必 需</w>
度假 区</w>
宇 航员</w>
子 弟</w>
力 挺</w>
上 山</w>
订 购</w>
疲 软</w>
环 路</w>
法 治
客 气</w>
大 儿子</w>
北 极</w>
便利 化</w>
演 艺
替 代
时至 今日</w>
接 通</w>
复 性</w>
因 地
危 房</w>
勘 察</w>
凡 事</w>
转折 点</w>
荒 谬</w>
焕 发</w>
气 势</w>
棉 花</w>
手术 室</w>
巴 拿
同 一天</w>
免 税</w>
。 经查</w>
ar y</w>
8 9
197 2年</w>
青 年
觉 醒</w>
无 几</w>
单 边</w>
冲 击
冰 冷</w>
以 致</w>
www. thepaper
t u
b c
18 6
- 8</w>
需 求
酸 盐</w>
统 战</w>
眼 界</w>
油 腻</w>
杰 伦</w>
政 界</w>
戏 曲</w>
头 晕</w>
头 市</w>
人民 日报社</w>
井 冈
麻 省</w>
至 上</w>
老一 辈</w>
清 查</w>
征 管</w>
张 德
庄 园</w>
外 挂</w>
分 辨</w>
hu ang
d ay</w>
26 3</w>
路 程</w>
艾 伦</w>
深 层</w>
构 想</w>
普 选</w>
投资 额</w>
寻 人</w>
园 长</w>
北 海道</w>
全 能
世界 观</w>
不 菲</w>
am p
18 亿</w>
- 3</w>
誓 言</w>
自 责</w>
统 统</w>
知情 权</w>
本 网</w>
报 收</w>
打 断</w>
感 性</w>
天 桥</w>
口 红</w>
农 作物</w>
克罗 地
亲 信</w>
不 远处</w>
on g
黎 明</w>
研 讨</w>
病 历</w>
激 增</w>
居 委会</w>
小心 翼翼</w>
塞尔 维亚</w>
听 力</w>
卡 梅
办 证</w>
人 造</w>
中 奖</w>
H O</w>
195 0年</w>
避 险</w>
离 奇</w>
互 联
专 线</w>
不 正
耶 夫</w>
翻 身</w>
统一 战线</w>
王书 金</w>
平 庸</w>
上 加
一对 一</w>
ing s</w>
雨 量</w>
管 教</w>
汶 川</w>
有 为</w>
振 奋</w>
徒 弟</w>
小 便</w>
学术 界</w>
初 始</w>
中国 化</w>
上班 族</w>
三 甲</w>
B i
5 5.
转 机</w>
获 益</w>
累 累</w>
索 罗斯</w>
窗 外</w>
步 兵</w>
取 名</w>
养老 院</w>
一致 性</w>
ap p
H R</w>
营 利</w>
海 岛</w>
氧 气</w>
来 之
时 而</w>
归 纳</w>
因地 制宜</w>
六 七</w>
11 5</w>
零 下</w>
酷 骑</w>
背 包</w>
海外 版</w>
引人 注目</w>
家 常
定 律</w>
孩 儿</w>
名 家</w>
危险 品</w>
勘 探</w>
刘少 奇</w>
专业 性</w>
5 4
遥 遥
西 游记</w>
自治 县</w>
理所 当然</w>
明 朗</w>
扑 灭</w>
房 地
四 方</w>
名 副
区 政府</w>
修 路</w>
中 场</w>
C S
饮 水</w>
调 试</w>
老 王</w>
结 余</w>
男 士</w>
游 戏
楼 层</w>
教 练
房 主</w>
回 扣</w>
伊 始</w>
专 利
hon e</w>
规 章
稳 固</w>
申 花</w>
沃尔 玛</w>
此 行</w>
时间 点</w>
接 任</w>
性 命</w>
心 怀</w>
市场 占有率</w>
僵 局</w>
交 融</w>
风 水</w>
雨 绮</w>
贾 敬
蓄 意</w>
王 娜娜</w>
深入 人心</w>
有 量</w>
早 起</w>
开 户</w>
冰 川</w>
全 天
兔 子</w>
人际 关系</w>
举 止</w>
不 下</w>
iPhone X</w>
7 4
11 7</w>
驻 地</w>
赶 超</w>
西 宁</w>
碾 压</w>
沧 桑</w>
杰 人</w>
摇 号</w>
接 地气</w>
建 行</w>
干 细胞</w>
子 座</w>
团 购</w>
名副 其实</w>
从来 不</w>
Q u
196 0年</w>
16 亿</w>
麒 麟</w>
装 甲</w>
晓 光</w>
外 在</w>
堆 放</w>
北 极
公益 性</w>
全 域</w>
传 授</w>
下 决心</w>
1 20
0 5月</w>
钱 学森</w>
适 应
规章 制度</w>
西 区</w>
网 警</w>
经 侦</w>
数 千万</w>
德 州</w>
宴 请</w>
可 知</w>
华 山</w>
金 沙
立 功</w>
看 得
直 达</w>
生 虫</w>
炎 热</w>
油 画</w>
标 赛</w>
抵 消</w>
坦 然</w>
反 面</w>
加 利
亚 布
不 绝</w>
www.thepaper .cn</w>
1. 8</w>
胖 子</w>
老 人家</w>
治 本</w>
射 门</w>
善 款</w>
保 全</w>
中小 城市</w>
g e
饼 干</w>
雕 像</w>
造 价</w>
迭 代</w>
触 目
舰 船</w>
能源 局</w>
家 政</w>
堵 车</w>
哑 铃</w>
力 求</w>
了 事</w>
s o
饥 饿</w>
碰 瓷</w>
条 文</w>
教 导</w>
所 为</w>
房 者</w>
宫 颈
太 子</w>
警 戒
管理 人</w>
现代 人</w>
源 县</w>
殡 葬</w>
惨 痛</w>
印 章</w>
勋 章</w>
假 币</w>
从 重</w>
郎 平</w>
追 随</w>
趁 机</w>
詹姆 斯</w>
解 禁</w>
潜 水</w>
海 归</w>
报 废</w>
心 血</w>
喂 养</w>
商 讨</w>
包 庇</w>
五 星
3 2%</w>
随之 而来</w>
舰 载</w>
腾 飞</w>
检 修</w>
工 艺
凉 山</w>
倾 倒</w>
供 养</w>
中间 价</w>
遮 挡</w>
综合 征</w>
甄 别</w>
潍 坊</w>
清 远</w>
比 率</w>
来 信</w>
木 耳</w>
密 集
审 团</w>
头 盔</w>
失 利</w>
坦 诚</w>
命 中</w>
。 但</w>
零售 商</w>
连 串</w>
车 展</w>
第十 六</w>
总 署</w>
奖 章</w>
医 改</w>
光 明
人 道</w>
了 算</w>
es s</w>
B -
5 7.
默 契</w>
第 10</w>
瑞 幸</w>
激 化</w>
张 永
如其 来</w>
公 检
b ab
T O
锦 标赛</w>
私 立</w>
控 告</w>
意 见
弯 曲</w>
开 房</w>
小 鹏</w>
小 陈</w>
宣 读</w>
厚 重</w>
制 剂</w>
全 日
196 3年</w>
0 2
首 度</w>
跳 动</w>
调 离</w>
突 如其来</w>
并 入</w>
几 何</w>
两 口</w>
饭 后</w>
院 所</w>
通 缉</w>
耿 直
米 粉</w>
情 报
开 机</w>
尔 克</w>
听 证</w>
兴 市</w>
上 旬</w>
ub e</w>
ag ram</w>
风 尚</w>
郭 某</w>
许家 印</w>
虹 桥</w>
片 中</w>
港 交所</w>
毁 坏</w>
坚 称</w>
圆 形</w>
卫生 部</w>
动 工</w>
冷 水</w>
佩 奇</w>
人 质</w>
严 守</w>
相 符</w>
拆 迁
手 头</w>
帐 号</w>
元/ 月</w>
事 前</w>
乐 乐</w>
195 9年</w>
衷 心</w>
港澳 台</w>
汉 中</w>
搁 置</w>
恪 守</w>
岸 线</w>
宁 可</w>
央 视
另 行</w>
功 劳</w>
Jo h
问 询</w>
角 逐</w>
行 进</w>
每 晚</w>
季 报</w>
娘 炮</w>
冰 毒</w>
代 驾</w>
个 子</w>
一年 一度</w>
一 片
E M
莎普 爱
而 生</w>
接 盘</w>
好 久</w>
大 好</w>
垫 付</w>
同 名</w>
体 型</w>
一 条
育 人</w>
琐 事</w>
现 实
林 地</w>
晕 倒</w>
新 手</w>
招 待
执 意</w>
微 微</w>
坎 坷</w>
后 市</w>
危 害性</w>
华 帝</w>
十 几万</w>
包 装
功 课</w>
刻 苦</w>
光 纤</w>
中 医院</w>
上 场</w>
A D
虚 无
罪 恶</w>
李 建
未 遂</w>
戴 维
愈 加</w>
徇 私
客 房</w>
存 在
围 攻</w>
俨 然</w>
of f
el l
10 .</w>
钢 材</w>
砥 砺</w>
盛 世</w>
独 一无
流 畅</w>
崩 塌</w>
喧 嚣</w>
勤 劳</w>
低 廉</w>
中国 式</w>
上 扬</w>
tic s</w>
a te
Gal ax
0. 1%</w>
韩 方</w>
陕 北</w>
触目 惊心</w>
节 目组</w>
盘 活</w>
挥 霍</w>
心 病</w>
小 龙虾</w>
园 方</w>
哈 里
吃 苦</w>
关 头</w>
全天 候</w>
何 必</w>
之 急</w>
ha t</w>
高 某</w>
赞 扬</w>
要 紧</w>
茫 茫</w>
而 言之</w>
王 兴</w>
爆 竹</w>
武侠 小说</w>
有 事</w>
无 耻</w>
悔 罪</w>
尾 巴</w>
反 应
医药 费</w>
偏 僻</w>
上 诉人</w>
e v
PM I</w>
高 贵</w>
股份 制</w>
祖 父</w>
照 亮</w>
炸 药</w>
戏 称</w>
意 想不到</w>
德 市</w>
吴 秀波</w>
可 靠
刘 云
军事 基地</w>
一大 早</w>
3. 5</w>
纪念 碑</w>
独一无 二</w>
牵 引</w>
火 势</w>
担 责</w>
佛罗 里
亚 历
三 菱</w>
生 死
特 殊
无 处
捕 捞</w>
履 历</w>
听 从</w>
十二 五</w>
197 3年</w>
0. 2</w>
.. ..</w>
资 格证</w>
老 朋友</w>
翅 膀</w>
眼 科</w>
巴 尔
大 头</w>
复 合
固 化</w>
后 门</w>
借 机</w>
信访 局</w>
伊 万
代 孕</w>
不 复
七 大</w>
no t</w>
0. 5%</w>
豪 门</w>
药 企</w>
热 播</w>
汉 奸</w>
收 视</w>
提 质</w>
张家 口</w>
山 脉</w>
人 肉</w>
u d
C ar
马 尔</w>
韩 媒</w>
追 寻</w>
说 了算</w>
斯 克</w>
敲 响</w>
扎 堆</w>
口 水</w>
县 里</w>
三 五</w>
10 3</w>
讲 课</w>
蝴 蝶</w>
环 绕</w>
活 儿</w>
河 市</w>
所 述</w>
圣诞 节</w>
卷 宗</w>
停 板</w>
人 头</w>
↓↓ ↓
w n</w>
PP T</w>
0 3月</w>
领 衔</w>
长 发</w>
补 偿
耿直 哥</w>
紧 缺</w>
第 五
真 空</w>
眉 山</w>
旅 途</w>
库 尔
封 建
宋 代</w>
出 土</w>
军 备</w>
中 式</w>
不 去</w>
se r
f z
贫困 村</w>
营 利性</w>
自 营</w>
治 污</w>
晶 晶</w>
政 商</w>
打 倒</w>
房 管局</w>
战 舰</w>
悲 惨</w>
开 播</w>
匈牙 利</w>
血 腥</w>
罢 工</w>
相 当
潇 洒</w>
本 院</w>
揭 发</w>
推 荐
实 体
听 众</w>
住 址</w>
七 月</w>
一 无所
2 40</w>
路 线图</w>
观察 报</w>
职 者</w>
椒 粉</w>
李 雪
斗 殴</w>
开 源</w>
工 友</w>
少 云</w>
小 儿子</w>
助 长</w>
光 彩</w>
余 旭</w>
代 号</w>
w x</w>
马 蒂斯</w>
超 群</w>
评 书</w>
见 解</w>
萧 山</w>
管理 费</w>
烧 毁</w>
欧 冠</w>
手 套</w>
愉 悦</w>
惨 遭</w>
娜 ·
国 事
免 税
保 本</w>
俗 话说</w>
Inst agram</w>
9 8%</w>
龙 薇</w>
脚踏 实地</w>
潜 伏</w>
枸 杞</w>
杯 子</w>
文 案</w>
应 求</w>
工业 园</w>
shi ji</w>
D i
超 前</w>
统 战部</w>
省 钱</w>
架 子</w>
机 关
无 端</w>
新 机</w>
斯 塔
文 物
抢 劫
岛 国</w>
大 洋</w>
写 照</w>
sinac huang
sinachuang shiji</w>
U S</w>
1. 5%</w>
隐 匿</w>
负 重</w>
调 味
突 围</w>
生 源</w>
打 磨</w>
复 星</w>
劲 松</w>
供 不
4 9%</w>
逝 者</w>
纽 约
江 淮</w>
护 者</w>
成 型</w>
失 灵</w>
国事 访问</w>
做 客</w>
乘 务员</w>
一 言
霸 主</w>
银 河
羞 辱</w>
紧 迫</w>
空 头</w>
环卫 工</w>
洽 谈</w>
殖民 地</w>
或 少</w>
平 市</w>
布 莱
对 决</w>
刘 刚</w>
供不 应求</w>
休 克</w>
主 犯</w>
不 同
19 0</w>
重 温</w>
谎 称</w>
筹 款</w>
矛 头</w>
登 载</w>
流 露</w>
或 多
得 上</w>
对 准</w>
启 蒙</w>
反 观</w>
凭 着</w>
ac k
铁 矿石</w>
邢 台</w>
该 项</w>
萨尔 瓦
登 山</w>
王 牌</w>
特 斯</w>
消 协</w>
污染 源</w>
正 经</w>
星 际</w>
明 晰</w>
或多 或少</w>
微 小</w>
四 肢</w>
吸 食</w>
供 货</w>
体 罚</w>
以 北</w>
举报 信</w>
东 区</w>
16 万</w>
0 8-
违 法
超 车</w>
行李 箱</w>
背 书</w>
省 人大</w>
柳 州</w>
李 云
军 装</w>
y n
马 杜
血 汗
致 以</w>
管理 法</w>
站 式</w>
画 风</w>
无 锡
旁 听</w>
少 儿</w>
大 本
呐 喊</w>
可靠 性</w>
取 款</w>
偏 爱</w>
交 会</w>
主 动
附 加
追 捕</w>
行 为人</w>
职 级</w>
绝 地</w>
基 因
厂 长</w>
全 村</w>
12 5</w>
10 6</w>
高 频</w>
雪 乡</w>
通 州区</w>
轻 生</w>
胸 怀</w>
生 怕</w>
清 真</w>
深 表</w>
拳 头</w>
宇 宙
孙 杨</w>
呼和浩 特市</w>
共同 社</w>
万 州</w>
C A
能 见
第 8</w>
空 域</w>
温 哥
母 乳</w>
楼 道</w>
核 定</w>
居 室</w>
完 整
参 股</w>
为 生</w>
z hi
1. 1</w>
鬼 子</w>
陨 石</w>
路 网</w>
起 降</w>
该 行</w>
腌 制</w>
总 工程师</w>
归根 结
复兴 号</w>
呼 叫</w>
出 错</w>
。 所以</w>
ak e</w>
M I
12 4</w>
迫 害</w>
赵 阳</w>
资 企业</w>
衣 柜</w>
缘 分</w>
牵 挂</w>
新 郎</w>
志愿 军</w>
寒 假</w>
喝 茶</w>
危 化
动画 片</w>
动 静</w>
不 讳</w>
非 正式</w>
闹 事</w>
演 讲
无 前
手 腕</w>
心 事</w>
容 器</w>
团 组织</w>
医 治</w>
分 组</w>
t ra
14 00</w>
金 山
退 票</w>
证券 化</w>
规划 局</w>
苦 恼</w>
维 系</w>
继承 人</w>
稀 土</w>
相当 于</w>
房地 产业</w>
徐 玉
归根结 底</w>
幼 女</w>
专 场</w>
香 菜</w>
该 村</w>
真 话</w>
攀 比</w>
抢 购</w>
抗 诉</w>
大巴 车</w>
协 力</w>
升 级
一 站式</w>
一 二</w>
P S
5 6.
认 不讳</w>
自 学</w>
李 国
排 行</w>
后 排</w>
前 妻</w>
交 流
sh o
0 1月</w>
高 丽</w>
贾敬 龙</w>
警 犬</w>
船 厂</w>
第 11</w>
祝 愿</w>
社 群</w>
湛 江</w>
消费 税</w>
洗 手
整 套</w>
摒 弃</w>
对 劲</w>
喇 叭</w>
变 幻</w>
供 认不讳</w>
会 后</w>
亲 眼</w>
长 长
贵 阳市</w>
莱 斯</w>
打 卡</w>
完整 性</w>
头 皮</w>
吃 货</w>
乌 兰
S F
金 正恩</w>
里 边</w>
解 雇</w>
王 金
牵 扯</w>
版 权
展 区</w>
密集 型</w>
失 主</w>
酿 成</w>
责任 人员</w>
诱 骗</w>
苏 州市</w>
约 束
管 所</w>
敷 衍</w>
提供 商</w>
巴拿 马</w>
不 合</w>
一 连串</w>
鼓 掌</w>
青 春
霸 王</w>
钢 铁
钞 票</w>
达 尔
轮 番</w>
血汗 钱</w>
自 古
肇事 者</w>
火锅 店</w>
宁 波
太阳 系</w>
坦 白</w>
反 问</w>
俊 杰</w>
传 染</w>
不 善</w>
上 岸</w>
s ti
5 3
陈 文
说 来</w>
素 有</w>
富 贵</w>
大 神</w>
合 唱</w>
取 胜</w>
丰 富
7 9
2 9%</w>
10 分</w>
车 费</w>
菜 市场</w>
第十 七</w>
示 牌</w>
完 好</w>
墙 面</w>
厚 非</w>
医疗 费</w>
冲 锋
写 字</w>
兴奋 剂</w>
不 折不
ha s</w>
S EC</w>
201 8
酸 奶</w>
观 影</w>
蚊 子</w>
牛 肉
正 常人</w>
来之 不易</w>
居高 不下</w>
大本 营</w>
坠 入</w>
半 年报</w>
亚布 力</w>
上 街</w>
W h
航空 兵</w>
秸 秆</w>
无可 厚非</w>
心 得</w>
廉 洁
定 格</w>
姥 姥</w>
之 风</w>
不 妥</w>
一 斑</w>
ol d</w>
7 37</w>
预 先</w>
空 地</w>
稳中 求
歉 信</w>
收 官</w>
庇 护</w>
居住 地</w>
名 著</w>
变 态</w>
内 政
元 帅</w>
催 促</w>
倒 霉</w>
人 心
g i
验证 码</w>
颗 粒
避 税</w>
福 德</w>
新 德里</w>
姑 息</w>
劣 质</w>
出 让
乘 用车</w>
不正 之风</w>
马 里
背 影</w>
猛 进</w>
海洋 法</w>
横 跨</w>
杂 志
小 三</w>
可 口
加利 福
假 象</w>
不容 忽视</w>
17 00</w>
顾 及</w>
重 现</w>
股 书</w>
耀 眼</w>
真人 秀</w>
相 邻</w>
桌 上</w>
床 位</w>
川 普</w>
夫 斯基</w>
危化 品</w>
初 三</w>
全 校</w>
乐 山</w>
顶 峰</w>
重 生</w>
色 调</w>
能 耗</w>
死 角</w>
挤 出</w>
干 货</w>
商 贩</w>
协 调
半 决赛</w>
侄 子</w>
五 粮
不经 意</w>
C l
3 1%</w>
金 黄</w>
路 虎</w>
炮 轰</w>
清真 寺</w>
挡 住</w>
报 警
引 以为
专 心</w>
e w</w>
P G
C BA</w>
4 50</w>
4 500</w>
间 隙</w>
看得 见</w>
百 计</w>
本 意</w>
政 坛</w>
憧 憬</w>
恋 人</w>
尼 尔</w>
大 麻</w>
余 力</w>
专 机</w>
/ 小时</w>
铜 像</w>
申 领</w>
泰 山</w>
服务 区</w>
单 量</w>
分 院</w>
军 营</w>
保 人</w>
中 非</w>
丢 弃</w>
w e</w>
需求 量</w>
采 摘</w>
达 沃斯</w>
赔 钱</w>
证 照</w>
温 室</w>
沉 船</w>
房 门</w>
展 厅</w>
宽 度</w>
可口 可乐</w>
别 有
兰 特</w>
公检 法</w>
兄 妹</w>
井冈 山</w>
举 牌</w>
P i
遛 狗</w>
灌 溉</w>
果 汁</w>
推 移</w>
寄 生虫</w>
加 固</w>
出 卖</w>
公 厕</w>
世 俗</w>
铁 道
赤 裸
诉 说</w>
蔡 徐坤</w>
纲 领</w>
矿 权</w>
排 污
兴 国</w>
不折不 扣</w>
C T</w>
AS T</w>
1. 3</w>
餐 具</w>
输 液</w>
该 省</w>
绘 制</w>
粪 便</w>
第 9</w>
王 立
果 实</w>
南 瓜</w>
中 将</w>
一不 小心</w>
P re
1. 2万</w>
诸葛 亮</w>
精 髓</w>
独立 性</w>
牵 动</w>
救 生
想 来</w>
卡 片</w>
函 数</w>
ht ml</w>
飞 越</w>
逆 行</w>
踪 影</w>
盗 刷</w>
灭 亡</w>
时 尚
摄像 机</w>
情 妇</w>
微 弱</w>
展 会</w>
大中 城市</w>
商 圈</w>
唯 品</w>
唐 朝</w>
减 持</w>
内 裤</w>
先 进
一 九
I A</w>
车 轮</w>
而 然</w>
老 张</w>
湿 度</w>
法治 化</w>
桌 面</w>
想 念</w>
建 厂</w>
内 核</w>
交 割</w>
上 千万</w>
MA CD</w>
陈 杰人</w>
辛 勤</w>
禁 忌</w>
牛 津</w>
潘 基
建 明</w>
康 师傅</w>
对 等</w>
学 区
复杂 性</w>
分 会</w>
其 说</w>
党 代会</w>
L G</w>
195 7年</w>
花 朵</w>
精 灵</w>
波 音
民族 主义</w>
巴 掌</w>
小 品</w>
印 记</w>
全日 制</w>
为 啥</w>
y u
ter n
魔 鬼</w>
进 货</w>
迈克 尔·
超 速</w>
盟 国</w>
理 想
犀 利</w>
易 友</w>
无 从</w>
敬 意</w>
战 火</w>
城 中村</w>
回 击</w>
变 量</w>
受益 者</w>
偏 向</w>
事 事</w>
上 下游</w>
1. 6</w>
非 机动车</w>
阵 子</w>
退 税</w>
落 差</w>
老 爷
编 者
维吾 尔</w>
简 陋</w>
着 火</w>
水 池</w>
大 坝</w>
周 杰伦</w>
了 然</w>
d er
视 而
自 费</w>
民 居</w>
李 大
杂 交</w>
接 听</w>
地 貌</w>
吉 祥</w>
化 身</w>
助 学金</w>
人 节</w>
乾 坤</w>
中 南海</w>
2 20</w>
预警 机</w>
造 血</w>
神 情</w>
甘 心</w>
旗 帜
冰 山</w>
些 许</w>
中央 委员</w>
lead er</w>
赞助 商</w>
见面 会</w>
经济 危机</w>
稍 候</w>
病 症</w>
正 文</w>
接 见</w>
容 性</w>
外 公</w>
刘 永
修 行</w>
k op
197 0年</w>
鹏 飞</w>
西 南部</w>
西 侧</w>
苛 刻</w>
芒 果</w>
篇 小说</w>
物 价
濒 临</w>
海 燕</w>
毫不 犹豫</w>
武 侠</w>
李 强</w>
时 下</w>
推 手</w>
抽 奖</w>
布 伦
太 极</w>
垄 断
养殖 场</w>
4 2%</w>
10 7</w>
隔 离
长长 的</w>
赤裸 裸</w>
解 剖</w>
编 码</w>
牛 逼</w>
焦 急</w>
滋 养</w>
温哥 华</w>
清 洁
柔 性</w>
巨 资</w>
尿 酸</w>
导 组</w>
寄 予</w>
f li
骨 骼</w>
风 头</w>
面 料</w>
邪 恶</w>
编者 按</w>
纯 洁</w>
秋 冬</w>
漫 游
检 举</w>
枯 燥</w>
无 理</w>
成 败</w>
建 制</w>
小 白</w>
t a</w>
M ac
麻 麻</w>
转 运</w>
货币 化</w>
自然 而然</w>
细 细</w>
留 念</w>
特 长</w>
水 流</w>
构 造</w>
李 华
朝 廷</w>
最高 检</w>
日 语</w>
文 创</w>
敏 洪</w>
掉 落</w>
开放 型</w>
并 重</w>
印 军</w>
克/ 立方米</w>
O N
C M
重 整</w>
胜 诉</w>
稳中求 进</w>
爱 国
毅 然</w>
杂志 社</w>
教科 文</w>
排 序</w>
忙 于</w>
国 藩</w>
合同 法</w>
五粮 液</w>
严 打</w>
一点 儿</w>
se n
co un
顶 风</w>
音乐 人</w>
重 构</w>
跑 者</w>
资 产
警 局</w>
见 闻</w>
纸 条</w>
穆 加
物 证</w>
战 车</w>
外 企</w>
4 4%</w>
航天 局</w>
纳 金</w>
第 六
矿 工</w>
液 晶</w>
歌 声</w>
换 言之</w>
手 铐</w>
所 作
战 乱</w>
岩 松</w>
审计 署</w>
子 孙</w>
哺 乳
台 币</w>
反 差</w>
人 事
五 六
en c
都 区</w>
章 莹颖</w>
版 型</w>
爆 红</w>
松 动</w>
李 白</w>
恶性 循环</w>
忏 悔</w>
小 刘</w>
宫颈 癌</w>
坐 牢</w>
友 善</w>
列 宁</w>
五星 红旗</w>
下 落</w>
一 模
6. 5</w>
12 年</w>
阵 阵</w>
防 卫
每 每</w>
当 兵</w>
张 力</w>
十 字</w>
冲 撞</w>
tion s</w>
n er</w>
霸 占</w>
袜 子</w>
英 尺</w>
百 强
派 员</w>
权 威
慈 善
尔 巴
南 湖</w>
不得 了</w>
14 万</w>
1 100</w>
麻 木</w>
进 食</w>
走 走</w>
衣 着</w>
聚 集
潘基 文</w>
滞 纳金</w>
月 子</w>
恭 喜</w>
归 结</w>
大 棚</w>
品 德</w>
乔 治
万 能</w>
一 年</w>
y e
work flo
126. com</w>
腰 包</w>
胃 癌</w>
肺 部</w>
油 脂</w>
月 底</w>
早 间</w>
推 算</w>
探 究</w>
抱 团</w>
年 期</w>
存在 感</w>
天 宇</w>
句 子</w>
分 布
八 门</w>
全能 神</w>
乐 意</w>
or y</w>
S e
连 同</w>
芜 湖</w>
臀 部</w>
租 赁
特 雷
新 星</w>
搬 走</w>
小 人</w>
叶 片</w>
口 音</w>
卡 拉
交 大</w>
上 半场</w>
ar t</w>
道 教</w>
迁 徙</w>
行政 区域</w>
沉 没</w>
朱 小
方 略</w>
大 专</w>
仓 位</w>
一模 一样</w>
C B
3 7%</w>
菜 刀</w>
自 述</w>
罗 ·
溺 亡</w>
流 通
法 晚</w>
市场 价</w>
宣 示</w>
增 效</w>
四 军</w>
名 列</w>
全 运会</w>
2. 8
陷 害</w>
陆 战队</w>
远 大</w>
身 旁</w>
营 地</w>
源 泉</w>
旗 袍</w>
抵 触</w>
扬 扬</w>
审判 长</w>
安 邦</w>
夜 班</w>
卫 健
五花 八门</w>
丁 磊</w>
12 月份</w>
1/ 4</w>
高 危</w>
首 饰</w>
预 谋</w>
铲 除</w>
通 信
血 性</w>
米 亚</w>
确 凿</w>
相 通</w>
用 语</w>
李 忠
明 智</w>
旗帜 鲜明</w>
措 辞</w>
年 终</w>
实 战
学 好</w>
威 尔</w>
唏 嘘</w>
保 时
伤 残</w>
u m</w>
难 说</w>
通缉 令</w>
荡 荡</w>
穆加 贝</w>
示 威
气 管</w>
母 舰</w>
所作 所为</w>
名 城</w>
史 无前
中 产</w>
ch a
T E
2. 1</w>
量 子
蒂 尔</w>
第二 百
畏 惧</w>
无处 不在</w>
文 娱</w>
招 股</w>
拘 捕</w>
抛 开</w>
师范 学院</w>
售 出</w>
呼吸 道</w>
合 照</w>
主 力军</w>
F C</w>
197 7年</w>
警 钟</w>
脱 口
绵 阳</w>
真 人</w>
机 电</w>
旭 东</w>
招 聘
扩 容</w>
年 少</w>
奇 妙</w>
企 鹅</w>
任 志强</w>
一个 半</w>
am e</w>
7 0亿</w>
196 8年</w>
金 牛
道 指</w>
运 力</w>
被 害</w>
期 满</w>
方 人</w>
摩 根</w>
拍 卖
护 送</w>
定 额</w>
塔利 班</w>
在 座</w>
团 圆</w>
哽 咽</w>
咨询 师</w>
主 城区</w>
上 百万</w>
197 1年</w>
00 0
静 静</w>
赞 誉</w>
航 拍</w>
洞 朗</w>
正 品</w>
梁 某</w>
方 法
散 文</w>
已 久</w>
地 毯</w>
商 议</w>
元 年</w>
侦察 机</w>
任 免</w>
z q
c k</w>
租 用</w>
犹 太</w>
洞 察</w>
早 安</w>
打 折扣</w>
家 乐</w>
圣 母
军 国主义</w>
乳 业</w>
驴 肉</w>
西 县</w>
污 蔑</w>
毛泽 东
格 雷
样 式</w>
扣 留</w>
师 父</w>
发展 史</w>
保时 捷</w>
东 湖</w>
Galax y</w>
1 8年</w>
静 静
防 水</w>
阅兵 式</w>
选 定</w>
认 错</w>
表 率</w>
葬 礼</w>
相 册</w>
目 击</w>
特朗 普
文 体</w>
指 派</w>
愤 慨</w>
天 盖
困 局</w>
味 儿</w>
9 0万</w>
195 4年</w>
高 俊
马 丁</w>
调 配</w>
要 害</w>
点 滴</w>
此 地</w>
昆 仑
撕 裂</w>
拉 丁
悠 悠</w>
应 邀</w>
孤 儿</w>
在 野
高 明</w>
马杜 罗</w>
萨尔瓦 多</w>
脾 胃</w>
脚 印</w>
纪 要</w>
水 务</w>
植 被</w>
导 火
奇 特</w>
回 暖</w>
低 级</w>
伯 克
优 于</w>
中央 社</w>
严 苛</w>
E l
3 4%</w>
非 理性</w>
腹 地</w>
秉 承</w>
番 茄</w>
海 运</w>
板 凳</w>
服 装
文学 奖</w>
急 忙</w>
德 怀</w>
大 都市</w>
夏 威
南 宁市</w>
决 战</w>
免税 店</w>
俪 萍</w>
体育 馆</w>
交 房</w>
航 站
相 隔</w>
法 宝</w>
欣 喜</w>
暗 中</w>
播 报</w>
抽 样</w>
域 名</w>
华 语</w>
侵略 者</w>
上 司</w>
s o</w>
鹿 晗</w>
降 雪</w>
降 准</w>
账 款</w>
真 情</w>
盗 取</w>
杨 俪萍</w>
普 林
日 本
政 知
推 理</w>
手 艺</w>
律 师
巨 变</w>
实 情</w>
外 币</w>
善 待</w>
史无前 例</w>
印 花
千 瓦</w>
剖 腹
p h
oo k
L a
0. 5
肩 上</w>
矩 阵</w>
毋庸 置疑</w>
构 图</w>
改 组</w>
屈 服</w>
天盖 地</w>
南 航</w>
作 息</w>
中 时</w>
m i
零售 业</w>
鉴 定
电 缆</w>
甲 板</w>
激 怒</w>
有 幸</w>
指挥 官</w>
孝 顺</w>
哲 学家</w>
变 质</w>
初 二</w>
出 众</w>
乙 醇</w>
- 35</w>
轻 轻
见 效</w>
西 北部</w>
血 脂</w>
脑 血管</w>
老 头</w>
罗伯 特·
经 得起</w>
组 部</w>
种 群</w>
离 场</w>
杨 秀
晋 江</w>
文化 部</w>
换 代</w>
圣 地</w>
口 处</w>
价 款</w>
不 免</w>
Alpha Go</w>
陈 家
错 失</w>
自由 化</w>
自 驾
置 身</w>
招 考</w>
建设 部</w>
平 反</w>
富 豪
嫉 妒</w>
呼格 吉
吉 隆
保障 部</w>
也 罢</w>
中 年人</w>
3 80</w>
题 组</w>
赔 礼
贪 污
订 立</w>
西红 柿</w>
空 缺</w>
王 国
沧 州</w>
江 门</w>
套 装</w>
力 点</w>
出 世</w>
中 风</w>
Te ch
6 7%</w>
败 坏</w>
袁 立</w>
腰 部</w>
翻 开</w>
生 抽</w>
滨 江</w>
复 活</w>
临 沂
中 航</w>
上 层</w>
il li
f e
J e
高 喊</w>
闪 电</w>
长 子</w>
话 费</w>
视而 不见</w>
见 状</w>
耗 资</w>
税 局</w>
民 粹
批 评
弗 里
多 变</w>
坊 间</w>
四 海</w>
丛 林</w>
45 分</w>
4 7%</w>
马 克</w>
非 正常</w>
零 时</w>
赔礼 道歉</w>
虚 弱</w>
方 设法</w>
操 心</w>
打 法</w>
想 方设法</w>
建 构</w>
地 沟
勾 勒</w>
养殖 户</w>
关键 性</w>
光 鲜</w>
中 组部</w>
D A
阿 森
谷 子</w>
让 座</w>
自 我
线 下</w>
租 宝</w>
病 逝</w>
漫 游</w>
浙 商</w>
洛 夫</w>
泡 面</w>
核 试验</w>
朱 德</w>
学区 房</w>
地 标</w>
发 抖</w>
原 名</w>
停 火</w>
做 梦</w>
佐 证</w>
伪 劣</w>
人 身
青 岛市</w>
金 斯</w>
邀 请
选 举
过渡 期</w>
苏 荣</w>
看 守</w>
涨 跌</w>
多 云</w>
外 线</w>
复 发</w>
利 用率</w>
克 难</w>
产 后</w>
。 据
it s</w>
2. 5万</w>
隆 平</w>
过 半</w>
莲 花</w>
精 子</w>
程 维</w>
着 想</w>
盎 司</w>
水 市</w>
水 土</w>
正 宗</w>
探 寻</w>
成就 感</w>
意见 书</w>
广 场
制作 人</w>
公 公</w>
为数 不多</w>
上 下班</w>
g re
霍 金</w>
记录 仪</w>
血 脉</w>
科 协</w>
瓦 解</w>
治 疗
求 职者</w>
殊 不知</w>
格 林
末 端</w>
日 报网</w>
支 架</w>
抗 击</w>
快 件</w>
前 置</w>
出让 金</w>
乙 肝</w>
SC I</w>
Chin ese</w>
雨 天</w>
铺 天盖地</w>
逝 去</w>
跨 度</w>
老 外</w>
纳 斯</w>
疏 忽</w>
摸 清</w>
搁 浅</w>
打 消</w>
地 王</w>
唐纳德· 特朗普</w>
变 换</w>
前 海</w>
严 防</w>
上 身</w>
附 上</w>
银 幕</w>
钱 庄</w>
郭 敬明</w>
返 程</w>
解 密</w>
福 彩</w>
盘 子</w>
现 存</w>
游 人</w>
河 边</w>
橡 胶</w>
权威 性</w>
地沟 油</w>
卫健 委</w>
m y</w>
P E</w>
17 亿</w>
顶 端</w>
选 购</w>
老 区</w>
结 核</w>
称 得上</w>
李 志
明 细</w>
文 凭</w>
总的 来说</w>
大 三</w>
备 注</w>
价值 链</w>
主动 权</w>
东 阳</w>
世 代</w>
上 天</w>
c o</w>
C -
6 00亿</w>
196 1年</w>
自由 主义</w>
羽 绒
纺 织
稻 草</w>
无 穷</w>
放 生</w>
姚 明</w>
在 即</w>
唱 片</w>
兵 马
ver s
C C</w>
52 16</w>
4 6%</w>
2 /
1 10
身 一
见 不
自 民党</w>
缝 隙</w>
王 洪
格 斗</w>
李 永
李 学
持 久
安 监</w>
壮 阔</w>
坚 持
地 震
升 学</w>
— ——</w>
t on</w>
重 金</w>
跌 落</w>
视 作</w>
花 生
聪 明
美 誉</w>
用 药</w>
宁 区</w>
大 手
坚 果</w>
动 者</w>
军 力</w>
主 攻</w>
临 终</w>
中文 网</w>
- news</w>
领 跑</w>
遗 传
航 程</w>
综合 体</w>
福 州市</w>
病 友</w>
漫游 费</w>
温 情</w>
比 特</w>
星 驰</w>
推 力</w>
戒 毒</w>
山 林</w>
剖腹 产</w>
元 区</w>
东 芝</w>
下 课</w>
m on
警戒 线</w>
空 降</w>
漫 漫</w>
昌 县</w>
徐 才
张 军</w>
年 中</w>
外 地人</w>
启 事</w>
厘 清</w>
包 包</w>
加 多
冲 洗</w>
1. 9
骁 龙</w>
配 角</w>
藏 匿</w>
网 信</w>
结 案</w>
矿 机</w>
男 主</w>
灰 尘</w>
水 果
气 场</w>
李文 星</w>
本 息</w>
户 口
张艺 兴</w>
引 诱</w>
开 战</w>
安 逸</w>
大 案</w>
士 气</w>
偶 遇</w>
ifeng -news</w>
i es</w>
24 亿</w>
领 养</w>
金 银</w>
语 境</w>
落 泪</w>
美 式</w>
纷 争</w>
王 玉
恳 请</w>
快 播</w>
徐才 厚</w>
出 资
保 洁
严重 性</w>
不 朽</w>
上 浮</w>
门 窗</w>
追 尾</w>
话 剧</w>
新闻 办</w>
招 投标</w>
拉 拢</w>
所 趋</w>
小 路</w>
大 酒店</w>
博 鳌</w>
办 人</w>
丹 丹</w>
le s</w>
52 16
迎 战</w>
职业 病</w>
新 颖</w>
图 表</w>
厦 门市</w>
养 生
储 量</w>
f t</w>
195 2年</w>
马 甲</w>
请 教</w>
莎· 梅</w>
自 习</w>
空 置</w>
男 女
摇 滚</w>
她 家</w>
回 乡</w>
剪 刀</w>
列 表</w>
减 灾</w>
光 标</w>
候 补
依 纪</w>
住 宅
it al</w>
R i
O M
网 签</w>
紫 牛</w>
现 今</w>
栋 梁</w>
所 思</w>
宁波 市</w>
倾 诉</w>
估 价</w>
亮 丽</w>
5. 0
饮 品</w>
遍 地</w>
自 古</w>
腾 枫</w>
耻 辱</w>
李 俊
微 型</w>
得 失</w>
寿 光</w>
姓 氏</w>
地 名</w>
周 腾枫</w>
卡 罗
共 性</w>
G o
驾 校</w>
资 产阶级</w>
财 团</w>
计划 经济</w>
获 刑</w>
肌 肤</w>
碎 片
江 青</w>
小 众</w>
宣传 片</w>
地 道</w>
印花 税</w>
刻 画</w>
几 千万</w>
人 海</w>
之 年</w>
不 懈
5 9.
2. 5%</w>
- -
预 备</w>
脉 络</w>
职业 道德</w>
煎 饼</w>
火 炬</w>
本 田</w>
新 机场</w>
攻 读</w>
抽 出</w>
埋 怨</w>
回 馈</w>
唐 某</w>
后 卫</w>
反 之</w>
原 料
候 车
中 药材</w>
专卖 店</w>
g h</w>
X R</w>
4 8%</w>
高尔夫 球场</w>
足 额</w>
街 坊</w>
藏 品</w>
萝 卜
舰 载机</w>
胶 带</w>
网 球</w>
结 账</w>
申 办</w>
放射 性</w>
小 崔</w>
大 河</w>
可 言</w>
发 言
功 勋</w>
人 机</w>
书 本</w>
书 房</w>
退休 金</w>
财经 网</w>
能见 度</w>
真 伪</w>
盛 会</w>
新 春</w>
感染 者</w>
小 到
央视 网</w>
哪 家</w>
3 9%</w>
轻 度</w>
路 由
美 分</w>
索 性</w>
筹 资</w>
福 田</w>
硬 骨头</w>
捕 鱼</w>
恩 ·
合 格
司法 局</w>
减 缓</w>
冲 破</w>
5216 5216</w>
黄 晓明</w>
续 续</w>
笑 声</w>
留 言
甜 美</w>
清 明</w>
手 势</w>
当 众</w>
废 水</w>
岗 区</w>
少 有</w>
名 利</w>
北 路</w>
es s
6 8.
200 9</w>
196 9年</w>
00 后</w>
郁 闷</w>
起 眼</w>
胃 口</w>
绿 城</w>
经 由</w>
稿 子</w>
理 查
月 光</w>
曼 城</w>
无 能
接 班</w>
执法 局</w>
手 动</w>
当 官</w>
屠 宰</w>
大 鹏</w>
可见 一斑</w>
冉 某</w>
僧 人</w>
会 费</w>
st r
il l
196 5年</w>
陵 园</w>
蛋 壳</w>
航站 楼</w>
聚 众</w>
紧 迫
精神 文明</w>
特 拉
海 波</w>
征 兆</w>
宝 鸡
大势 所趋</w>
大 举</w>
城 管局</w>
同 心</w>
匪 夷
众 生</w>
中 通</w>
in c
d uc
3 5亿</w>
2 60</w>
0 10-
贸易 额</w>
见不 鲜</w>
节 选</w>
理 工</w>
江 河</w>
极 了</w>
大 年
在野 党</w>
列 车
切 身
全 家人</w>
候补 委员</w>
倒 退</w>
0. 3</w>
骗 人</w>
网 游</w>
繁 琐</w>
示 意</w>
琼 斯</w>
游 泳
润 龙</w>
泥 土</w>
无 产阶级</w>
并 行</w>
工程 款</w>
圣母 院</w>
化 为</w>
面 团</w>
路由 器</w>
裸 露</w>
融 化</w>
自古 以来</w>
神 社</w>
疏 通</w>
王 宝强</w>
猫 眼</w>
月 度</w>
收 款</w>
批 发
忠 于</w>
国 库</w>
周 报</w>
匪夷 所思</w>
切身 利益</w>
公 里
倒 卖</w>
乡 愁</w>
195 3年</w>
雷 霆</w>
部长 级</w>
舞 团</w>
祈 祷</w>
漫 威</w>
沿 用</w>
朱 婷</w>
改 版</w>
战 狼</w>
愧 疚</w>
惊 险</w>
情 局</w>
建 业</w>
山 地</w>
尼 迪</w>
对 话
好 听</w>
嘱 咐</w>
博士 后</w>
兵马 俑</w>
临 时
17 万</w>
集 训</w>
转 而</w>
超 载</w>
葫 芦
绕 行</w>
答 题</w>
示 意图</w>
满 面</w>
满 怀</w>
滚 动</w>
改 良</w>
搬 运</w>
快 来</w>
张 雨绮</w>
应 试</w>
南 站</w>
加多 宝</w>
入 室</w>
体育 局</w>
体 征</w>
人 人
五 星</w>
主 动性</w>
·· ··
ti f
11 2</w>
魔 兽</w>
香 菇</w>
老 汉</w>
简 短</w>
磅 礴</w>
灵 活性</w>
汉 子</w>
欢 呼</w>
无锡 市</w>
埃 尔
地 表</w>
交 叉
s y
0 4
试 题</w>
自 主权</w>
罗 夫</w>
相 见</w>
猪 瘟</w>
清 偿</w>
海 峰</w>
杀 伤
张 伟</w>
广 汽</w>
布鲁 塞尔</w>
富豪 榜</w>
夏 日</w>
压 倒
全 班</w>
保障 性</w>
人社 局</w>
丰 台区</w>
I M</w>
邻 里</w>
谢 某</w>
论 断</w>
觉 悟</w>
繁 多</w>
站 位</w>
相 互
电 磁</w>
楼 顶</w>
时 时</w>
无 缝</w>
推 倒</w>
师 兄</w>
屡 见不鲜</w>
吉 布
冤 枉</w>
中国 海</w>
o s</w>
F AST</w>
C NBC</w>
11 9</w>
马 力</w>
选 中</w>
课 题组</w>
神 仙</w>
汉 堡</w>
机 车</w>
朴 实</w>
戴 森</w>
带 病</w>
婚 前</w>
厌 恶</w>
到 访</w>
交 待</w>
乌 兹
丰 台</w>
4 3%</w>
酒 庄</w>
逃 亡</w>
送 入</w>
洲 人</w>
教学 楼</w>
放 行</w>
推 诿</w>
抑 或</w>
急诊 科</w>
天 线</w>
回 访</w>
北 侧</w>
前 夫</w>
兵 器</w>
东 道
S o
9 7.
速 率</w>
质 化</w>
货 架</w>
维吾 尔
紧 跟</w>
粗 略</w>
白 山</w>
游 说</w>
民 政</w>
校 门</w>
权 利人</w>
有 者</w>
按 期</w>
成 绩
尼 古
堡 垒</w>
压倒 性</w>
千 百</w>
切 除</w>
亚历 山
乐 团</w>
———— ————
6 7.
骨 灰</w>
领导 层</w>
陈 裕
蟑 螂</w>
蜕 变</w>
离 婚
白 发</w>
峰 山</w>
大 拇指</w>
大 伯</w>
图 形</w>
国 考</w>
名 胜
吉隆 坡</w>
叫 停</w>
发 生率</w>
千 千
前 瞻
净 利</w>
保 温
何 方</w>
久 而
T H
1. 4</w>
首 府</w>
陈裕 咸</w>
路 况</w>
该 店</w>
许 久</w>
肆 无
田 野</w>
理 发
特 里
炮 制</w>
漏 税</w>
暴 恐</w>
悉 数</w>
差 额</w>
导 性</w>
利 益
会 员
us t</w>
kop leader</w>
零 点</w>
走 失</w>
自 立</w>
水 泥
情 结</w>
徐玉 玉</w>
山 河</w>
合 体</w>
倒 计时</w>
w er</w>
驱 车</w>
过 日子</w>
粗 糙</w>
烫 伤</w>
检 查组</w>
梦 幻</w>
幼 稚</w>
希 尔</w>
存 管</w>
公 权力</w>
1 200万</w>
黄 瓜</w>
赵 勇</w>
羊 毛</w>
畅 销</w>
热 力</w>
洗 礼</w>
每 户</w>
校 车</w>
暂 缓</w>
张 某
工 期</w>
尔 森</w>
安 稳</w>
南 美</w>
入 库</w>
以 身
乌兹 别
2 80</w>
- 9</w>
邻 近</w>
账 面</w>
肆无 忌惮</w>
种 地</w>
盘 面</w>
欧 元区</w>
格 拉
新 民</w>
恶 魔</w>
彭 德怀</w>
店 长</w>
坐 下</w>
书法 家</w>
k e
8 0亿</w>
金沙 江</w>
轮 融资</w>
诱 人</w>
碎片 化</w>
确 权</w>
特 许</w>
特 种
消防 车</w>
毛泽东 思想</w>
放 纵</w>
接 警</w>
审 阅</w>
奔 走</w>
后 来
半 点</w>
北 欧</w>
保健 食品</w>
二 十二</w>
se ar
鳄 鱼</w>
金 秋</w>
转 会</w>
草 莓</w>
胜 地</w>
结婚 证</w>
白 了</w>
猖 獗</w>
海 涛</w>
李 登
挥 舞</w>
总 分</w>
实体 店</w>
孟加拉 国</w>
娃 哈哈</w>
发 地</w>
历 年</w>
却 说</w>
前 科</w>
内 饰</w>
不 锈
。 马云</w>
2 30</w>
鲁 能</w>
阿勒 颇</w>
还 债</w>
菜 鸟</w>
致 信</w>
胖 编</w>
稀 释</w>
禁 用</w>
玉 石</w>
浓 浓
横 行</w>
推 进
弱 者</w>
年 幼</w>
平 仓</w>
尼 ·
害 案</w>
半 身</w>
切尔 西</w>
互 换</w>
丧 生</w>
三 类</w>
8 00
风 顺</w>
记忆 力</w>
裸 照</w>
而 至</w>
福利 院</w>
理 顺</w>
渡 过</w>
混 杂</w>
快 餐</w>
小 说
定 下</w>
制 图</w>
出 线</w>
先 驱</w>
乐 于</w>
主 页</w>
临 汾</w>
as e</w>
al l
No te</w>
除 夕</w>
限 售</w>
连云 港</w>
赶 回</w>
贫 血</w>
败 诉</w>
舟 山</w>
纯 合</w>
点 火</w>
泸 州</w>
李鸿 章</w>
施 政</w>
微 克/立方米</w>
开 国</w>
小 国</w>
奖 牌</w>
多 伦
基 尼</w>
售 票
危险 性</w>
di a</w>
F or
19 亿</w>
10 6
马克 龙</w>
隐 私
里 头</w>
送 别</w>
袁 隆平</w>
考 评</w>
群 组</w>
潜 能</w>
沸 沸
正常 化</w>
机械 化</w>
暖 气</w>
晓 松</w>
外 伤</w>
六 月</w>
互 金</w>
不 齐</w>
一 亿</w>
P U
P A</w>
首 长</w>
适 龄</w>
过 道</w>
诡 异</w>
柜 子</w>
旧 址</w>
才 能</w>
建 委</w>
屡 禁
厚 厚
卫 士</w>
兜 底</w>
in t</w>
PP I</w>
龙 泉
金 星</w>
郭 台
远 洋</w>
谱 写</w>
老 李</w>
羽绒 服</w>
管 线</w>
点 缀</w>
李 东
方法 论</w>
小 行星</w>
如 愿</w>
商 标
吓 人</w>
功能 区</w>
仙 女</w>
买 账</w>
不 绝
2. 2</w>
陌 陌</w>
重 病</w>
胡 润</w>
祸 首</w>
深 海</w>
民粹 主义</w>
早 饭</w>
早 盘</w>
捷 克</w>
挨 打</w>
挂 职</w>
拨 通</w>
拟 定</w>
奴 隶</w>
多 于</w>
外 貌</w>
在 世</w>
召 唤</w>
动 植物</w>
佛 系</w>
举一 反
金 价</w>
重 量级</w>
采 矿</w>
肃 清</w>
画 卷</w>
沸沸 扬扬</w>
棘 手</w>
朝 方</w>
暴 打</w>
星 光</w>
含 金量</w>
吞 噬</w>
刘云 山</w>
内 向</w>
余 生</w>
久 之</w>
黄 海</w>
鄂尔多 斯</w>
讲 堂</w>
腹 肌</w>
精 湛</w>
离 任</w>
烈 士
布 里
告 终</w>
决策 者</w>
主 治
0. 2%</w>
软 弱</w>
超 强</w>
给 力</w>
粉 碎</w>
病 变</w>
玛 丽
王 石</w>
检 阅</w>
核 动力</w>
执行 力</w>
小 蓝</w>
基础 教育</w>
咖啡 馆</w>
原 子
原 价</w>
创新 性</w>
N i
0 3-
郭台 铭</w>
还 贷</w>
过 世</w>
纸 巾</w>
福 耀</w>
灌 输</w>
湖 畔</w>
汽 车
日 内
打 理</w>
慢 性病</w>
归 咎</w>
延 缓</w>
团 团</w>
卷 风</w>
举一反 三</w>
举 世
b d
S E</w>
7 00万</w>
预 判</w>
附 中</w>
阿 波
过 人</w>
美 容
示威 者</w>
演 说</w>
显 眼</w>
无 关
巡 察</w>
历 次</w>
优 越
乐 清</w>
yo l</w>
9 00
馆 长</w>
踪 迹</w>
美 妙</w>
浩 瀚</w>
我 院</w>
张 天
安全 局</w>
学 区</w>
史 诗</w>
先 烈</w>
保 安
九 江</w>
201 5-
1. 2亿</w>
龙 卷风</w>
长 虹</w>
规范 性</w>
表 哥</w>
英 拉</w>
绯 闻</w>
第 13</w>
碰 上</w>
犯 法</w>
松 龄</w>
敲 门</w>
收 容</w>
摩 根
排 放量</w>
拉 长</w>
拉 扯</w>
抗 衡</w>
岭 南</w>
失 实</w>
大 同
坚持 不懈</w>
售 楼
同 班</w>
剖 宫
共 振</w>
偷 走</w>
保健 院</w>
不言 而
xj b</w>
bj news</w>
V er
27 亿</w>
- 5</w>
颠覆 性</w>
迫 于</w>
肉 眼</w>
稻 田</w>
清 水
淑 芬</w>
日内 瓦</w>
扫 地</w>
广场 舞</w>
大 家庭</w>
处理 厂</w>
声 声</w>
国土 局</w>
国 平</w>
叹 息</w>
丛 生</w>
不 畏</w>
一 丝
4 万亿</w>
蹊 跷</w>
试 想</w>
穆 里
王 凯</w>
洋 溢</w>
沦 陷</w>
操作 性</w>
当 期</w>
前瞻 性</w>
利 民</w>
先进 性</w>
义 工</w>
久而 久之</w>
le y</w>
196 6年</w>
雕 刻</w>
遗 失</w>
突破 性</w>
移 动
洪 波</w>
比 尔·
恐 袭</w>
山 坡</w>
剧 集</w>
2 2亿</w>
销售 量</w>
车 次</w>
误 判</w>
背 诵</w>
缓 期</w>
红 人</w>
映 客</w>
无 私</w>
年 产</w>
射 线</w>
如 火
后 世</w>
参 军</w>
冲 绳</w>
借 条</w>
I o
3 5万</w>
16 8</w>
- 6</w>
高俊 芳</w>
随 时
道 远</w>
辣 椒
轻 型</w>
说 服
詹姆 斯·
置 信</w>
省 直</w>
目 共
术 语</w>
木 材</w>
打 官司</w>
成绩 单</w>
成 语</w>
小 龙</w>
家 事</w>
呼 喊</w>
单 子</w>
冷 却</w>
三 环</w>
20 3
2. 7
黑 幕</w>
说 白了</w>
解 脱</w>
蘑 菇</w>
硬 盘</w>
独 有
教 职工</w>
摇 头</w>
张 扬</w>
如火 如
发 问</w>
卡 瓦
加 薪</w>
亮 亮</w>
下 巴</w>
u p</w>
8 ·
5 4%</w>
07 :
金 率</w>
醉 驾</w>
跨 国
误 差</w>
计 量</w>
莆 田
自然 科学</w>
胡 子</w>
白 药</w>
白 内
登 机</w>
有 目共
抗 力</w>
惠 州市</w>
壮 士</w>
响 亮</w>
发起 人</w>
反 潜</w>
京 东
主 题
it e</w>
陈 鸿
跨国 公司</w>
苏 军</w>
突 击
点 头</w>
测 绘</w>
暴 富</w>
打 分</w>
如火如 荼</w>
周期 性</w>
出 征</w>
不言而 喻</w>
频 次</w>
通讯 录</w>
运 算</w>
萍 乡</w>
田 间</w>
求 婚</w>
手 机
张学 良</w>
张 新
小 杨</w>
国 军</w>
哗 然</w>
伤 痛</w>
不懈 努力</w>
一 派</w>
zq bc
en ts</w>
A P</w>
4 1%</w>
风 靡</w>
面 具</w>
雪 峰</w>
转 嫁</w>
蒙古 国</w>
腐 蚀</w>
纳 瓦
纠 错</w>
白内 障</w>
甘 油</w>
放 火</w>
居民 楼</w>
尖 端</w>
回 忆
商 事</w>
zqbc yol</w>
201 4-
高 处</w>
诗 意</w>
玩 儿</w>
王 东
泄 洪</w>
氧 化</w>
有目共 睹</w>
指 甲</w>
录 入</w>
少年 儿童</w>
对 了</w>
吃 喝
台湾 人</w>
匆 忙</w>
制 动</w>
几 亿</w>
产 区</w>
中 型</w>
一 整天</w>
w b</w>
9 263</w>
4 1.
26 亿</w>
赠 与</w>
装 扮</w>
穿 衣</w>
海 盗</w>
沙 子</w>
档 案
月 工资</w>
救 助
战 国</w>
很 难说</w>
存 单</w>
娘 家</w>
哥 们</w>
后 备
另 类</w>
厚厚 的</w>
利 空</w>
冤 假
修 理</w>
便 秘</w>
任 重
东 城</w>
世 凯</w>
驱 使</w>
阐 明</w>
重 在</w>
认 出</w>
触 摸</w>
百 货
独 资</w>
暖 心</w>
斥 资</w>
常 理</w>
尽 情</w>
卧 底</w>
分 社</w>
代 工</w>
不知 所
se d</w>
S ch
18 8
过 激</w>
粉 色</w>
痴 迷</w>
玩 忽
然大 波</w>
漫 步</w>
浮 现</w>
桃 花
扶 梯</w>
懈 怠</w>
好 好
告 知书</w>
叫 声</w>
变 速
千千 万万</w>
丝 路</w>
V i
转 交</w>
衍 生
答 辩</w>
监察 局</w>
桂 英</w>
村 人</w>
权 责</w>
月 刊</w>
无 独有
方 舟</w>
斯 州</w>
料 理</w>
招 致</w>
导火 索</w>
叫 好</w>
反应 堆</w>
募 资</w>
保洁 员</w>
三 里
一 等</w>
隐 秘</w>
道 口</w>
袭 击者</w>
稳 住</w>
礼 拜</w>
瓷 砖</w>
牵 连</w>
法 理</w>
振 宇</w>
将 士</w>
密 密
宝 石</w>
奔 腾</w>
大 将</w>
周 口</w>
全 意</w>
傻 子</w>
优 品</w>
丢 人</w>
高 职</w>
马 斯</w>
钢 厂</w>
车 牌号</w>
车 流</w>
责任 心</w>
漠 视</w>
朝 鲜
新 四军</w>
师 范</w>
天文 台</w>
大 钱</w>
发 明
出 逃</w>
主 食</w>
P ar
10 9</w>
虚 报</w>
糯 米</w>
秦皇 岛</w>
盖 章</w>
烟 雾</w>
无独有 偶</w>
家 教</w>
孵 化器</w>
外 债</w>
夏威 夷</w>
光 华</w>
饰 品</w>
锦 旗</w>
银河 系</w>
重 用</w>
道 而
车 载</w>
笑 笑</w>
男 孩子</w>
爆 棚</w>
日 产</w>
插 入</w>
提 法</w>
拼 音</w>
开 端</w>
平 方</w>
小 美</w>
复 古</w>
反 腐
南 人</w>
劳 累</w>
加 斯</w>
列 强</w>
v el
No te
Net fli
L in
6 6.
200 7</w>
200 00</w>
领 略</w>
集体 经济</w>
长 河</w>
运 城</w>
荣 幸</w>
缘 由</w>
缘 故</w>
源 市</w>
洪 秀
水 污染</w>
李登 辉</w>
曝 光
心 协力</w>
常 性</w>
妇 产科</w>
天 王</w>
境 内外</w>
品 位</w>
全 心
亲 子
不 入</w>
一 席
t y</w>
al ly</w>
陈 晓
还 给</w>
说服 力</w>
紊 乱</w>
秦 始
牛 力</w>
溯 源</w>
温 州市</w>
正 直</w>
标 本</w>
服 药</w>
即 刻</w>
八 达
克 莱
修 饰</w>
LT E</w>
驳 斥</w>
轩 然大波</w>
美 感</w>
皇 室</w>
王 家
熟 能
涡 轮</w>
检 测
打 工
心 智</w>
山 头</w>
声 援</w>
卡梅 伦</w>
南 宋</w>
刘海 龙</w>
五 月</w>
乘 警</w>
6 8%</w>
5 2%</w>
随时 随地</w>
附 加值</w>
铁 塔</w>
路 灯</w>
调 皮</w>
群 团</w>
细 微</w>
浴 室</w>
收 买</w>
存 入</w>
商 定</w>
丰富 多彩</w>
陈 云</w>
起 跑
赛 龙</w>
诬 告</w>
订 餐</w>
西 雅
薪 金</w>
耶 鲁</w>
结 核
波 澜</w>
无 畏</w>
断 交</w>
扔 掉</w>
城 建</w>
图 纸</w>
务 工
侵 吞</w>
L I
7 3.
3 1
201 7.
车 程</w>
谦 虚</w>
获 知</w>
等 功</w>
窘 境</w>
空 客</w>
穴 位</w>
稳中 有
校 生</w>
承诺 书</w>
均 收入</w>
地 盘</w>
加 工业</w>
克罗地 亚</w>
人 均收入</w>
f in
an a</w>
S Z</w>
194 8年</w>
18 7
黄 岩
邮 票</w>
通 航</w>
该 报</w>
译 文</w>
补 种</w>
而 不
罹 患</w>
果 园</w>
杨 晓
显 露</w>
小 觑</w>
基 辛格</w>
利 物
冤假 错案</w>
为 力</w>
x x
m ore</w>
6 4.
0. 3%</w>
错 位</w>
考 古
珍 珠
波 澜
油 门</w>
权 衡</w>
新闻 社</w>
救 护</w>
掠 夺</w>
扬 尘</w>
扩 充</w>
志 明</w>
心 意</w>
射 电</w>
发行 价</w>
反 射</w>
原 作者</w>
全心 全意</w>
储 户</w>
oo d</w>
log y</w>
金 龙</w>
调 理</w>
珠 峰</w>
照 射</w>
沙 龙</w>
武 钢</w>
文化 大革命</w>
拦 住</w>
巡视 员</w>
外 教</w>
反 舰</w>
加班 费</w>
j ing
F F
靓 丽</w>
野 猪</w>
西 方人</w>
第 14</w>
玩 乐</w>
物 业
润 发</w>
氧化 物</w>
气 壮</w>
本 ·
无能 为力</w>
尿 液</w>
始 至
公开 赛</w>
伤 病</w>
Netfli x</w>
M LF</w>
2. 5亿</w>
12 2</w>
营业 部</w>
老 是</w>
绿 道</w>
疯 传</w>
爆 雷</w>
测 定</w>
我 校</w>
宝 座</w>
咸 阳市</w>
南 阳</w>
功 臣</w>
信 箱</w>
使 命
五 位一体</w>
东 坡</w>
Sp ace
29 亿</w>
钻 研</w>
该 文</w>
肆 虐</w>
精 通</w>
特殊 性</w>
演 奏</w>
杨 洋</w>
方 百计</w>
方 圆</w>
延 禧</w>
干 道</w>
始至 终</w>
千 方百计</w>
加 持</w>
利 剑</w>
准备 金</w>
交 汇
t ri
- 30</w>
长 短</w>
运 载</w>
路 费</w>
跑 路</w>
谢 宇</w>
谁 家</w>
火 案</w>
时 事</w>
摩 托</w>
多伦 多</w>
切 身</w>
切 片</w>
以 期</w>
不 管
下 文</w>
d a
8 000万</w>
雨 伞</w>
通 宵</w>
试 探</w>
自 杀
监护 室</w>
理 直
点 位</w>
橱 柜</w>
概念 股</w>
最高 点</w>
成 长
总 指挥</w>
张大 伟</w>
大 吃
增 发</w>
卫 平</w>
不 遗
不 了
七 夕</w>
q q
i e</w>
黄 淑芬</w>
黄 光
革命 军</w>
遥 感</w>
连 忙</w>
虚无 主义</w>
第 12</w>
税 种</w>
礼 包</w>
王 敏</w>
游 艇</w>
涂 鸦</w>
油 耗</w>
大 二</w>
吴 永
发 音</w>
卖 点</w>
劳动 法</w>
利物 浦</w>
互 不</w>
sina .com.cn</w>
lo b
an k</w>
Io T</w>
6 3.
5 6%</w>
4 2
落 定</w>
自 助
老 板
老 年
羽 毛
立 新</w>
灯 塔</w>
河 内</w>
村 主任</w>
惊 奇</w>
大 唐</w>
军事 化</w>
信息 化
人 命</w>
a th
P ri
限 贷</w>
陈 水
长安 街</w>
财 季</w>
调 解
肺 炎</w>
编 者</w>
纪念 币</w>
法 语</w>
武 帝</w>
格 斯</w>
林 生
收 纳</w>
恒 生</w>
回忆 录</w>
午 夜</w>
农 行</w>
个 头</w>
风 向</w>
趋 向</w>
资 历</w>
观 音</w>
装 满</w>
虚 伪</w>
艰苦 奋斗</w>
绿 卡</w>
油 品</w>
政府 性</w>
哭 笑
口 语</w>
分 批</w>
凶 猛</w>
净 化器</w>
克 里</w>
中间 人</w>
A L
3 20</w>
阿 胶</w>
诉 状</w>
舞 弊</w>
玉 米
清 清
津 津
江 歌
术 后</w>
文物 局</w>
强 者</w>
城 堡</w>
军 长</w>
兼 容</w>
公证 处</w>
串 联</w>
中小 微</w>
不 端</w>
C or
9 7%</w>
200 6</w>
骨 子
雍 正</w>
萨 达
约翰 逊</w>
石 流</w>
漂 浮</w>
港 澳</w>
海 豚</w>
永 兰</w>
样 一来</w>
标 本
松 绑</w>
恨 不得</w>
吹 风
同 济</w>
信 任
H u
11 4</w>
集中 制</w>
诺 夫</w>
胸 口</w>
立 面</w>
私 有</w>
浓浓 的</w>
李 宁</w>
戒 指</w>
巴 塞
单 边
亚 裔</w>
专 用
下 场</w>
鲤 鱼</w>
高 二</w>
震 东</w>
随 行</w>
阿森 纳</w>
铁道 部</w>
百 搭</w>
民主 集中制</w>
极端 主义</w>
村 官</w>
有 空</w>
惬 意</w>
快 点</w>
害 者</w>
宝 山</w>
头 球</w>
坚 韧</w>
后 背</w>
出 战</w>
准备 金率</w>
借 壳</w>
体 温</w>
主 教</w>
C ap
颗粒 物</w>
难 看</w>
鉴 别</w>
豆 腐
考 取</w>
立 卡</w>
理直 气壮</w>
狱 中</w>
渊 源</w>
淡 水</w>
止 步</w>
敬 佩</w>
戏剧 性</w>
弯 道</w>
常 规
地 下水</w>
嘴 边</w>
口 述</w>
公 私</w>
光 耀</w>
使命 感</w>
主 导
不遗 余力</w>
B r
4. 0
196 7年</w>
黎 巴
附加 费</w>
这 般</w>
自 尊</w>
群 内</w>
环保 厅</w>
炮 兵</w>
模 板</w>
必 经</w>
心 上</w>
开 拓
处女 座</w>
南 侧</w>
出 生率</w>
值 班
ve lo
- 6
错 觉</w>
这 样一来</w>
输 血</w>
菊 花</w>
神舟 十一</w>
玩忽 职守</w>
永 辉</w>
氰 化
桥 镇</w>
斯 市</w>
改 写</w>
天 山</w>
公里 /小时</w>
不 爽</w>
风 景
项 链</w>
边 疆</w>
誉 权</w>
虎 牙</w>
荔 枝</w>
缴 税</w>
澳 元</w>
枪 杀</w>
方面 军</w>
急 救
征 战</w>
幼 师</w>
刊 物</w>
使 劲</w>
买 方</w>
中 铁</w>
0 2月</w>
高 性能</w>
骨子 里</w>
阿 基
肖 像</w>
罪 魁
激 荡</w>
清 点</w>
沉 寂</w>
样 板</w>
李 亚
无 能</w>
并 发
孤 单</w>
婚 外
临时 工</w>
严 控</w>
上 架</w>
go v
AM D</w>
15 0亿</w>
12 8</w>
鸡 精</w>
飞 天</w>
阵 痛</w>
真 切</w>
用 来</w>
版 面</w>
汪 洋</w>
毫 不动
林生 斌</w>
摊 位</w>
拍 摄
宽 广</w>
创 出</w>
信 服</w>
S mar
2 70</w>
释 法</w>
避 难</w>
辛 辛
起跑 线</w>
稀 少</w>
看 护</w>
直 击</w>
泥 石流</w>
治 军</w>
水 产品</w>
断 电</w>
战 时</w>
同 感</w>
元 璋</w>
保险 业</w>
交 错</w>
业 委会</w>
ch in
金 刚
破 旧</w>
用 量</w>
理 论
止 损</w>
桥 区</w>
战 法</w>
屹 立</w>
压 根</w>
出租 房</w>
充电 桩</w>
9 6%</w>
194 1年</w>
193 8年</w>
长 租</w>
金融 办</w>
财 务
西 安
罪魁 祸首</w>
研 报</w>
田 径</w>
璀 璨</w>
浦 区</w>
泽 民</w>
樱 桃</w>
日 出</w>
无 常</w>
持 之以
成交 价</w>
情 境</w>
广 发</w>
可 取</w>
劝 导</w>
分 得</w>
佛 像</w>
主 战场</w>
上 港</w>
一 言不
u re
th e
Da vi
7 31</w>
24 万</w>
201 8.
陈水 扁</w>
超 人</w>
英 才</w>
自 拔</w>
维 修
管 服</w>
祖 宗</w>
研 修
石 屹</w>
湖 州</w>
浮 夸</w>
标 示</w>
抵 押
打 牌</w>
手 软</w>
定 时</w>
到 时</w>
初 恋</w>
公 祭</w>
党 史</w>
克里 斯
代 名词</w>
久 性</w>
中 情局</w>
bab y</w>
11 8</w>
驾驶 室</w>
鞭 炮</w>
青春 期</w>
陆 奇</w>
蒲 公
电 价</w>
生产 能力</w>
物价 局</w>
挑 剔</w>
抓 起</w>
张家 界</w>
并发 症</w>
实 践
孤 岛</w>
哭笑 不得</w>
厚 望</w>
体 谅</w>
CF O</w>
额 头</w>
零 星</w>
陈 一
阅 卷</w>
辽 阔</w>
路 演</w>
西雅 图</w>
营业 税</w>
舒 适
自 闭
耳 熟能
福 岛</w>
火 炮</w>
毫不动 摇</w>
标 榜</w>
接 轨</w>
持之以 恒</w>
打 乱</w>
巴 厘
孕 期</w>
围 剿</w>
听 闻</w>
含 糊</w>
召 力</w>
分 摊</w>
信息 流</w>
二 百</w>
久 安</w>
一 目
一 八</w>
ic al</w>
g et</w>
F M</w>
7 8.
11 3</w>
高 企</w>
食用 油</w>
落 款</w>
红 枣</w>
盲 人</w>
溪 县</w>
深 沉</w>
母 婴</w>
樱 花</w>
度假 村</w>
刘德 华</w>
分 销</w>
军 阀</w>
党 报</w>
专 题
不锈 钢</w>
一 卡通</w>
霍尔 果
诺 奖</w>
裂 缝</w>
盼 望</w>
点击 量</w>
庆 良</w>
带 头人</w>
币 圈</w>
工 行</w>
安 防</w>
存 疑</w>
妨 害</w>
夕 阳</w>
塑 胶</w>
变 数</w>
共 处</w>
今 晨</w>
i r</w>
ei r</w>
6 2%</w>
4. 5</w>
3. 0</w>
高 德</w>
钱 款</w>
退 伍</w>
费 力</w>
质 证</w>
胆 子</w>
耳熟能 详</w>
白 俄罗斯</w>
清 扫</w>
民 房</w>
旁 人</w>
提 炼</w>
掏 钱</w>
报 备</w>
报 国</w>
总 算</w>
增 持</w>
图 谋</w>
原 创性</w>
北 市</w>
前 排</w>
佛 法</w>
人 世</w>
亚 硝
二 月</w>
临沂 市</w>
一 帆
骨 髓</w>
驻 足</w>
食 欲</w>
雪 花</w>
避 孕
运 维</w>
规 程</w>
科 比</w>
由 衷</w>
生 意
清 澈</w>
清 淡</w>
流 淌</w>
新 风</w>
废 止</w>
增 产</w>
地 委</w>
南 岛</w>
别有 用心</w>
传 送</w>
下 定
P I</w>
G H
C P</w>
险 些</w>
防 火</w>
补 办</w>
自驾 游</w>
流 星
晨 宇</w>
惊 醒</w>
巴 拉
奖 品</w>
大 街
外 壳</w>
声 讨</w>
在 任</w>
味 精</w>
升 职</w>
切 入</w>
上 海
po li
08 :
轻 信</w>
胜 任</w>
温 水</w>
撒 谎</w>
探 亲</w>
开 封</w>
废 品</w>
平 房</w>
巴塞 罗
工 序</w>
山 庄</w>
小 徐</w>
吉 尔
加 勒
八 九</w>
与 其说</w>
下 落
药 方</w>
男 神</w>
由 来
清 明
淋 巴
承 租
如 此
女 婴</w>
国 务</w>
嘉 年华</w>
卖 场</w>
十 日</w>
删 帖</w>
出人 意料</w>
信息化 部</w>
传 谣</w>
交 界
w as</w>
ti es</w>
V I
鞠 躬</w>
购 入</w>
警 觉</w>
补 给</w>
秀 区</w>
牧 业</w>
潜 入</w>
斑 马
收 据</w>
技 师</w>
我 方</w>
成 像</w>
川 区</w>
岳 阳</w>
家 家</w>
多 媒体</w>
十字 路口</w>
us e</w>
6 5.
6 3
13 5</w>
退 押金</w>
详 见</w>
覆盖 面</w>
自闭 症</w>
缺 氧</w>
米 尔</w>
竞争 者</w>
立 交</w>
督 导组</w>
片 刻</w>
日 照</w>
文 昌</w>
放 映</w>
少 先
大 疆</w>
复 仇</w>
国 度</w>
唐 山市</w>
八达 岭</w>
保 质
人 为
主 营</w>
丰 硕</w>
马哈 蒂尔</w>
马克 ·
首 付款</w>
贵 重</w>
自 负</w>
肠 癌</w>
火 花</w>
火 焰</w>
深 耕</w>
海 龙</w>
本 部</w>
战 事</w>
建 档
宪 章</w>
大 暴雨</w>
圆 通</w>
党 规</w>
克里 米亚</w>
使 者</w>
亮 度</w>
th is</w>
飞 飞</w>
逃 走</w>
襄 阳</w>
舌 头</w>
施 暴</w>
接 待
扣 扣</w>
总 则</w>
安全 带</w>
买 进</w>
hi s</w>
非 议</w>
过 问</w>
踊 跃</w>
蓝 筹
莫 里
范 儿</w>
理 财
淘宝 网</w>
死 缓</w>
欠 债</w>
树 枝</w>
日 夜</w>
无 望</w>
存 续</w>
大 众
刘 某
入 量</w>
下 海</w>
三 农</w>
2 G</w>
199 0</w>
音 译</w>
音 箱</w>
难以 置信</w>
隔 绝</w>
重 金属</w>
退 化</w>
赛 区</w>
脱 贫
皆 是</w>
热 巴</w>
梵 高</w>
暴 行</w>
明 园</w>
无 须</w>
抢 修</w>
当 之
小 狗</w>
宿 迁</w>
宿 舍
大 法官</w>
大 堂</w>
四 月</w>
北 宋</w>
公安 局长</w>
公 墓</w>
修 炼</w>
件 人</w>
a p</w>
A le
4 00亿</w>
钱 宝
金 条</w>
踏 踏
老 路</w>
老 奶奶</w>
翻 新</w>
由来 已久</w>
淡 季</w>
流水 线</w>
毅 力</w>
格 鲁
文 摘</w>
改 动</w>
插 队</w>
提 早</w>
接 续</w>
张 高丽</w>
呼 救</w>
叫 嚣</w>
化 肥</w>
刘 士
关 掉</w>
互 惠</w>
sear ch</w>
p e</w>
T D
9 2%</w>
7 7.
19 9</w>
黑 夜</w>
黎巴 嫩</w>
高 一</w>
风 范</w>
闲 暇</w>
长 制</w>
连 环</w>
营业 厅</w>
脑 洞</w>
积 攒</w>
票 务</w>
木 星</w>
无 序</w>
斑 斓</w>
文 档</w>
收 听</w>
惨 案</w>
大街 小巷</w>
坏 账</w>
吴晓 波</w>
句 号</w>
出 家</w>
内 脏</w>
债务 人</w>
A -
4. 0</w>
24 时</w>
2 25</w>
香 格里
轮 回</w>
缺 位</w>
病 痛</w>
用 尽</w>
父 辈</w>
江 豚</w>
李 玉
充 沛</w>
传 记</w>
伟 人</w>
习 惯性</w>
中 区</w>
专 案</w>
不 起眼</w>
M an
194 6年</w>
飞 扬</w>
面 纱</w>
长治 久安</w>
通 勤</w>
芭 蕾
节 性</w>
网 名</w>
竞争 性</w>
穆罕默 德</w>
离 谱</w>
比 比
怀 里</w>
往 日</w>
单边 主义</w>
刘 春
凳 子</w>
信 号
二 环</w>
乐 器</w>
中 东部</w>
一 举一
H PV</w>
26 万</w>
2 3万</w>
静 态</w>
踏踏 实实</w>
草 药</w>
胰 岛
约束 力</w>
深 造</w>
汹 涌</w>
民 盟</w>
棺 材</w>
有 的
文艺 工作者</w>
教学 点</w>
招 待</w>
打 脸</w>
扑 救</w>
弹 幕</w>
工 资
吃 喝</w>
参 战</w>
半 月</w>
内 生</w>
元 庆</w>
中 青年</w>
下定 决心</w>
下 山</w>
万 事
c all</w>
血 栓</w>
藏 身</w>
维吾尔 族</w>
硬 性</w>
电 车</w>
环 线</w>
献 给</w>
猫 腻</w>
热水 器</w>
指挥 员</w>
总 长</w>
开 区</w>
对 内</w>
奖 者</w>
可 口</w>
乘 机</w>
东 兴</w>
lo w</w>
邀 约</w>
选择 权</w>
选 秀</w>
足 轻重</w>
讨 债</w>
腐 烂</w>
胡 锦
而 起</w>
维 权
第 15</w>
称 霸</w>
矿 区</w>
清 盘</w>
清 爽</w>
比 拼</w>
每 经</w>
普 吉
放 管服</w>
尾 气</w>
国 台办</w>
卫 衣</w>
公 子</w>
交 界</w>
不了 了之</w>
不 俗</w>
d ing</w>
ab le</w>
Joh n</w>
韵 味</w>
试 射</w>
繁 育</w>
王 林
泰 达</w>
松 江</w>
媛 媛</w>
公 司
保 镖</w>
传 承
丰 县</w>
两 点</w>
f orm
ec t</w>
You T
4 A</w>
驻 扎</w>
赫 然</w>
补 救</w>
萨 勒
第 一线</w>
相 聚</w>
疑 难</w>
瓷 器</w>
特 邀</w>
榴 弹</w>
植 入</w>
机 枪</w>
文 风</w>
接 报</w>
干 净
市 里</w>
岳 父</w>
姑 姑</w>
大 字</w>
坠 机</w>
口 服</w>
制 高点</w>
份 子</w>
久 远</w>
两 端</w>
gh t</w>
F r
9 3
6 9.
6 3%</w>
领导 人员</w>
面 容</w>
闻 讯</w>
长 顺</w>
逍 遥
调 味</w>
衍生 品</w>
自 嘲</w>
经 常性</w>
种族 歧视</w>
着 装</w>
潜水 员</w>
渭 南</w>
末 期</w>
所有 者</w>
性 情</w>
寒 风</w>
审 批
塌 陷</w>
在 押</w>
前 年</w>
中 介
fz wb</w>
f i
黎 永兰</w>
铁 男</w>
身 而出</w>
自 主
统治 者</w>
红 杉</w>
移民 局</w>
皮 肤
王 老
演艺 圈</w>
持久 战</w>
得 了</w>
当之 无愧</w>
套 取</w>
向 标</w>
口 镇</w>
刀 具</w>
公 元
亚 冠</w>
二氧化 硫</w>
争 夺
东 航</w>
iPhone 8</w>
d o</w>
2 3亿</w>
199 8.
驻 外</w>
靖 国
雄 心
金 刚</w>
进口 商品</w>
观 光
裹 挟</w>
茄 子</w>
苍 白</w>
航空 母舰</w>
监 事</w>
氨 基
死 伤</w>
律 所</w>
庭 院</w>
小 汽车</w>
定 市</w>
官 僚</w>
失 明</w>
大气 层</w>
大 江</w>
名 誉权</w>
创 新型</w>
中 大</w>
下 角</w>
一 百万</w>
5 万亿</w>
里 拉</w>
超 高</w>
西班 牙
落 成</w>
老 二</w>
红 酒</w>
糖 果</w>
短 短
看 管</w>
指 点</w>
执 掌</w>
当 性</w>
居 于</w>
嘴 唇</w>
周 世
副 厅级</w>
凯 奇
准 考证</w>
候 鸟</w>
人 居</w>
义 无
专 制</w>
c an</w>
8 5.
8 4%</w>
闪 耀</w>
遗 迹</w>
超级 大国</w>
西 门
蕴 藏</w>
花 圈</w>
老爷 子</w>
标本 兼
标本兼 治</w>
某 地</w>
杰 克
无 穷
掌 门人</w>
开放 式</w>
失 守</w>
大 兴</w>
参 谋</w>
化 市</w>
公开 课</w>
今 早</w>
三 者</w>
rm rb
g one</w>
en g</w>
G rou
201 7
黄 昏</w>
阻 断</w>
错 综
运输 局</w>
股 讯</w>
编 织</w>
绿 孔雀</w>
索 马里</w>
知情 者</w>
物 流
海 淘</w>
比比 皆是</w>
控 告人</w>
成 才</w>
布 尔
巴厘 岛</w>
学 堂</w>
壁 画</w>
博 拉</w>
区 位</w>
列 宁
凯 恩</w>
公 分</w>
体 外</w>
ac h
YouT ube</w>
T N
I n</w>
15 000</w>
预 备
重 负</w>
道 道</w>
远 征</w>
虹 鳟</w>
萨 拉
纵 向</w>
积 分
目 以待</w>
电 饭
珍 珠</w>
狭 隘</w>
海 鹏</w>
波 段</w>
树 叶</w>
惊 吓</w>
悬 殊</w>
您 好</w>
心 想</w>
底 价</w>
干 政</w>
学 说</w>
复 原</w>
升 迁</w>
十 点</w>
北 平</w>
云 端</w>
食 客</w>
镕 基</w>
造 船</w>
载 荷</w>
足 球队</w>
药 酒</w>
经 办</w>
竭 尽
独 秀</w>
海 滨</w>
杂 物</w>
拆 解</w>
所 欲
建 党</w>
广告 牌</w>
存 货</w>
千 金</w>
不 丹</w>
下 功夫</w>
一举一 动</w>
P OS</w>
食 物
运 往</w>
行 踪</w>
美 妆</w>
流 逝</w>
毒 贩</w>
替 补</w>
围 栏</w>
前 锋</w>
兰 州市</w>
乃 亮</w>
东 侧</w>
2 8亿</w>
194 7年</w>
1 12
阳 湖</w>
闭 环</w>
配 音</w>
越 狱</w>
茂 名</w>
立 国</w>
申 科</w>
甚 者</w>
思 索</w>
徐 纯合</w>
原料 药</w>
兰 兰</w>
今 生</w>
下落 不明</w>
下 限</w>
上 汽</w>
万 计</w>
一帆 风顺</w>
wei bo
Space X</w>
6 1%</w>
500 0亿</w>
3- 5</w>
鲜 艳</w>
骆 驼</w>
门 将</w>
课 文</w>
菲 利
献 策</w>
燃 放</w>
涉 外</w>
朱 镕基</w>
木 板</w>
断 绝</w>
操 盘</w>
捕 获</w>
打 球</w>
恶 搞</w>
征 用</w>
幼 童</w>
山 药</w>
尘 埃
A G
26 00</w>
193 5年</w>
鸿 茅</w>
诫 勉</w>
网 文</w>
窗 帘</w>
祭 祀</w>
相对 论</w>
湘 潭</w>
海 空</w>
正 义
朱 元璋</w>
敲诈勒 索
布 满</w>
学 分</w>
共 生</w>
仿 制</w>
不 振</w>
0 4月</w>
错综 复杂</w>
迫 不及
过 瘾</w>
语 法</w>
融 券</w>
缜 密</w>
省 区</w>
症 结</w>
珍 藏</w>
独立 自主</w>
涉 毒</w>
法 典</w>
村 级</w>
木 头</w>
拭 目以待</w>
往 后</w>
地方 性</w>
地 主</w>
变 卖</w>
发 觉</w>
刘 海</w>
从 头</w>
丁 香</w>
。。 。。
si on</w>
食 品
顶 替</w>
迷 恋</w>
班 农</w>
王 新
海 绵</w>
泰 州</w>
影 评</w>
后 备</w>
各 异</w>
反 顾</w>
医 保
区 划</w>
几 内
内 设</w>
倒 车</w>
____ ____
错 峰</w>
角 膜</w>
药 房</w>
节 制</w>
胰岛 素</w>
编辑 部</w>
绵 延</w>
纵 队</w>
积 淀</w>
社 工</w>
正 道</w>
木 马</w>
文 华</w>
控 人</w>
循 序
彼 岸</w>
弹 射</w>
好 运</w>
北 纬</w>
冰 淇
冒 用</w>
佛罗里 达州</w>
乐 融
an n
8 6.
7 50</w>
鼓 动</w>
驻 马
送 货</w>
苗 族</w>
粉 丝
林 立</w>
李 兆
暗 藏</w>
忧 患</w>
当 务
归 国</w>
封 顶</w>
寻 租</w>
国 泰</w>
吴 谢宇</w>
古 迹</w>
勒 索</w>
制 衡</w>
五 四
丽 媛</w>
G re
2/ 3</w>
1. 7</w>
靖国 神社</w>
长 线</w>
迫不及 待</w>
转 股</w>
话 筒</w>
笑 脸</w>
秋 裤</w>
河 镇</w>
尽 致</w>
坦 率</w>
坦 承</w>
圆 明园</w>
兜 售</w>
com p
3 ·
赛 车</w>
购 进</w>
街 道
王 红</w>
炫 富</w>
机 智</w>
收 看</w>
招 揽</w>
当务 之急</w>
巴塞罗 那</w>
对 得起</w>
国 共</w>
台 面</w>
发 愁</w>
反对 党</w>
元/ ㎡</w>
传 开</w>
中华 区</w>
下 挫</w>
5. 5</w>
风 向标</w>
配 额</w>
花 销</w>
网 联</w>
第三 产业</w>
磨 难</w>
普通 股</w>
拖 鞋</w>
怒 斥</w>
帝 王</w>
寻 味</w>
客 流量</w>
媲 美</w>
卫 东</w>
兼 备</w>
俘 虏</w>
依 赖
佳 节</w>
乡 下</w>
中 队长</w>
一目 了然</w>
19 年</w>
马 丁
装 载</w>
装 甲
落 脚
自我 批评</w>
胸 前</w>
肤 色</w>
火 化</w>
毕 生</w>
武 功</w>
政 纪</w>
懒 得</w>
幸 存</w>
常 州市</w>
宋 某</w>
国 宝</w>
化 县</w>
全 书</w>
入 主</w>
保 有量</w>
三 门
c n
O K
9 6.
00 11</w>
雷 某</w>
集中 度</w>
良 品</w>
考 拉</w>
综 指</w>
积 雪</w>
树 上</w>
染 色
打 骂</w>
惨 淡</w>
张 继
宣 部</w>
宝 能</w>
守 望</w>
塞 湖</w>
包 揽</w>
刘 洋</w>
具 名</w>
入 点</w>
亲 王</w>
乖 乖</w>
er ic
ad e</w>
T M
SN 0
ID C</w>
马尔 代
资料 图</w>
谈 心</w>
胡 适</w>
独 居</w>
物 件</w>
湖 水</w>
歌 唱</w>
歇 尔</w>
方 形</w>
敬 礼</w>
惨 剧</w>
履 约</w>
密密 麻麻</w>
天文 学家</w>
外 加</w>
基因 组</w>
口 区</w>
冰淇 淋</w>
会 诊</w>
伊万 卡</w>
事 例</w>
万 里</w>
万 庆良</w>
b et</w>
踢 球</w>
节 俭</w>
王 建
法 国队</w>
步 行
星 标</w>
族 群</w>
惊 呼</w>
德 拉
宝鸡 市</w>
化 剂</w>
包 容性</w>
前 些年</w>
出租 屋</w>
入 者</w>
免 予</w>
人 际</w>
5 7%</w>
青 训</w>
长 跑</w>
钉 子</w>
酸 性</w>
递 给</w>
退 缩</w>
胡锦 涛</w>
疑 犯</w>
炎 症</w>
满 载</w>
清 朗</w>
油 车</w>
栏 杆</w>
播 种</w>
挺 身而出</w>
平 价</w>
大 纲</w>
大 笔</w>
夜 总会</w>
喜 庆</w>
公元 前</w>
义无 反顾</w>
中 专</w>
an k
OS S</w>
A c
9 19</w>
28 00</w>
颤 抖</w>
边 缘
转 转</w>
议 长</w>
翻 阅</w>
略 微</w>
淋 漓
派 对</w>
李 晨</w>
新生 代</w>
情 谊</w>
心理 学家</w>
引 领
幸 亏</w>
市 人</w>
宜 宾</w>
宋 朝</w>
唯 物
哈 尔</w>
关键 点</w>
保 释</w>
下 同</w>
ou ld</w>
O ff
长生 生物</w>
酒 泉</w>
转 战</w>
谢 通
融 洽</w>
生 地</w>
王 某
特 赦</w>
物业 费</w>
滴 滴
涵 养</w>
武 磊</w>
故 居</w>
承 东</w>
崖 式</w>
境 遇</w>
城市 群</w>
喉 咙</w>
发 电厂</w>
及 格</w>
历 届</w>
停 课</w>
主 机</w>
ti ve</w>
p er</w>
W T
P R</w>
7 6.
7 6%</w>
骑 兵</w>
辛辛 苦苦</w>
转 手</w>
谋 生</w>
苏 宁
自 卫</w>
脊 梁</w>
胜 负</w>
翡 翠</w>
石 墨
病 学</w>
杨 玉
杨 林</w>
收 涨</w>
扎 心</w>
循序 渐进</w>
废 弃
利 ·
农 合</w>
A N</w>
9 ·
0 时</w>
防 洪</w>
邹 勇</w>
过 多</w>
落 叶</w>
精 明</w>
死 神</w>
果 树</w>
李 刚</w>
密 封</w>
安 监局</w>
唤 起</w>
假 释</w>
保 驾</w>
串 通</w>
不 景气</w>
vi ew</w>
G B
11 1</w>
零 容忍</w>
酒 席</w>
郑 俊
购房 人</w>
莆 田</w>
网 剧</w>
汇 丰</w>
杨 紫</w>
朝 日</w>
更 迭</w>
易 _</w>
挫 败</w>
拍摄 者</w>
廉洁 自律</w>
埃 博拉</w>
印度 人</w>
刘士 余</w>
会 战</w>
s b
B l
6 6%</w>
黄光 裕</w>
风 浪</w>
阿里 云</w>
道 德
解放 战争</w>
菲 方</w>
美 剧</w>
罔 顾</w>
站 稳</w>
社会 效益</w>
盆 栽</w>
王晓 易_</w>
狂 奔</w>
洪 灾</w>
波 折</w>
捣 毁</w>
打 发</w>
手 环</w>
干 旱</w>
字 幕</w>
刺 伤</w>
共 事</w>
倍 感</w>
NE 0011</w>
G PU</w>
123 45</w>
霍尔果 斯</w>
陈 列</w>
造 林</w>
轮 廓</w>
蓝筹 股</w>
空 难</w>
点 心</w>
潮 湿</w>
淋漓 尽致</w>
无一 例外</w>
新 乡</w>
改 观</w>
彝 族</w>
异 物</w>
尖 叫</w>
口 口
刘 邦</w>
人生 观</w>
as t</w>
B C
限 速</w>
财 产权</w>
证 监局</w>
血 统</w>
腹 痛</w>
胜 过</w>
砖 头</w>
烈 日</w>
无 阻</w>
并非 如此</w>
城 南</w>
后 遗
反 常</w>
冷 链</w>
侦 查
介 休</w>
丽 莎
中 下游</w>
两 面
M on
项目 部</w>
迁 入</w>
财 产
纸 箱</w>
纠 纷
溥 仪</w>
易 于</w>
昌 平</w>
新 陈
挥 手</w>
强 加</w>
大 理
启 超</w>
变 异</w>
分 拣</w>
储 蓄
俞 正
亲 吻</w>
tern ational</w>
gu an
c e
7 9.
4 K</w>
马尔代 夫</w>
面 值</w>
防 长</w>
通 向</w>
草 坪</w>
端 正</w>
现 如今</w>
比 作</w>
格 林</w>
替 身</w>
明尼苏 达州</w>
文 ·
掩 埋</w>
尾 部</w>
大 便</w>
兰 队</w>
党纪 国法</w>
保温 杯</w>
低 落</w>
仰 望</w>
一 鸣</w>
U I</w>
鸭 子</w>
进 博会</w>
辩 证</w>
该 书</w>
评 测</w>
要 价</w>
联合 报</w>
紫 色</w>
秋 雨</w>
深 山</w>
消 解</w>
殆 尽</w>
止 血</w>
李 自
普 惠
执行 局</w>
平 线</w>
天 亮</w>
大 河
吴 亦凡</w>
启 程</w>
分布 式</w>
倔 强</w>
不堪 设想</w>
上加 霜</w>
三 生</w>
三 国
th eir</w>
S S
领 悟</w>
都市 报</w>
西 欧</w>
肯 尼迪</w>
绍 峰</w>
独 处</w>
斯 诺
年轻 化</w>
小 金
奖 杯</w>
外 力</w>
博 彩</w>
单 身
勘 院</w>
刘 伯
停 歇</w>
ou d</w>
T ou
2000 .
11 .</w>
风 潮</w>
雪 上加霜</w>
钻 井</w>
转 眼</w>
苦 干</w>
脏 话</w>
罗 尔</w>
结 盟</w>
现实 主义</w>
柿 子</w>
排 球</w>
得 其
建档 立卡</w>
巡 警</w>
封 禁</w>
封 号</w>
壮 丽</w>
呼 伦
后遗 症</w>
发 霉</w>
反 派</w>
分 层</w>
光 圈</w>
中小 学校</w>
马 德里</w>
金 马
邯 郸
违 建</w>
该 区</w>
解 毒</w>
莱 特</w>
脱贫 致富</w>
耕 耘</w>
绰 号</w>
笔 画</w>
犀 牛</w>
橘 子</w>
安 全部</w>
备 考</w>
嗓 子</w>
商 谈</w>
准确 性</w>
俞正 声</w>
伦 ·
伟 业</w>
介 绍
D T</w>
2 1亿</w>
0. 4%</w>
� 銆</w>
鄙 视</w>
辣 条</w>
转 业</w>
超 乎</w>
血 流</w>
球 赛</w>
水 涨
接 触
承 德</w>
微 店</w>
卡 人</w>
出 乎
交通 局</w>
主 创</w>
阿 克
记 过</w>
胡 椒粉</w>
胜 利
纵 火</w>
潮 汕</w>
游 船</w>
淮 安</w>
时 装
新 网</w>
户 晓</w>
得 逞</w>
建 伟</w>
富 力</w>
宴 会</w>
坚 固</w>
台 网</w>
历史 学家</w>
决 权</w>
公 文</w>
优惠 券</w>
以 防</w>
二 等奖</w>
中 生
一 头</w>
ou s</w>
com m
M O
15 5</w>
风 吹
陈 冬</w>
警 卫</w>
纱 布</w>
离 异</w>
百分之 百</w>
演 进</w>
李 连
暴 雪</w>
排 量</w>
慷 慨</w>
影 迷</w>
开 门
开 篇</w>
年 迈</w>
安 庆</w>
大 江
和 睦</w>
原 味</w>
升 华</w>
决 算</w>
关注 点</w>
入 门</w>
偿 债</w>
驻 守</w>
须 知</w>
雷 同</w>
长安 区</w>
谢通 祥</w>
维 尔</w>
组 件</w>
电 讯</w>
漏 水</w>
滑 动</w>
武 长顺</w>
歌 舞</w>
学 联</w>
奥 尔
商务 法</w>
刘 贵
保护 部</w>
交易 员</w>
in te
I m
B ri
201 9
2 22</w>
黄岩 岛</w>
风云 变幻</w>
霸 凌</w>
遥 控</w>
豁 免</w>
落脚 点</w>
自 燃</w>
腰 带</w>
私 密</w>
相关 性</w>
王 子
潘 某</w>
昆 仑</w>
拉 尼
打 斗</w>
情 人节</w>
名 师</w>
各 式
升级 版</w>
他 俩</w>
乙 方</w>
中文 系</w>
velo p
调 入</w>
至 极</w>
臭 味</w>
石墨 烯</w>
玲 玲</w>
特雷 莎·梅</w>
游 学</w>
流星 雨</w>
武装 力量</w>
染色 体</w>
最 前沿</w>
晚 清</w>
新 月
援 手</w>
必 胜</w>
导 入</w>
增 城</w>
回 信</w>
历 练</w>
冷 淡</w>
内 马尔</w>
依 附</w>
三 点</w>
195 1年</w>
青 菜</w>
识 别
监 听</w>
武 昌</w>
本 级</w>
有 线</w>
收 报</w>
接 诊</w>
房 款</w>
屡禁 不止</w>
小 强</w>
客运 站</w>
国 锋</w>
围 巾</w>
喀 什</w>
君 安</w>
力 所
列 席</w>
不 详</w>
D O
6 1.
200 8.
黄 土</w>
萨达 姆</w>
罢 免</w>
结 晶</w>
纠纷 案</w>
科 考</w>
田 县</w>
牵 制</w>
洲 区</w>
松 懈</w>
收 场</w>
摸 底</w>
搏 击</w>
恐 龙</w>
心 爱</w>
困 难
促 进
中 导</w>
。 特朗普</w>
al y
S a
201 6.
15 分</w>
路 透</w>
立 业</w>
爱 民</w>
照 看</w>
江歌 案</w>
林 宇</w>
李 宗
旅游 区</w>
户 户</w>
定 量</w>
威 斯
姆 斯</w>
好 处
史 润龙</w>
台 军</w>
可 悲</w>
刷 牙</w>
中 宣部</w>
4 5万</w>
11 6</w>
0. 6%</w>
/ 秒</w>
银 山</w>
赶 走</w>
财政 部长</w>
船 高</w>
老板 娘</w>
稽 查</w>
暗 杀</w>
新 篇章</w>
新 式</w>
放 慢</w>
排 练</w>
干 妈</w>
宣 讲
各式 各样</w>
Ch ro
9 5.
200 5</w>
震 中</w>
长 篇</w>
过 冬</w>
蜿 蜒</w>
虚 设</w>
萨勒 曼</w>
荒 诞</w>
网 速</w>
秋 色</w>
瘦 身</w>
电 梯
梅 州</w>
果 子</w>
林 区</w>
新 兵</w>
斑马 线</w>
效 价</w>
户 籍
尾 随</w>
姐 弟</w>
大 业</w>
后 裔</w>
古 建筑</w>
击 打</w>
其 父</w>
俱 全</w>
住建 局</w>
中 老年</w>
上 周末</w>
三 维</w>
11 年</w>
高 压
马 龙</w>
认 领</w>
而 止</w>
积 压</w>
百 花
王 亚
泥 潭</w>
毗 邻</w>
每 桶</w>
日 落</w>
德 尔</w>
张 春
广 度</w>
大手 笔</w>
外 滩</w>
去 处</w>
十 五
刷 脸</w>
分 期
假 冒
保 罗·
8 6%</w>
8 3
7 5.
6 4%</w>
1. 0</w>
频 出</w>
限 性</w>
都 江
贸 市场</w>
窝 案</w>
看 做</w>
直 觉</w>
瑞 银</w>
枕 头</w>
朗 诵</w>
曼 哈
授 意</w>
意 境</w>
惊 心
宽 敞</w>
好处 费</w>
变 故</w>
卫 冕</w>
升 旗</w>
加 装</w>
中心 化</w>
龙 湖</w>
鬼 谷子</w>
轰 轰
订 阅
解放 思想</w>
蒂 勒
耗 尽</w>
而 代
老 两口</w>
社 评</w>
看 上</w>
狭 小</w>
水 晶</w>
死 人</w>
梁 家
株 洲</w>
心 肌
地 球
在 所
唐 僧</w>
受 挫</w>
卢 比</w>
刻 板</w>
刘 光
兼 具</w>
倡 廉</w>
伊 丽莎
中 南部</w>
一般 性</w>
一 气
一 整套</w>
ation s</w>
an t
锐 减</w>
钟 情</w>
走 动</w>
调 集</w>
要 不然</w>
直 白</w>
特 使</w>
杨 洁
来 人</w>
挣 脱</w>
抢 眼</w>
快 感</w>
张 超</w>
山 谷</w>
妊 娠</w>
大兴 区</w>
大 白</w>
夜 景</w>
外 省</w>
后 退</w>
双 语</w>
剥 削</w>
剑 英</w>
初 中生</w>
供 销</w>
不 相
不 理</w>
Ne ws</w>
8 8%</w>
7 5亿</w>
2. 4</w>
1 2000</w>
霉 素</w>
陈 旧</w>
问 津</w>
铺 开</w>
诧 异</w>
行政 诉讼</w>
莎普爱 思</w>
职 业化</w>
畅 销
甲 状
水涨 船高</w>
斯 拉
敌 方</w>
支 撑
掉 头</w>
折 叠
投 保</w>
巴 赫</w>
工 人
大 白
囊 括</w>
告 示</w>
信 阳</w>
仿 真</w>
东道 主</w>
l l</w>
H O
Am eric
香格里 拉</w>
音 响</w>
陈 伟
针 织</w>
配 料</w>
谢 尔
证券 法</w>
肇 庆</w>
而代 之</w>
空 闲</w>
秦始 皇</w>
河 县</w>
景 德
授 信</w>
慈 禧</w>
广 州
地 雷</w>
再 者</w>
内 分泌</w>
信 度</w>
优 胜
丰 满</w>
不 约
Alpha bet</w>
3- 4</w>
2. 3</w>
1 30
0. 8</w>
面 馆</w>
面 而来</w>
阵 线</w>
采 暖</w>
造 谣
质 朴</w>
舌 尖</w>
而 同</w>
科学 界</w>
科学 性</w>
沉 睡</w>
废 旧</w>
库 尔德</w>
巡 游</w>
家 喻
周 文
名胜 区</w>
台 山</w>
只 用</w>
华 春莹</w>
光 滑</w>
他 乡</w>
中 天</w>
S A</w>
B M
27 00</w>
2 2万</w>
198 0</w>
饭 桌</w>
酒 瓶</w>
逆 势</w>
街道 办</w>
苏 区</w>
琳 琳</w>
涌 动</w>
断 崖式</w>
屈 辱</w>
学 姐</w>
大 名
回 收
呼格吉 勒
名 号</w>
吉布 提</w>
冶 炼</w>
公 有</w>
主 因</w>
一 龙</w>
ci al</w>
Mo bi
20 50</w>
194 2年</w>
马 铃
领导 力</w>
陈 光标</w>
阿 布
长 途
轮 船</w>
计 入</w>
西 村</w>
第二十 四</w>
硬 是</w>
电 报</w>
渗 透
江 水</w>
正 轨</w>
来 来
机 床</w>
押 解</w>
抓 拍</w>
成 因</w>
强 壮</w>
宠 爱</w>
失 调</w>
吞 吐
刘 明
冲 锋</w>
党 费</w>
亚 洲杯</w>
世 事</w>
不 忘</w>
hon g
8 3%</w>
革命 性</w>
金 门</w>
西 伯
结 成</w>
纵 火案</w>
红 绿灯</w>
灯 火</w>
清 风</w>
江 路</w>
永 久性</w>
气 流</w>
梁 莹</w>
林 场</w>
新 奇</w>
拨 付</w>
彩 电</w>
张 立
小 米
小 将</w>
卢 卡
南 沙
半 程</w>
修 补</w>
东 港</w>
不 顾
qi u
N HK</w>
0. 4</w>
麦克 风</w>
领 头
证 词</w>
节 后</w>
老 龄</w>
第 18</w>
立 委</w>
秀 丽</w>
短 裤</w>
登 台</w>
爆 破</w>
湿 润</w>
根 治</w>
杨洁 篪</w>
晴 天</w>
摆 摊</w>
战 书</w>
心 所
宽 阔</w>
家喻 户晓</w>
大 屏</w>
发 式</w>
务 省</w>
刘 鹤</w>
丸 子</w>
两 难</w>
三 三</w>
z y
d y</w>
Uni vers
默 无
魄 力</w>
连 年</w>
赵 本山</w>
许 诺</w>
讲 讲</w>
行 军</w>
用 处</w>
烈 烈</w>
波 助
极 速</w>
极 地</w>
村 霸</w>
最 低点</w>
新陈 代谢</w>
推 波助
归 于</w>
张 爱
应 运
庄 镇</w>
平 均值</w>
展 品</w>
尘埃 落定</w>
实 弹</w>
土 重
回 款</w>
周 到</w>
华 泰</w>
副 处级</w>
儿 时</w>
In te
9 3.
7 2%</w>
鲜 美</w>
鱼 肉</w>
边 远</w>
短短 的</w>
益 处</w>
登 陆
热 搜
末 日</w>
显 瘦</w>
既 得
文 联</w>
揪 心</w>
抄 底</w>
宝 妈</w>
制度 性</w>
减 法</w>
关 西</w>
令 营</w>
交通 委</w>
交界 处</w>
不约 而同</w>
不 如说</w>
F O</w>
A u
8 3.
贪 图</w>
蒲公 英</w>
营 店</w>
能 及</w>
绳 索</w>
红 芯</w>
纠 集</w>
米 勒</w>
法兰 克
槽 值</w>
有机 物</w>
文 集</w>
放 飞</w>
摄 像</w>
挥 发性</w>
懒 惰</w>
念 斌</w>
小 卖
女 朋友</w>
女 兵</w>
单 调</w>
出 没</w>
儒 林</w>
三 季报</w>
199 7.
转 动</w>
菜 肴</w>
翻 天
晓 得</w>
旅行 团</w>
慕 尼
平 整</w>
带 宽</w>
工 团</w>
实 人</w>
反腐 倡廉</w>
危 机
克 鲁
修 课</w>
侦 探</w>
不知所 措</w>
不 屑</w>
on om
T T</w>
7 3%</w>
200 6.
2 8万</w>
马铃 薯</w>
防 伪</w>
铁 军</w>
逐 级</w>
轻 视</w>
缠 身</w>
绿 营</w>
神 户</w>
流 利</w>
李 锦
朗 普</w>
文 旅</w>
教 程</w>
承包 商</w>
开 赛</w>
工 农
守 候</w>
天 蝎
在 必
力所 能及</w>
低 空</w>
不 前</w>
上 进</w>
at a</w>
8 4.
6 2.
13 8</w>
黄 永
针 灸</w>
配 送
遍 及</w>
西 路</w>
蜘 蛛
蒂勒 森</w>
纯 净</w>
科 恩</w>
研究 部</w>
直 奔</w>
淘 汰
泪 流
旁 观者</w>
新 低</w>
擦 拭</w>
微 调</w>
广 播
工业 区</w>
奋 勇</w>
取 而代之</w>
动 魄</w>
信 奉</w>
佳 缘</w>
会 者</w>
事 权</w>
一 段落</w>
n ing</w>
9 4.
7. 5</w>
7 4.
近 海</w>
覆 地</w>
藏 獒</w>
航空 器</w>
穆里 尼奥</w>
相 距</w>
王老 吉</w>
独 到</w>
殿 堂</w>
根 深
普 遍
戒 烟</w>
峨 眉山</w>
尼 克</w>
城 内</w>
国 办</w>
围 殴</w>
哭 闹</w>
债 转股</w>
俗 化</w>
S er
G u
面 世</w>
老 妈</w>
瑙 鲁</w>
珠 海市</w>
特 派</w>
港 市</w>
洪秀 柱</w>
正 风</w>
时 点</w>
当 其
工 场</w>
妇 科</w>
力 图</w>
全 队</w>
使 领馆</w>
何 尝</w>
低 速</w>
乳 腺</w>
中小 型</w>
世 卫</w>
三 三
U P</w>
5 8%</w>
5 3%</w>
194 4年</w>
预 售
非 遗</w>
震 源</w>
解 聘</w>
胸 肌</w>
立 信</w>
猎 豹</w>
浓 烟</w>
攀 登</w>
抽 屉</w>
心 丸</w>
应运 而生</w>
年 长</w>
已 故</w>
工作 制</w>
山 口</w>
女 装</w>
售 后
向 性</w>
向 东</w>
十 堰</w>
动 容</w>
保 单</w>
n m</w>
P O
高 烧</w>
驿 站</w>
问 号</w>
重 叠</w>
那 会儿</w>
袖 子</w>
脑 筋</w>
绝 佳</w>
矿 物质</w>
瓦 尔</w>
狗 肉
武 大</w>
正 处级</w>
斯 塔</w>
探 险</w>
找 上门</w>
息 地</w>
德 意志</w>
常 任</w>
小 宝</w>
奋 发
大 成</w>
告 一段落</w>
务工 人员</w>
创 投</w>
以 东</w>
人 称</w>
中国 籍</w>
201 3.
静 脉</w>
轰轰 烈烈</w>
跳 跃</w>
老 罗</w>
翻 番</w>
美 满</w>
缩 表</w>
移 居</w>
牛 排</w>
怒 火</w>
尾 盘</w>
尚 且</w>
多 尔</w>
外 侧</w>
华 林</w>
半 壁
事 无
上 证
n o</w>
8 4
铁路 网</w>
迪 ·
贵 人</w>
血 肉</w>
葱 花</w>
翻天 覆地</w>
第 七
确 信</w>
燕 子</w>
滑 雪
淡 薄</w>
水 乡</w>
果 敢</w>
权 重</w>
权 主义</w>
晚 安</w>
拖 拉
扼 杀</w>
归 功</w>
废弃 物</w>
布 雷
子 星</w>
发 芽</w>
发 科</w>
出 境
元/ 人</w>
假冒 伪劣</w>
交 响
p gone</w>
A K
==== ====
默 默无
重 镇</w>
输 入
观 赏
舍 友</w>
聚 合</w>
经济 基础</w>
红 火</w>
瞭 望</w>
生态 圈</w>
生命 线</w>
王 丽
沟 村</w>
次 贷</w>
拍 打</w>
抱 负</w>
投票 权</w>
小 儿</w>
地 势</w>
哥 尔
同 龄</w>
剖宫 产</w>
关 中</w>
仪 仗
业务 量</w>
不可 分</w>
Chin a
2 10</w>
0. 6</w>
0 1
远 期</w>
边缘 化</w>
耶 伦</w>
群 众
红 外</w>
科 创</w>
王 安
火 速</w>
武 林</w>
无 敌</w>
文 工团</w>
敲 定</w>
搏 斗</w>
抽 搐</w>
弗 吉
寥 寥</w>
大 雾</w>
匣 子</w>
两 头</w>
下 月</w>
V P</w>
200 3.
鞋 垫</w>
选 派</w>
转 行</w>
萌 萌</w>
而 过</w>
空 战</w>
洗 白</w>
栽 培</w>
格 调</w>
时 日</w>
报 名
慕尼 黑</w>
刘 立
全 然</w>
免 征</w>
克萨 斯州</w>
以为 然</w>
代 办</w>
九 一八</w>
一 边
ic k</w>
B OSS</w>
8 2%</w>
7 8%</w>
27 万</w>
铁 腕</w>
钱宝 网</w>
象 棋</w>
维 也
然 无
沉 痛</w>
汉 口</w>
某 人</w>
板 车</w>
松 鼠</w>
无 私
无 声
教 书</w>
搀 扶</w>
扰 民</w>
广 网</w>
家 族
审 定</w>
宛 如</w>
多 米
外 号</w>
国 税</w>
发 审
参谋 部</w>
卷 土重
功 利</w>
到 头
冷 落</w>
再 造</w>
公 德</w>
人身 自由</w>
产业 园区</w>
互联 网
书 单</w>
三 严</w>
or s</w>
en er
西 甲</w>
莫 及</w>
耐 人
老 旧</w>
篮 协</w>
竖 起</w>
皇 上</w>
犯 规</w>
正 版</w>
本 法</w>
斯 德
敌 意</w>
摩根 士
推波助 澜</w>
成 指</w>
惊心 动魄</w>
心 脑血管</w>
家 村</w>
土 木</w>
劳 作</w>
关联 方</w>
全 盘</w>
令人 担忧</w>
介 意</w>
临 走</w>
中 叶</w>
中 东欧</w>
O Y
F DA</w>
1. 3万</w>
........ ........
香 油</w>
配 色</w>
远 海</w>
路 桥</w>
豆 浆</w>
词 典</w>
西 岸</w>
第 20</w>
相 思</w>
监察 部门</w>
王 源</w>
气 囊</w>
楷 模</w>
格 子</w>
有 甚者</w>
无可 奈何</w>
援 朝</w>
扶贫 办</w>
打 印
德 拉</w>
应 酬</w>
垫 底</w>
卖 方</w>
千 古</w>
刘 铁男</w>
凯奇 莱</w>
余 承东</w>
乐 道</w>
w i
l a</w>
Mar k
L NG</w>
J am
高尔 夫</w>
靖 宇</w>
追 星</w>
车 管所</w>
跌 倒</w>
诊 治</w>
老 将</w>
祥 和</w>
社 交
石 块</w>
眼 眶</w>
病 史</w>
毫 克</w>
明 文
时 时
振 东</w>
德 尔
小 子</w>
天 临</w>
呼格吉勒 图</w>
名 列
匈 奴</w>
刊 载</w>
兜 铃</w>
先 天</w>
僵 化</w>
产 品
中华 民国</w>
不 择
CR S</w>
7 7%</w>
驱 赶</w>
阅 历</w>
闲 聊</w>
锤 炼</w>
西 勘院</w>
胜 仗</w>
耐人 寻味</w>
耐 力</w>
烧 烤
水 深</w>
民主 党派</w>
栈 道</w>
林 雪
挫 伤</w>
总 价值</w>
开 征</w>
年 检</w>
夹 杂</w>
大 伟</w>
卷土重 来</w>
出 一
光 照</w>
俯 瞰</w>
乌 拉
上 瘾</w>
in s</w>
ac t
ON E</w>
7 1%</w>
3 15</w>
200 1.
顺 风</w>
闪 烁</w>
金 银
补 助
维 多
空 子</w>
破坏 性</w>
盲 区</w>
物 力</w>
燕 窝</w>
潮 州</w>
演 义</w>
海 宁</w>
海 南岛</w>
李 淑
吉林 市</w>
史 密
发言 权</w>
卫生 局</w>
华 信</w>
冰 糖</w>
H ar
A BC</w>
1 5年</w>
重 合</w>
谷 底</w>
许 某</w>
获 准</w>
穿 行</w>
百 日</w>
王 春
爆 仓</w>
涨 势</w>
消费 量</w>
杀伤 力</w>
本 分</w>
旅游 部</w>
教 界</w>
录 音
当 家
弯 路</w>
张德 江</w>
封 闭
安 危</w>
墓 碑</w>
品 行</w>
原 题</w>
减 贫</w>
冠 心病</w>
两 极</w>
- 4</w>
麻 醉
防 灾</w>
镇 压</w>
诚 然</w>
训练 营</w>
表 妹</w>
第 24</w>
研究生 院</w>
溃 疡</w>
格 列
月 经</w>
时 装</w>
恶 毒</w>
幼 教</w>
姆 林
如此 一来</w>
固 执</w>
器 具</w>
发 誓</w>
单 人</w>
前 茅</w>
伎 俩</w>
亲 历</w>
二 十一</w>
丹 利</w>
中国 区</w>
中 行</w>
c or
9 1%</w>
8 8.
7 000万</w>
4 20</w>
驱 动力</w>
迸 发</w>
迷 惑</w>
跳 伞</w>
走 遍</w>
资本 金</w>
贪污 罪</w>
补 给
翻 越</w>
章 泽
碱 性</w>
潜 心</w>
清 流</w>
李 易
施工 方</w>
数 学家</w>
挂 靠</w>
开 立</w>
尼 康</w>
家 装</w>
喜 事</w>
向 阳</w>
光 子</w>
供 职</w>
00 1</w>
颠 倒
试 用</w>
蛇 口</w>
真 挚</w>
皆 知</w>
畜 牧</w>
王 杰</w>
李 天
叛 逆</w>
力 更
免 签</w>
值班 室</w>
体 贴</w>
E R</w>
3. 2</w>
25 0万</w>
19 00</w>
默 化</w>
非 金融</w>
隐 蔽
阶 梯</w>
肉 体</w>
热 销</w>
演讲 者</w>
江 宁</w>
正 厅级</w>
栖 息地</w>
更 有甚者</w>
小 贩</w>
密 不可分</w>
宝 华</w>
口 供</w>
劲 夫</w>
动 员
减 除</w>
二 等</w>
三 四十</w>
C 919</w>
36 00</w>
24 00</w>
199 6.
赔 款</w>
蒙古 族</w>
肋 骨</w>
老 干部</w>
界 点</w>
泪流 满面</w>
有 数</w>
斗 志</w>
收 跌</w>
廊 坊市</w>
庐 山</w>
山 水
字 节</w>
劫 匪</w>
光 头</w>
侄 女</w>
习 班</w>
S ur
Cl oud</w>
15 0
齐 心协力</w>
顽 疾</w>
銆 �銆</w>
莫 斯</w>
美 人
繁 衍</w>
策 划
病 危</w>
池 塘</w>
敌 军</w>
攀 枝
战 备</w>
心 率</w>
州 立</w>
大 号</w>
墨 尔
塌 方</w>
哭 诉</w>
发射 场</w>
保质 期</w>
代 市长</w>
不 忍</w>
一无所 知</w>
f ace</w>
en d</w>
Mi cha
4 5亿</w>
1. 8万</w>
高 铁站</w>
需 品</w>
美 食
算 盘</w>
秋 风</w>
离 别</w>
盖 子</w>
监察 室</w>
生 平</w>
潜 移
旅 店</w>
年 前</w>
实 控人</w>
如 出一
发展 观</w>
发 短信</w>
加 工厂</w>
前 列
全 能</w>
亚 ·
五 中全会</w>
不 成
上 文</w>
Y o
S ci
Ch ri
7 4%</w>
麻 辣</w>
静 止</w>
青 蛙</w>
邯郸 市</w>
路 途</w>
警 服</w>
良 俗</w>
肺 结核</w>
聚 变</w>
科技 园</w>
礼 让</w>
火 烧</w>
敏 感
抗 美
惊 动</w>
布伦 特</w>
居 留</w>
小 梅</w>
如出一 辙</w>
共同 点</w>
偷 逃税</w>
但 愿</w>
中 化</w>
A C</w>
.com .cn/
首 任</w>
防 护
评论 家</w>
胀 率</w>
网 银</w>
缔 造</w>
维 艰</w>
票 数</w>
碳 九</w>
着 力点</w>
电 击</w>
爆炸 物</w>
涂 抹</w>
浓 缩</w>
欣 然</w>
梁 振
指导 性</w>
底 色</w>
常 德</w>
左 脚</w>
安 阳</w>
婉 拒</w>
大 计</w>
坡 路</w>
国 乒</w>
古 董</w>
北 戴
刘 亦
保障 房</w>
争 辩</w>
东北 人</w>
C H
201 6
陈 建
选 赛</w>
连 队</w>
赃 物</w>
订 单量</w>
衬 衣</w>
花 花</w>
脚 跟</w>
经 络</w>
祖 名</w>
盒 马</w>
牡 丹</w>
潜移 默化</w>
油 条</w>
汤 汁</w>
权 属</w>
时 效</w>
新鲜 事</w>
打 非</w>
徒 手</w>
强奸 案</w>
山 里</w>
力 行</w>
公 关
亲子 园</w>
一 步
la y
an y</w>
201 1.
2 200</w>
12 7</w>
通 畅</w>
选 题</w>
达 尔</w>
调研 员</w>
视 同仁</w>
痛 恨</w>
疏 远</w>
生 化</w>
漂 流</w>
汇 金</w>
横 空
横 扫</w>
杨秀 珠</w>
本 版</w>
服务 站</w>
摩 洛
损 耗</w>
官 方
大 漠</w>
和 谈</w>
分 店</w>
出版 物</w>
兽 医</w>
人 马</w>
中 社</w>
骚 乱</w>
题 卡</w>
霆 锋</w>
造 船厂</w>
身 体
荆 州</w>
聚 美
竭 力</w>
盗 用</w>
甜 甜</w>
焦 裕
火 场</w>
残 奥会</w>
杨 元庆</w>
普 尔</w>
无 虑</w>
摄 入量</w>
市 容</w>
巡 演</w>
售后 服务</w>
只 顾</w>
任重 道远</w>
任 人
代 史</w>
世界 性</w>
一 视同仁</w>
一 万
O E
9 3%</w>
19 万</w>
0 点</w>
过 夜</w>
起 色</w>
警 长</w>
袁 松龄</w>
药 价</w>
良 机</w>
章泽 天</w>
白 马
班 列</w>
热搜 榜</w>
火 器</w>
活 体</w>
本 职
昆 虫</w>
战 犯</w>
开 火</w>
平 平</w>
巨 款</w>
守 信</w>
威 胁
一 揽
k er</w>
e p</w>
193 9年</w>
风 电</w>
迷 路</w>
辅 食</w>
载 客</w>
识 字</w>
讨 论
观察 家</w>
蒂 固</w>
罗 拉</w>
王 嘉
洞 庭
果 真</w>
李自 成</w>
最 高峰</w>
星期 五</w>
摊 贩</w>
戛 纳</w>
得 当</w>
待 命</w>
平 昌</w>
岳 母</w>
小 屋</w>
始 建</w>
外 卖
叶 某</w>
剧 团</w>
八 千</w>
马 泮
食 药</w>
集 市</w>
陆 勇</w>
逆 向</w>
结核 病</w>
粟 裕</w>
皇 冠</w>
生 水
滋 润</w>
混 淆
海 信</w>
水 路</w>
梁 启超</w>
显示 器</w>
斯德 哥尔
摇 篮</w>
揣 测</w>
拳 击</w>
手 榴弹</w>
惨 败</w>
念 念
幸 免</w>
工 党</w>
安 放</w>
前 程</w>
先 机</w>
僵 持</w>
保 定市</w>
乡 政府</w>
下 水道</w>
f ir
I O
香 山</w>
雅 安</w>
铁 道</w>
遗 骸</w>
速 器</w>
竞 相</w>
礼 堂</w>
电 局</w>
瓜 分</w>
珍 视</w>
混 合
海 口市</w>
洋 洋</w>
根深 蒂固</w>
杜 某</w>
村 里人</w>
施 展</w>
救 国</w>
撼 动</w>
待 人</w>
季 节性</w>
妄 图</w>
反对 者</w>
占 款</w>
功 底</w>
办公 桌</w>
副 产品</w>
做 工</w>
保 底</w>
云 鹏</w>
ti me</w>
ch ang
M SCI</w>
K M</w>
鱼 塘</w>
陈鸿 志</w>
阿基 诺</w>
西 游</w>
称 谓</w>
社保 卡</w>
王 素
日本 队</w>
技术 性</w>
手 无
弗 洛
小 菲</w>
小 敏</w>
可 持续性</w>
化学 武器</w>
刘亦 菲</w>
冬 日</w>
克萨 斯</w>
儿 媳妇</w>
不 耐
不 买账</w>
z u
ub li
b r
W e</w>
F- 16</w>
2 300</w>
黑 手</w>
障 碍
陈 某
阵 亡</w>
长 文</w>
金 某</w>
采 访
采 编</w>
酌 情</w>
超 生</w>
赞 叹</w>
诗 句</w>
行 其
背 心</w>
肉 质</w>
耐 克</w>
而 就</w>
维也 纳</w>
经济 网</w>
珍 稀</w>
特种 部队</w>
特 鲁
满 洲
消 退</w>
比 不上</w>
枪 声</w>
无 心</w>
效 性</w>
德 国队</w>
张小 雷</w>
异 样</w>
对外 贸易</w>
坟 墓</w>
周 强</w>
吉 祥
刘国 梁</w>
出 彩</w>
内 置</w>
全 款</w>
停 顿</w>
住 行</w>
事 会</w>
书 网</w>
6. 9%</w>
200 4</w>
193 6年</w>
- 7</w>
高 高</w>
飞 翔</w>
金 币</w>
遵 从</w>
被 告
虫 子</w>
自由 泳</w>
腐 化</w>
综合 国力</w>
经 不起</w>
病 理</w>
狼 藉</w>
温 差</w>
易 居</w>
时 年</w>
政 要</w>
成 药</w>
怀 旧</w>
幼 泽</w>
平 顶
小 腿</w>
小 年</w>
安置 房</w>
地 基</w>
商 洛</w>
参 赛
南 国</w>
华 兴</w>
北 汽</w>
化 工厂</w>
前 人</w>
切 入点</w>
几内 亚</w>
停车 费</w>
介 于</w>
中 低端</w>
一揽 子</w>
ar s</w>
S DR</w>
17 5</w>
静静 地</w>
铺 垫</w>
部 曲</w>
退 让</w>
磨 合</w>
盛 开</w>
白云 区</w>
白 手
瓦 斯</w>
球 门</w>
玻 利
熔 断</w>
满 月</w>
日 新月
政治 性</w>
攫 取</w>
扫 黄
心 机</w>
张 开</w>
履 新</w>
参 差
南 疆</w>
前 日</w>
出 借</w>
准确 率</w>
交叉 口</w>
争夺 战</w>
东北 亚</w>
丑 陋</w>
一 蹴
b n
1 4年</w>
鼓 楼</w>
饲 养
雄 心</w>
院 区</w>
轻 轨</w>
身 受</w>
蚌 埠</w>
精 深</w>
粉 尘</w>
理 发</w>
猎 人</w>
清 气</w>
明 示</w>
戈 壁</w>
得 手</w>
局 限性</w>
如 是说</w>
天蝎 座</w>
吸 附</w>
午 间</w>
北 漂</w>
力 而
农 机</w>
全 人类</w>
信 人</w>
作 则</w>
传 球</w>
价 率</w>
两 旁</w>
CC TV</w>
C V
8 7.
1. 6%</w>
足 坛</w>
获 奖者</w>
病 态</w>
瓦 尔
珊 珊</w>
渭 南市</w>
暴 躁</w>
按 键</w>
懿 传</w>
巨 浪</w>
小 弟</w>
妻 儿</w>
划 拨</w>
公 序</w>
先 期</w>
何 去
伤 疤</w>
优 待</w>
以身 作则</w>
五花 肉</w>
一无 所有</w>
P L
CO O</w>
9 0亿</w>
3 30</w>
衡 阳市</w>
薄 膜</w>
萌 生</w>
草 木</w>
老 实人</w>
绿 化
白 条</w>
痛 快</w>
男 足</w>
用 法</w>
王 儒林</w>
普 及
日新月 异</w>
政 改</w>
感 同
当其 冲</w>
大 方向</w>
周小 川</w>
卫 兵</w>
半壁 江山</w>
北 上
刘 家
冷 暖</w>
佩 克</w>
交 火</w>
五 六十</w>
lin e</w>
F O
13 2</w>
默默无 闻</w>
逐 利</w>
西 昌</w>
营 销
脂肪 酸</w>
背 道而
联 席</w>
考 察
牧 场</w>
流 动
洗手 间</w>
水利 工程</w>
步行 街</w>
横空 出世</w>
林 肯</w>
支 线</w>
抢劫 罪</w>
抗美 援朝</w>
惧 怕</w>
多 渠道</w>
复 读</w>
处 事</w>
塘 镇</w>
同 伙</w>
吉 他</w>
双 臂</w>
功 耗</w>
利 落</w>
om e
T im
9 4%</w>
香 气</w>
还 价</w>
诉 诸</w>
诅 咒</w>
祈 福</w>
概 股</w>
教 父</w>
据 点</w>
挺 进</w>
必 需品</w>
张 张</w>
安全 帽</w>
合法 化</w>
动 力
何去 何
以 至</w>
代表 队</w>
东 经</w>
一边 倒</w>
一蹴 而就</w>
8. 5</w>
3 3亿</w>
1. 6万</w>
黑 板</w>
黄 渤</w>
首 当其冲</w>
饭 馆</w>
钞 车</w>
连 片</w>
谋 私</w>
舟 子</w>
自然 环境</w>
缉 捕</w>
省 道</w>
监管 者</w>
生水 起</w>
狙 击</w>
核 弹头</w>
无 悔</w>
指 导员</w>
总 医院</w>
当 网</w>
张 明
宿舍 楼</w>
姐 夫</w>
央 广网</w>
大 卫
墙 体</w>
别 提</w>
共 存</w>
依 依</w>
人 才
主 战</w>
log o</w>
S H</w>
高 远</w>
香 村</w>
陈 宝
里 约
越 野</w>
赌 球</w>
腾 讯
肝 炎</w>
聚美 优品</w>
甘 薇</w>
狂 欢
牛 仔</w>
热 捧</w>
格 格</w>
林 木</w>
普 拉
抵 抗力</w>
宣 泄</w>
场 内</w>
圈 粉</w>
商 榷</w>
唐 诗</w>
启 迪</w>
前 端</w>
则 性</w>
出 入口</w>
偷 渡</w>
何去何 从</w>
仪仗 队</w>
丽 华</w>
an s</w>
M u
M V</w>
8 7%</w>
. gov
难 事</w>
隐私 权</w>
随 性</w>
资产 负债率</w>
蜀 黍</w>
背道而 驰</w>
而 下</w>
群 山</w>
细 胞
紧 急
积极 向上</w>
朱 一龙</w>
挽 留</w>
投 诉
承 揽</w>
批 文</w>
怨 恨</w>
床 单</w>
平 区</w>
太 极
商业 性</w>
劳动 模范</w>
价格 战</w>
人 情
二 十几</w>
中 老年人</w>
一 连</w>
一 波
l y
8 1%</w>
雷 神</w>
返 利</w>
说 谎</w>
记忆 犹
胡 塞</w>
羽毛 球</w>
系统 工程</w>
穿 透</w>
监察 委</w>
病 因</w>
玫 瑰
氮 氧化物</w>
正 名</w>
松 下</w>
曼哈 顿</w>
换 人</w>
拉 面</w>
手 掌</w>
审 结</w>
婚 纱</w>
大 起
埃 里
周 迅</w>
受贿 案</w>
别 化</w>
元 老</w>
vi a</w>
p ri
避 让</w>
说 辞</w>
盟 军</w>
男 婴</w>
溪 镇</w>
李 宏
李 一
本 土
服 气</w>
普遍 性</w>
明 火</w>
无 名
文 书网</w>
扫黄 打非</w>
战 败</w>
志 玲</w>
张艺 谋</w>
尘 肺</w>
头 颅</w>
国 航</w>
回 望</w>
名 目</w>
合 规
可 否</w>
卢 某</w>
出境 游</w>
俄 军</w>
传 单</w>
二 连
义 市</w>
T R
B2 B</w>
0. 8%</w>
0 6日</w>
高 呼</w>
风 生水起</w>
雨 桐</w>
起 哄</w>
诱 饵</w>
裁 判
续 期</w>
筹 措</w>
第 16</w>
秀 场</w>
皮 鞋</w>
热 身</w>
洛 克
法兰克 福</w>
此 起
李易 峰</w>
救 火</w>
摘 编</w>
抚 慰</w>
扣 缴</w>
户 数</w>
总 司令</w>
富 足</w>
好 戏</w>
堰 塞湖</w>
吴 英</w>
制 导</w>
丽 丽</w>
专题 片</w>
192 9年</w>
详 尽</w>
解 说
补 习班</w>
致 癌
联 储</w>
空置 率</w>
灾 难
洗 脑</w>
永 平</w>
此起 彼
本职 工作</w>
显 出</w>
无 误</w>
无 形
新 动能</w>
敲诈勒索 罪</w>
总 支</w>
归 属
库 房</w>
尽 职</w>
小 牛</w>
及 时性</w>
乡 县</w>
一席 之地</w>
ne t</w>
k i</w>
TV B</w>
顾 忌</w>
院 落</w>
重 担</w>
速 记</w>
退 伍
行 骗</w>
蜡 烛</w>
药 用</w>
自然 界</w>
红 书</w>
痊 愈</w>
照 搬</w>
深 水区</w>
林 芝</w>
杠 铃</w>
文 稿</w>
操 守</w>
情 话</w>
悬 浮</w>
徇私 枉法</w>
张 小平</w>
工 商户</w>
尾 号</w>
家 常</w>
家 国</w>
卧 撑</w>
加利福 尼亚州</w>
判 罚</w>
分 段</w>
内 侧</w>
伙 食</w>
12 9</w>
- 31</w>
风 扇</w>
遵 照</w>
较 真</w>
贸 然</w>
谋 利</w>
记忆犹 新</w>
色 系</w>
色 泽</w>
王 强</w>
水果 刀</w>
欧 佩克</w>
松 弛</w>
杨 伟
无 害
斥 责</w>
惠 普</w>
庄 稼</w>
多 云
台 商</w>
乱 污</w>
中 线</w>
严 跃进</w>
or t</w>
I F</w>
A W
A 2</w>
黑 熊</w>
铸 造</w>
运 费</w>
车 流量</w>
药 师</w>
红 场</w>
相 逢</w>
甘 情愿</w>
烈士 陵园</w>
毒 药</w>
更 替</w>
教 研
政治 委员</w>
排 挤</w>
持 仓</w>
建筑 业</w>
就 业率</w>
富 民</w>
墙 角</w>
呦 呦</w>
刘贵 夺</w>
公 用</w>
两 性</w>
H 5</w>
G S
运 钞车</w>
边 球</w>
网 红
纳瓦 罗</w>
私 家</w>
离 退休</w>
满 族</w>
林雪 川</w>
杜 鹃</w>
星 州</w>
日 复
摩根士 丹利</w>
帅 哥</w>
宋 喆</w>
发 指</w>
五四 运动</w>
S n
R a
- Fi</w>
驻 军</w>
递 减</w>
资本 家</w>
褚 时
药 神</w>
统 领</w>
租 购</w>
清 凉</w>
法拉 利</w>
毕业 证</w>
机 舱</w>
放 款</w>
接 力
探 矿权</w>
拌 匀</w>
抵 挡</w>
承 建</w>
承 压</w>
成 片</w>
惩 罚
心 甘情愿</w>
心 境</w>
安 葬</w>
学 府</w>
名 次</w>
元 气</w>
信 教</w>
上 马</w>
5 9%</w>
3 8万</w>
200 3</w>
黄金 时代</w>
陆 上</w>
避 暑</w>
谢 绝</w>
读 物</w>
褚时 健</w>
致 远</w>
眼 液</w>
皇 宫</w>
理事 国</w>
然 性</w>
武 士</w>
李 长
扬 州市</w>
强 悍</w>
弄 清</w>
应 变</w>
干 劲</w>
宣 战</w>
宜 人</w>
官 商</w>
委托 人</w>
多 方面</w>
士 队</w>
噪 声</w>
别 样</w>
充 电器</w>
乡 里</w>
乌 龙</w>
七 号</w>
ti c</w>
RE IT
Davi d</w>
C ha
鲁 山县</w>
阿 斯
长 白山</w>
郭 永
遗 漏</w>
蹲 守</w>
走 险</w>
贬 低</w>
账 目</w>
裸 体</w>
融 为
苏 尔</w>
色 色</w>
纠 葛</w>
神经 系统</w>
涣 散</w>
沃尔 沃</w>
支 队长</w>
提 价</w>
持 卡人</w>
心 语</w>
归 原作者</w>
少 林</w>
大 爱</w>
大 明</w>
堆 满</w>
后 院</w>
可 可
及 早</w>
加 倍</w>
到头 来</w>
分 居</w>
先 锋
余 下</w>
人 帮</w>
乔治 ·
丑 化</w>
万 象</w>
x u
j u</w>
g r
U n
A 4</w>
16 0亿</w>
遗 物</w>
边 框</w>
赋 能</w>
讨 价
视 界</w>
莹 莹</w>
花 海</w>
节 水</w>
脑 部</w>
网 曝</w>
清 空</w>
此起彼 伏</w>
槟 榔</w>
日复 一日</w>
扫 雷</w>
彼得 ·
对话 会</w>
宝 藏</w>
售 假</w>
变速 箱</w>
光 阴</w>
做 主</w>
俄 媒</w>
侵 案</w>
辅 导
贴 身</w>
货 源</w>
该 机</w>
讯 息</w>
西 域</w>
莫 大</w>
种 植
甜 头</w>
猕 猴
煤 业</w>
流 星</w>
洪 流</w>
河 谷</w>
氢 弹</w>
朝 中社</w>
收益 型</w>
摆 设</w>
承租 人</w>
情报 局</w>
开 奖</w>
山 州</w>
存 亡</w>
奇 观</w>
大 路</w>
壮 烈</w>
坐 镇</w>
囤 积</w>
四 人帮</w>
四 中</w>
单 项</w>
势 在必
内政 部</w>
兴 盛</w>
入 网</w>
先 河</w>
人 类
世 平</w>
i m</w>
g er</w>
ec onom
S IM</w>
8 9.
靠 拢</w>
钱 币</w>
金牛 座</w>
邑 县</w>
遥遥 领先</w>
运动 鞋</w>
言 之
西门 子</w>
袁 世凯</w>
药 厂</w>
航天 器</w>
纸 尿
管理 学</w>
稍 稍</w>
稍 后</w>
激 光
河 长</w>
水 系</w>
村 口</w>
本 加
方 丈</w>
斯德哥尔 摩</w>
断 言</w>
搬 进</w>
接 踵
惯 用</w>
微 量
对 联</w>
宾 客</w>
安 检
复 利</w>
回 笼</w>
原 则性</w>
华 区</w>
凶 器</w>
保守 派</w>
以 西</w>
亟 需</w>
l d
d ge</w>
3 2亿</w>
2. 6
14 6</w>
野 战
观 摩</w>
西伯 利亚</w>
花 式</w>
肥 料</w>
老 刘</w>
维 新</w>
第 17</w>
竭尽 全力</w>
真 真</w>
田 地</w>
流 下</w>
法 警</w>
治 水</w>
毛 利</w>
梯 田</w>
朗 读</w>
摩托 罗拉</w>
拼 接</w>
志 刚</w>
形 同
幻 觉</w>
宣传 部长</w>
娱乐 化</w>
周 密</w>
北 师大</w>
分 值</w>
克 隆</w>
侧 翻</w>
二 孩</w>
中 枢</w>
鲜 生</w>
领 奖
零 花钱</w>
门 面</w>
银 监局</w>
金马 奖</w>
邓 某</w>
论 语</w>
讨价 还价</w>
粤 语</w>
留 置</w>
焦 虑
点 子</w>
游击 队</w>
港 通</w>
浩 然</w>
泽 平</w>
水 务局</w>
曲 解</w>
收 藏
感 想</w>
弹 一
失 恋</w>
失 常</w>
大 葱</w>
大 四</w>
处 世</w>
国 界</w>
变 本加
争 霸</w>
中 成药</w>
中 产
一代 代</w>
一 见
lob al</w>
Grou p</w>
A B</w>
200 4.
采 购
通 市</w>
贝 壳</w>
谨 防</w>
表 弟</w>
蔡 某</w>
统 称</w>
礼 服</w>
白 洋
水 晶
比尔· 盖茨</w>
批 改</w>
对 岸</w>
国 网</w>
压 倒</w>
卵 子</w>
刷 爆</w>
促进 会</w>
估 量</w>
乔 治</w>
中 资</w>
不见 得</w>
REIT s</w>
3 1亿</w>
0 8日</w>
钢 管</w>
迷 离</w>
贯 之</w>
财政 厅</w>
色 素</w>
自 查
网 秦</w>
紧 要</w>
直 通车</w>
百 合</w>
特 级</w>
清 廉</w>
晚 点</w>
昆 山市</w>
拉 夫
成 章</w>
感同 身受</w>
安 琪</w>
奶 酪</w>
合 乎</w>
吃 力</w>
可 耻</w>
变本加 厉</w>
区 级</w>
件 件</w>
主 妇</w>
cl e
c a
Univers ity</w>
3 6亿</w>
1. 3%</w>
0. 7</w>
马泮 艳</w>
雇 用</w>
锛 屽</w>
退 费</w>
达 赖</w>
该 处</w>
脱 逃</w>
编 导</w>
粘 贴</w>
相 成</w>
王 府
涨 停板</w>
汕 头市</w>
水 漂</w>
杨 家
昵 称</w>
新 文化</w>
探 头</w>
戴 某</w>
微 薄</w>
少 女
小 兵</w>
寒 门</w>
墓 葬</w>
哭 声</w>
利 害</w>
刘 备</w>
凝 结</w>
休 闲
不 离
不 快</w>
上 期</w>
j ing</w>
in a</w>
c u
P ay</w>
B O
193 1年</w>
0. 7%</w>
鸦 片</w>
魔 术</w>
阿 姆
锻 造</w>
鄱 阳湖</w>
起 始</w>
贿 选</w>
订阅 号</w>
王 明
物 料</w>
深 色</w>
此 访</w>
明尼苏 达</w>
拒 收</w>
师范 生</w>
工作 站</w>
婚外 情</w>
国 策</w>
刘 涛</w>
切 实际</w>
冶 金</w>
冬 至</w>
光明 网</w>
信用 社</w>
以 贯之</w>
下 药</w>
一 天天</w>
一 以贯之</w>
C TO</w>
1. 3亿</w>
非 保本</w>
阴 暗</w>
资 阳</w>
试 用
西 里</w>
荣 誉
茶 馆</w>
稻 香村</w>
爬 山</w>
检 疫
望 而
晓 彤</w>
无 害</w>
操 办</w>
撤 诉</w>
摩洛 哥</w>
掏 空</w>
征 途</w>
岳 飞</w>
家 乐
守 卫</w>
子 村</w>
增 援</w>
咬 牙</w>
古 朴</w>
单 月</w>
其 时</w>
产 经</w>
乎 其
两 弹一
三 分
hu an
b le</w>
E m
200 2</w>
193 4年</w>
韩 国队</w>
面 谈</w>
防 疫</w>
邮 电</w>
耳 边</w>
竹 子</w>
湖 人</w>
消 化
李 伟</w>
恩 怨</w>
形同 虚设</w>
巴 西
射 手
回 调</w>
吞吐 量</w>
台 账</w>
单 亲</w>
千 米</w>
伸 展</w>
不容 乐观</w>
不 失
3 7亿</w>
领 空</w>
预 算
铝 业</w>
重 阳</w>
都江 堰</w>
违 者</w>
足 球场</w>
警 务
表 姐</w>
育 种</w>
肮 脏</w>
维 密</w>
经济 特区</w>
经 国</w>
第 21</w>
爱 立信</w>
淄 博</w>
擦 边球</w>
截 访</w>
想 见</w>
情 趣</w>
密 歇
容 貌</w>
宫 殿</w>
宝 安</w>
学习 者</w>
奢 靡</w>
太 后</w>
塔 吉
土 方</w>
加 尔</w>
党 务</w>
任 意
仙 境</w>
书 信</w>
中 建</w>
f re
Tou ch</w>
7 0年</w>
5 20</w>
3. 5万</w>
25 00万</w>
1 号</w>
面 上</w>
购 置
蒸 汽</w>
自 力更
自力更 生</w>
电 讯
玩 弄</w>
消 亡</w>
浦 发</w>
明 报</w>
日 用品</w>
散 乱污</w>
手 可
意 气
恩 斯</w>
取 义</w>
反 动</w>
供 货
事 者</w>
中 度</w>
三里 屯</w>
S hi
14 4</w>
12 6</w>
- 16</w>
铤 而
钦 佩</w>
针 织
豆 芽</w>
解 冻</w>
茫 然</w>
网 事</w>
红 领
空 壳</w>
硝 烟</w>
猩 猩</w>
牲 畜</w>
津津 乐道</w>
泡 沫
沐 浴</w>
正 月</w>
普吉 岛</w>
摩 天
慑 力</w>
思想 家</w>
得 体</w>
形 色色</w>
宝 洁</w>
反 攻</w>
华 商报</w>
兴 旺</w>
侵 袭</w>
代 际</w>
丽 萍</w>
东 家</w>
on s</w>
mar k
g ra
1 30万</w>
0 3
鸟 巢</w>
遵 纪
逆 境</w>
财 长</w>
菲 尔德</w>
荷 花</w>
苗 头</w>
花 篮</w>
结 算
突 袭</w>
福 田
激 战</w>
清 零</w>
海 事
注 资</w>
条 纹</w>
支 票</w>
支 点</w>
忍 心</w>
太 坊</w>
卸 载</w>
刘 玉
出乎 意料</w>
俯 卧撑</w>
侠 客</w>
主 审</w>
p ar
Ne w</w>
7. 5%</w>
00- 17</w>
鼎 鼎</w>
顺 产</w>
陆 家
还 击</w>
身 患</w>
调 和</w>
蓝 皮书</w>
自 传</w>
考 题</w>
纽 交所</w>
粮 油</w>
策 略
治 标</w>
欧 洲杯</w>
楚 楚</w>
明 令</w>
时 政</w>
无害 化</w>
无 业</w>
攻击 性</w>
撑 腰</w>
拜 托</w>
执法 者</w>
心 有
当 当网</w>
建 民</w>
多 多
夏 令营</w>
复 盘</w>
墨尔 本</w>
咽 喉</w>
加 杠杆</w>
冷 清</w>
具 特色</w>
使用 率</w>
会 商</w>
享 用</w>
下 跪</w>
下 肢</w>
E S</w>
8 9%</w>
15 8</w>
飞 来</w>
账 本</w>
行 医</w>
羊 城</w>
省 里</w>
液 化</w>
泉 州市</w>
毒 案</w>
棍 子</w>
格 尔
拖拉 机</w>
恰 到
小 号</w>
寥 寥
告 破</w>
南 充</w>
便 饭</w>
乞 丐</w>
中 西</w>
p .
j o
en e
70 后</w>
高 估</w>
韩 某</w>
非 公开</w>
雄 性</w>
镇 痛</w>
铤而 走险</w>
金 主</w>
进 修</w>
负责 制</w>
试 问</w>
石 景
睁 睁</w>
特 困</w>
法 务</w>
村 长</w>
料 到</w>
恶 果</w>
恰到 好处</w>
心 里
循 环
婚 宴</w>
奥 尼尔</w>
天 秤
夜 空</w>
后备 箱</w>
取 经</w>
华 强</w>
制 式</w>
公 会</w>
便 便</w>
不 无
不 切实际</w>
一 块
F- 22</w>
F ace</w>
300 0亿</w>
黄 石</w>
闺 女</w>
郑俊 怀</w>
裂 变</w>
袁 某</w>
行贿 罪</w>
荒 野</w>
翻 拍</w>
稿 酬</w>
神 坛</w>
眼 睁睁</w>
申 诉人</w>
生 存
瑞 安</w>
炮 火</w>
泰 晤
来 宾</w>
李 笑</w>
机 能</w>
斯 堡</w>
救 赎</w>
戏 份</w>
形 形色色</w>
左 翼</w>
工 夫</w>
宾 市</w>
奏 效</w>
周 口市</w>
吉 尔</w>
双 眼皮</w>
十 分之一</w>
劳 斯
公 馆</w>
使用 费</w>
七 里
D D
CC TV
B ook</w>
7 2.
12 8
0 5日</w>
驱 离</w>
陈 永
阳 路</w>
阳 明</w>
长 年</w>
透 气</w>
评 比</w>
素 季</w>
空 洞</w>
秒 杀</w>
砂 石</w>
看 点</w>
相 辅
江 泽民</w>
水 生</w>
毛 振华</w>
新 婚</w>
折 算</w>
我 会</w>
引 得</w>
定 者</w>
史 实</w>
变 色</w>
压 低</w>
厄 瓜
印 第
劳动 生产率</w>
冰 雹</w>
信息 网</w>
二 中</w>
举世 瞩目</w>
不 由</w>
T u
F ar
6 9%</w>
黑 天鹅</w>
驾驶 舱</w>
风 险
领头 羊</w>
降 解</w>
重 头
适应 性</w>
跟 帖</w>
自查 自
老 先生</w>
紧 凑</w>
狗肉 节</w>
流 亡</w>
法律 界</w>
杨 栋梁</w>
明 目
成 家</w>
急 功
微量 元素</w>
套 利</w>
墨西 哥
副 职</w>
乌兹别 克斯坦</w>
个 半</w>
M c
M B</w>
12 1</w>
高 能</w>
风 行</w>
隔 阂</w>
重 力</w>
赵 宇</w>
赌 资</w>
误 读</w>
葫 芦</w>
菠 菜</w>
获 释</w>
耀 邦</w>
纪 实</w>
空 饷</w>
盘 旋</w>
益 阳</w>
球 衣</w>
牌 匾</w>
烦 躁</w>
法 令</w>
松 松</w>
有 声</w>
推 动者</w>
小说 家</w>
小卖 部</w>
外 务省</w>
处 警</w>
圣 人</w>
商 誉</w>
哈 维</w>
刷 卡</w>
养 分</w>
倾 覆</w>
五 点</w>
五 彩
于 求</w>
一 惊</w>
xj b
赫 尔
议 价</w>
蓝 筹</w>
菏 泽</w>
股份 公司</w>
聊 天
继 伟</w>
盈 余</w>
理财 师</w>
海 浪</w>
此 生</w>
止 境</w>
棋 手</w>
未 知
拐 杖</w>
悔 改</w>
急功 近
张 明</w>
建筑 师</w>
巴 铁</w>
定 型</w>
大 水</w>
在 岗</w>
土耳 其
古 装
净 土</w>
偏 执</w>
保 湿</w>
佼 者</w>
佼 佼者</w>
伟 达</w>
临 界点</w>
l and</w>
B ay</w>
3. 1</w>
14 5</w>
. or
齐 齐
鸿 沟</w>
香 料</w>
闪 亮</w>
长 篇小说</w>
邂 逅</w>
透 视</w>
责 怪</w>
西 边</w>
西 汉</w>
融为 一体</w>
蜜 蜂</w>
自 始至终</w>
罗马 尼亚</w>
端 午
相 恋</w>
氨基 酸</w>
推 广
控 烟</w>
慌 张</w>
张继 科</w>
并 肩</w>
差 别化</w>
奥 数</w>
嘀 嗒</w>
刺 鼻</w>
公 允</w>
光 影</w>
信 源</w>
保险 金</w>
二 类</w>
九 州</w>
不耐 烦</w>
上 手</w>
三 中</w>
一 阵子</w>
ai l</w>
O L</w>
18 4
颈 椎</w>
音乐 节</w>
长 袖</w>
逢 年
返 航</w>
轮 值</w>
跟 前</w>
警 民</w>
范 式</w>
花 旗</w>
育 龄</w>
聘 任</w>
纳 州</w>
竞 标</w>
立 交
石 窟</w>
白手 起家</w>
癌 药</w>
疏 松</w>
瓦 时</w>
火 机</w>
洱 海</w>
河 西</w>
此 间</w>
档 期</w>
断 定</w>
招待 会</w>
心 力</w>
张 旭
寿 县</w>
妥 当</w>
夜 店</w>
国 贸</w>
团 干部</w>
可 信度</w>
加 点</w>
交 战</w>
亚 于</w>
举 足轻重</w>
丽 娜</w>
七 八十</w>
遵纪 守法</w>
请 客</w>
秘书 处</w>
禀 赋</w>
白洋 淀</w>
理 说</w>
注 视</w>
沉 稳</w>
江 边</w>
新 气象</w>
换 算</w>
投 递</w>
恰 巧</w>
志 伟</w>
床 头</w>
妖 魔
壮 志</w>
增 高</w>
囚 犯</w>
单 向</w>
千 里
劳动 密集型</w>
冷 门</w>
兰 ·
优 信</w>
人 听闻</w>
交 汇</w>
中 环</w>
与 世
。 王</w>
i on</w>
em ent</w>
T ra
Micha el</w>
20 1</w>
雷 雨</w>
闪 闪</w>
酵 母</w>
配 文</w>
连 长</w>
轮 换</w>
赎 回</w>
血 症</w>
绅 士</w>
痴 呆</w>
琐 碎</w>
现 场
王 天
烧 饼</w>
演 者</w>
永 福</w>
殊 荣</w>
杰 夫</w>
普林 斯顿</w>
明 治</w>
明 了</w>
无人 区</w>
施 暴
报告 期</w>
悠 闲</w>
志 向</w>
彭 某</w>
弱 小</w>
张 斌</w>
对 流</w>
失 责</w>
大 权</w>
大 政
圣 经</w>
图 景</w>
卜 杜
其 妻</w>
作 主</w>
中 雨</w>
wor ld</w>
PU A</w>
50 -
1. 4亿</w>
香 水</w>
顶 住</w>
运营 者</w>
辅 料</w>
行政 区划</w>
荧 屏</w>
结 伴</w>
精 益
米 /秒</w>
算 计</w>
第 二十</w>
端 倪</w>
直 言不
白 马</w>
生产 方式</w>
献 身</w>
牺 牲
物 权</w>
熊 猫
湘 江</w>
湖 面</w>
气 化</w>
急功近 利</w>
广告 法</w>
并 论</w>
学 年</w>
姜 片</w>
姆林 宫</w>
大 厂</w>
切 忌</w>
养 猪</w>
兴 华</w>
党纪 政纪</w>
像 样</w>
候 车</w>
作 品
余 某</w>
亮 眼</w>
中 游</w>
中 概股</w>
三 日</w>
一 二
velop ment</w>
MH 17</w>
194 0年</w>
1- 3</w>
顶 多</w>
零 钱</w>
要 命</w>
纯 真</w>
精 气
稀 奇</w>
短 发</w>
猛 增</w>
照 常</w>
洗 手</w>
水 印</w>
欠 条</w>
材 料
暴 徒</w>
接 地</w>
惩罚 性</w>
弗 兰
基本 功</w>
地产 商</w>
合作 方</w>
单 打</w>
军 售</w>
专 政</w>
35 分</w>
频 现</w>
雪 球</w>
陪 审团</w>
试用 期</w>
血 缘</w>
虔 诚</w>
紧急 状态</w>
等 化</w>
电视 电话会议</w>
生 还</w>
栖 息</w>
柔 和</w>
有 加</w>
无 从
新 作</w>
挤 满</w>
按 摩
手 感</w>
尼克 松</w>
大 陆
塔 斯
哄 抬</w>
历 者</w>
准 许</w>
冲 天</w>
仓 促</w>
不足 道</w>
下 雪</w>
18 8</w>
18 5
13 4</w>
1 6年</w>
顺 德
青 城</w>
车 手</w>
要 约</w>
红领 巾</w>
疲 倦</w>
点 点
汉 良</w>
民政 厅</w>
新 县</w>
敌 后</w>
报 导</w>
张 胆</w>
弗 雷
少 华</w>
奉 劝</w>
大 落</w>
吉尔 吉
古 今</w>
印 刷
关 节
偶 像
值 守</w>
伊 利
京 东方</w>
z z
ti m
C hi
: 0</w>
防卫 省</w>
迷 你</w>
落 空</w>
纹 身</w>
第 22</w>
窃 听</w>
知 己</w>
直言不 讳</w>
盐 城市</w>
益 阳市</w>
用 料</w>
消 散</w>
河 里</w>
桥 段</w>
桑 德斯</w>
攻 破</w>
推 脱</w>
指 认</w>
忍 耐</w>
平 坦</w>
小 军</w>
墨 镜</w>
告 白</w>
同 城</w>
台 县</w>
厌 倦</w>
南 北
刁 难</w>
乳 制品</w>
乔 丹</w>
中 资企业</w>
中 恒</w>
两弹一 星</w>
12 .</w>
10 4.
高 产</w>
馅 饼</w>
预 防
降 雨量</w>
长 足</w>
误 导性</w>
该 所</w>
经 销</w>
红 毯</w>
红 旗
盈 亏</w>
皱 纹</w>
生 娃</w>
未 婚
无 中生
打 针</w>
工艺 品</w>
工 具
套 用</w>
在 校生</w>
南 海
刺 激
出 息</w>
凯 特</w>
之 力</w>
不 合
一 方</w>
5 5亿</w>
鲍 威尔</w>
降 水量</w>
锣 密
锣密 鼓</w>
连 通</w>
英 模</w>
缔 结</w>
纪念 品</w>
紧 锣密鼓</w>
神 华</w>
王 忠
焦裕 禄</w>
烟 火</w>
淳 朴</w>
李 欢</w>
思 义</w>
张 朝阳</w>
山 峰</w>
存 折</w>
嫂 子</w>
取 舍</w>
候 任</w>
令人 发指</w>
三 部曲</w>
wor k</w>
SO HO</w>
6 s</w>
3 4亿</w>
192 7年</w>
1. 8%</w>
颓 势</w>
顺 手</w>
酿 酒</w>
逢年 过节</w>
西 北
美 貌</w>
罐 车</w>
端午 节</w>
章 节</w>
王 梦
火 火</w>
活 跃
活 生生</w>
活 期</w>
洛 因</w>
洁 净</w>
桥 面</w>
架 桥</w>
来 龙
明目 张胆</w>
无中生 有</w>
弗 朗
开 张</w>
常 客</w>
大 卫</w>
后 座</w>
列宁 主义</w>
分 部</w>
凌 云</w>
作 秀</w>
t t</w>
f u
B ar
A B
4 6亿</w>
2 1万</w>
重 工业</w>
辐 射
质 地</w>
芬 ·
腾 出</w>
美 颜</w>
秋 莲</w>
离婚 率</w>
磁 场</w>
相辅 相成</w>
相 貌</w>
王 德
煤 气</w>
深 意</w>
淋 漓</w>
浓 烈</w>
波澜 壮阔</w>
栗 战书</w>
星 辰</w>
收 银
怪 异</w>
工程 学院</w>
定 心丸</w>
嘴 角</w>
发行 量</w>
剧 目</w>
农 贸市场</w>
共 和</w>
乐 业</w>
一 千
b ps</w>
199 5.
青 铜</w>
门 类</w>
金 黄色</w>
遇 害案</w>
近 似</w>
电 筒</w>
版权 局</w>
烙 印</w>
湖 市</w>
洁 瑛</w>
汉 人</w>
每 张</w>
案 人</w>
桃 源</w>
抢 先</w>
房 市</w>
当 红</w>
巷 子</w>
居民 区</w>
四 五十</w>
喜 马拉
号 召力</w>
发 源地</w>
发 呆</w>
卫生 巾</w>
前 场</w>
刺 绣</w>
切 记</w>
出 货</w>
出 乎</w>
全 家
催 化剂</w>
保 税</w>
住建 委</w>
M BA</w>
LO GO</w>
7. 0</w>
5 50</w>
18 2</w>
阿 坝
道 歉信</w>
装甲 车</w>
行 不通</w>
舍 弃</w>
自 卫
紧 邻</w>
相 提
盐 水</w>
珍珠 港</w>
期 许</w>
有 形</w>
更 新
推 选</w>
抵 债</w>
托 运</w>
手 稿</w>
慰 问
康 市</w>
工 龄</w>
导 语</w>
家 家
夜 色</w>
听 课</w>
史密 斯</w>
史 文
动 弹</w>
刘立 荣</w>
先 天性</w>
以为 常</w>
乎 乎</w>
主席 团</w>
不 甘
不 出
b et
M or
M in
鼎 盛</w>
预 选赛</w>
通行 费</w>
透 彻</w>
过 不去</w>
轴 距</w>
购物 卡</w>
诬 陷</w>
视 镜</w>
芝 麻
自查自 纠</w>
群 体性</w>
精 日</w>
相提 并论</w>
王 振
熏 陶</w>
温 饱</w>
此 时
朱 明
指 头</w>
招聘 会</w>
承 兑</w>
打 底
庆 安</w>
小 周</w>
地 化</w>
园 内</w>
四 千</w>
名列 前茅</w>
刘 诗
刘 延
军 分区</w>
公 婆</w>
住 建</w>
人 者</w>
严 肃
不 怕
i st
TH E</w>
6 5亿</w>
25 6
200 1</w>
2. 8</w>
静 谧</w>
针 锋
跌 破</w>
购 汇</w>
网络 化</w>
纸尿 裤</w>
种族 主义</w>
监 理</w>
电 波</w>
气 血</w>
毛 发</w>
比 拟</w>
核 能</w>
择 偶</w>
拉 黑</w>
微 不足道</w>
尘 埃</w>
小 圈子</w>
实 用性</w>
学 识</w>
媒体 人</w>
大 炮</w>
叶 剑英</w>
发布 者</w>
反 向</w>
光 年</w>
交 管局</w>
交 朋友</w>
九 龙</w>
不 衰</w>
Re search</w>
N at
G ra
3 9亿</w>
黄 奇
零 售价</w>
隆 ·
豪 感</w>
请 愿</w>
莫 言</w>
缺 水</w>
班 纳</w>
洞庭 湖</w>
汽 车站</w>
易 购</w>
斯 洛
拍 拍
感 谢
开 来</w>
布 兰
寡 头</w>
商 丘</w>
咪 蒙</w>
变 脸</w>
人 贩子</w>
东 森</w>
ay s</w>
amp ;
K PI</w>
1. 2%</w>
领 地</w>
雨 花
货 船</w>
补 丁</w>
衣食 父母</w>
稻 谷</w>
痛 风</w>
由 来</w>
王 珉</w>
溢 价率</w>
淮 河</w>
海 岸线</w>
杨 永信</w>
未 免</w>
无私 奉献</w>
整 齐
提 琴</w>
报告 书</w>
打 火机</w>
山 车</w>
屠 宰
展 示
天 河区</w>
大吃 一惊</w>
夏 普</w>
地 质
圣 彼得
后 盾</w>
受 力</w>
功 力</w>
列车 长</w>
关 岛</w>
做 文章</w>
作 恶</w>
以 求</w>
七 日</w>
w if
ti n</w>
amp; amp;
D J</w>
黄 牌</w>
颠 簸</w>
险 资</w>
针锋 相对</w>
遍 野</w>
见 血</w>
表 象</w>
老 老
精 准
积 聚</w>
畜 禽</w>
狱 警</w>
爱 美</w>
毁 灭
桂 花</w>
本 位</w>
摩 苏尔</w>
接 二连
报 复性</w>
德 云
强 强</w>
声 响</w>
声 势</w>
半 球</w>
劳斯 莱斯</w>
全 媒体</w>
低 效</w>
习 以为常</w>
。 受访者</w>
w ay</w>
no w</w>
S E
M C
9 11</w>
青 椒</w>
阿 司
连 接
软 组织</w>
药 性</w>
自 豪感</w>
自 知</w>
脊 髓</w>
肩 部</w>
空 虚</w>
秘 方</w>
磨 灭</w>
白 石</w>
王 力军</w>
狮 子座</w>
海 洛因</w>
汹 汹</w>
摊 子</w>
推 敲</w>
接二连 三</w>
报告 会</w>
怒 怼</w>
德 勒</w>
尔 市</w>
家常 便饭</w>
字 迹</w>
奇 幻</w>
古 都</w>
博 爱</w>
全 称</w>
兢 兢
专 长</w>
U 23</w>
Ma te
B2 C</w>
B ur
15 4</w>
默 许</w>
魔 幻</w>
领 证</w>
霹 雳</w>
阿司 匹
铁 门</w>
逾 越</w>
越 秀区</w>
蚝 油</w>
第 八
第 23</w>
狂 人</w>
版 号</w>
爱国 者</w>
湘 潭
河 口</w>
水 井</w>
次 要</w>
查 尔斯</w>
李 显
无 用</w>
新闻 稿</w>
摩 羯
提 审</w>
掉 队</w>
扎 扎
应 聘
安 ·
坟 场</w>
国 营</w>
古 装</w>
北 洋</w>
出 价</w>
凌 乱</w>
军 种</w>
其 子</w>
亵 渎</w>
g y</w>
6 0.
4 3亿</w>
10 67
.... .</w>
风 速</w>
阜 阳</w>
触 底</w>
解 约</w>
自 尊
直 流</w>
申 通</w>
猕猴 桃</w>
焊 接</w>
海 豹</w>
法 外</w>
模 具</w>
投 射</w>
志 军</w>
尤 文</w>
婚 纱
如 人意</w>
国 标</w>
团 结
古 道</w>
去 脉</w>
厄瓜 多尔</w>
凌 驾</w>
光 顾</w>
伺 机</w>
中 坚</w>
不 甘</w>
weibo .com/
u e</w>
麻 辣
魔 咒</w>
风 度</w>
防 备</w>
远 市</w>
试 水</w>
衣食 住行</w>
行 区</w>
自 大</w>
腊 肉</w>
组 网</w>
病 菌</w>
王小 川</w>
海事 局</w>
河 村</w>
拍 拍</w>
扎扎 实实</w>
归属 感</w>
张 迪</w>
平 均
干净 净</w>
干 干净净</w>
幕 僚</w>
屠 呦呦</w>
家家 户户</w>
坚 硬</w>
在所 难免</w>
国 华</w>
号 角</w>
古 籍</w>
受 托</w>
千 瓦时</w>
北戴 河</w>
刘 峰</w>
兴 衰</w>
兰 人</w>
信 封</w>
亲 笔</w>
丰 收
专 区</w>
不 休</w>
v es</w>
our n
bu t</w>
FF 91</w>
Ale x
6. 1</w>
重头 戏</w>
自 上
红 糖</w>
空 腹</w>
睡 前</w>
王 刚</w>
漂 泊</w>
洗 盘</w>
李 泽
普 世</w>
无 赖</w>
截 屏</w>
张 岩</w>
开 裂</w>
小 吴</w>
四 风</w>
售楼 处</w>
变 局</w>
县 处级</w>
卫 计
卡 尔</w>
中介 费</w>
en n
V O
U C</w>
5 6亿</w>
隐蔽 性</w>
追 诉</w>
苏 北</w>
脉 搏</w>
纳 闷</w>
签 到</w>
社保 局</w>
清 气
洪 涝</w>
此时 此刻</w>
检查 站</w>
晃 动</w>
敲 打</w>
拘 押</w>
快 门</w>
徐 晓
庞 氏</w>
对 赌</w>
奶 油</w>
大中 型</w>
大 区</w>
大 亨</w>
外 乎</w>
城 河</w>
围 城</w>
哈 罗</w>
古 特
化 验</w>
加 方</w>
刘 伶
修 好</w>
何 等</w>
住 宿
争 斗</w>
不 是</w>
z hong
se s</w>
oun d</w>
c re
3 300</w>
29 8</w>
193 3年</w>
- 11</w>
黑 莓</w>
黑 帮</w>
限 值</w>
长 成</w>
逊 色</w>
软 肋</w>
踏 步</w>
象 征
让 给</w>
莎 拉
结 交</w>
粮 食
监 区</w>
炒 菜</w>
清 政府</w>
海 通</w>
果 粉</w>
有 可
教育 家</w>
扶 手</w>
建 言
小 分队</w>
套 内</w>
大政 方针</w>
受 命</w>
单 据</w>
前 后
制 毒</w>
克里 姆林宫</w>
克 利
保 送</w>
休 养</w>
伊丽莎 白</w>
人 参</w>
主 干道</w>
中 新</w>
业 业</w>
li f
an s
1. 9</w>
鹏 鹏</w>
险 一
门 关</w>
郭 明
连 续性</w>
转 学</w>
见 病</w>
脸 谱</w>
胡 洪
管 委</w>
第 19</w>
程 某</w>
登记 表</w>
理 化</w>
煤 炭
敬 老
探 员</w>
拜 仁</w>
快 车道</w>
德云 社</w>
广 袤</w>
家 底</w>
四 面
农 夫</w>
八 旬</w>
伯 特</w>
交 费</w>
不胜 数</w>
不复 存在</w>
r e</w>
bn b</w>
1. 4%</w>
领 奖</w>
预 想</w>
顽 固</w>
面 试
集 聚
隔 断</w>
醒 悟</w>
逼 真</w>
老 式</w>
纸 张</w>
紫 禁
糕 点</w>
狗 粮</w>
来龙 去脉</w>
本 顺</w>
方 阵</w>
推 动力</w>
排 水量</w>
掌 管</w>
扬 帆</w>
托 管
成 群</w>
尽 如人意</w>
射 手</w>
备 份</w>
割 裂</w>
候车 室</w>
侨 联</w>
伊 尔</w>
于 事</w>
专 列</w>
三 亚
se l
4 8亿</w>
201 3-
鹏 远</w>
预 赛</w>
项目 组</w>
锦 州</w>
银 杏</w>
野战 军</w>
邓 小
跨 年</w>
舒 缓</w>
自 用</w>
绳 之以
红 船</w>
稻 城</w>
特 恩
漳 州</w>
清 末</w>
淡 淡
油 污</w>
死 难者</w>
梅 拉尼
李 家
星期 六</w>
明文 规定</w>
改 用</w>
排污 口</w>
拉斯 维
成 功
慰 藉</w>
总 站</w>
巴 格
工 薪
害 羞</w>
妆 容</w>
大起 大落</w>
大 修</w>
吹 嘘</w>
印 制</w>
剧 毒</w>
创 纪录</w>
伺 候</w>
享 誉</w>
义务 人</w>
严 寒</w>
不 变</w>
一 格</w>
k en</w>
de d</w>
C oun
A S</w>
3 8亿</w>
面 额</w>
际 线</w>
银 色</w>
金 叉</w>
邢 台市</w>
远 见</w>
象 牙</w>
诱 因</w>
裂 痕</w>
蒙 受</w>
纵 横
答 题卡</w>
空 巢</w>
种 菜</w>
真 心
百 万
画 展</w>
港 湾</w>
清明 节</w>
求 精</w>
水 瓶</w>
普惠 性</w>
拉 拉</w>
抚 顺</w>
恶性 肿瘤</w>
岗 村</w>
岁 数</w>
安 乐
威 海</w>
吓 唬</w>
取 样</w>
卫计 局</w>
华 晨宇</w>
区 区</w>
务 部</w>
冷 藏</w>
决 断</w>
冲击 力</w>
再 婚</w>
兴 县</w>
免 不了</w>
20 30年</w>
13 6</w>
黑 衣</w>
非 同
隐 忧</w>
险一 金</w>
陆家 嘴</w>
阳 气</w>
递 增</w>
身体 力行</w>
西 山</w>
蛮 横</w>
羊 毛
红 伟</w>
神经 元</w>
百 般</w>
游 轮</w>
新 光</w>
摧 残</w>
揭 幕</w>
按 理说</w>
忧 伤</w>
心 眼</w>
山 羊</w>
山 川</w>
家 宝</w>
学 文</w>
外 星</w>
堪 忧</w>
园 慧</w>
四 合
势在必 行</w>
分 寸</w>
儒 学</w>
佩 斯</w>
企业 主</w>
不 弃</w>
下 单</w>
13 3</w>
高 架</w>
马克思 列宁主义</w>
非 政府</w>
西 药</w>
腾 腾</w>
老 大
维 斯</w>
绳之以 法</w>
窦 唯</w>
空 中
直 营</w>
番 禺</w>
王府 井</w>
水 肿</w>
格 格
战 果</w>
怂 恿</w>
展 览
封 市</w>
天 独
吕 梁
吃喝 玩乐</w>
司法 部门</w>
医 美</w>
刑 责</w>
军 服</w>
养 家</w>
其 三</w>
传 入</w>
付 诸
不 偿
K o
F e
限 产</w>
造 访</w>
连 载</w>
议 事</w>
联 队</w>
老 贾</w>
绝 境</w>
组织 部长</w>
社会 关系</w>
相 承</w>
疼 爱</w>
歌 迷</w>
李 国庆</w>
废 料</w>
少 部分</w>
小 雪</w>
头 角</w>
天秤 座</w>
天 子</w>
基 带</w>
参 见</w>
制 假</w>
八 角</w>
主 宰</w>
中文 版</w>
严肃 性</w>
不 无</w>
。 文</w>
y ou
S T
IP v
2. 3%</w>
陵 区</w>
门 诊
长 者</w>
赛 跑</w>
调味 品</w>
观察 员</w>
药 水</w>
脚 踝</w>
紫禁 城</w>
王 峰</w>
河 长制</w>
柳 传志</w>
李 少云</w>
无人 问津</w>
整 体性</w>
教育 学</w>
报 请</w>
打工 者</w>
打 铁</w>
忧 郁</w>
定 增</w>
宋 庆
大卫 ·
图 标</w>
分 水
凉 爽</w>
农 活</w>
伤 感</w>
仪 表</w>
。 罗
ac h</w>
16 5</w>
黎 平</w>
金 奖</w>
远 征
花 儿</w>
自上 而下</w>
腐 败
知 事</w>
王林 清</w>
特恩 布尔</w>
清 纯</w>
油 漆</w>
水 文</w>
梁 柱</w>
杨 某
攻 占</w>
报 批</w>
引 流</w>
延 展</w>
应聘 者</w>
市 政协</w>
工 科</w>
尔 多</w>
小 钱</w>
家乐 福</w>
埋 头</w>
双 开</w>
制 化</w>
几 度</w>
内 蒙</w>
偷 窃</w>
传 票</w>
代表 处</w>
ut ure</w>
ri s
m o</w>
Q F
P hone</w>
6. 7</w>
1. 7%</w>
麦 肯
骨 科</w>
雄心 勃勃</w>
门 卫</w>
郭 宜
起 居</w>
赶 忙</w>
花 坛</w>
罗 布
络 绎
络绎 不绝</w>
精益 求精</w>
管 员</w>
畅销 书</w>
王 星</w>
消 保
泄 密</w>
毅 夫</w>
歌 剧</w>
桌 椅</w>
李世 石</w>
明尼 阿波
扑 面而来</w>
急 切</w>
忧 心
开 刀</w>
小 锐</w>
寄 语</w>
大 年</w>
大 侠</w>
噩 耗</w>
古 怪</w>
双 子座</w>
华 国锋</w>
包 头</w>
动 仪</w>
全 权</w>
兢兢 业业</w>
傅 园慧</w>
人 像</w>
二 话
中 青
三 观</w>
一 词</w>
一 色</w>
X X
U N
香 肠</w>
重 振</w>
选 区</w>
路 站</w>
贺 信</w>
蚕 食</w>
胡 洁</w>
稳 重</w>
爱 豆</w>
灭 火器</w>
湘 西</w>
游 泳池</w>
民 谣</w>
毒 瘤</w>
殉 职</w>
梁 军</w>
撮 合</w>
感 官</w>
天独 厚</w>
大 佛</w>
境 况</w>
均 等化</w>
吴 春
厚 道</w>
午 休</w>
医 患</w>
划 界</w>
农 林</w>
优越 感</w>
不管 怎样</w>
下 辖</w>
h e</w>
G C</w>
9 4
737 MAX</w>
13 00万</w>
韶 关</w>
郭宜 品</w>
记 不清</w>
认 同感</w>
螺 旋
草 率</w>
胃 肠</w>
第二十 五</w>
特 曼</w>
烟 台市</w>
满 目</w>
深 秋</w>
泉 市</w>
撒 娇</w>
抽 签</w>
实 务</w>
宝 玉</w>
安 居</w>
场 次</w>
在 先</w>
史 册</w>
单 方</w>
华 工</w>
冠 球</w>
佳 佳</w>
乌 龟</w>
三 餐</w>
一 举
wh o</w>
ne w</w>
ber t</w>
IS IS</w>
高 端
集 约</w>
隐 约</w>
重 罚</w>
赣 州</w>
费 解</w>
虚 拟
蓝 翔</w>
致 函</w>
磨 练</w>
王 传
湖 县</w>
海 油</w>
桑 塔
晋 城</w>
政治 学</w>
政 风</w>
护 肤
抗 癌药</w>
手 心</w>
感 恩
愈 合</w>
归 宿</w>
帮 帮</w>
山 湖</w>
安 卡拉</w>
威 信</w>
大 宝</w>
土 豆
喜 茶</w>
含 泪</w>
参差 不齐</w>
内 疚</w>
中 粮</w>
丢 脸</w>
不 决</w>
不 以为然</w>
_ _</w>
9 5亿</w>
3. 5%</w>
+ 号</w>
随 者</w>
陈 吉
阴 谋
迟 缓</w>
纤 维
短 袖</w>
牛 顿</w>
洗 浴</w>
泰晤 士
氨 酸</w>
朝 代</w>
易 乐</w>
得 天独厚</w>
强 盛</w>
宾 夕
安德 森</w>
大江 南北</w>
基 准
博 格
功 不可
低 压</w>
从 头
书 桌</w>
乖 巧</w>
201 5.
200 7.
鸿 海</w>
鲁 冠球</w>
驴 友</w>
首 晟</w>
飘 扬</w>
集 镇</w>
过 重</w>
赫 鲁
街 拍</w>
线 性</w>
精气 神</w>
突击 队</w>
空 空
示 弱</w>
牛肉 面</w>
片 场</w>
比 起</w>
教 义</w>
摔 跤</w>
影 帝</w>
张 庆
开 进</w>
应 声</w>
广 安</w>
小 看</w>
富 国</w>
宫 廷</w>
圣彼得 堡</w>
围 观者</w>
危机 感</w>
功不可 没</w>
刚 果</w>
公 知</w>
先 行者</w>
健 在</w>
体 式</w>
伪 基站</w>
交 手</w>
丽 君</w>
丹 东</w>
不容 缓</w>
下 设</w>
一 针
一 筹</w>
on y</w>
la r</w>
GH z</w>
Air bnb</w>
3 200</w>
203 5年</w>
鸡 腿</w>
高 气
骤 降</w>
靳 东</w>
阿坝 州</w>
里 亚</w>
责任 事故</w>
蔡 奇</w>
萍 乡市</w>
菜 花</w>
置 之
网 格
矿 井</w>
生态 链</w>
王 伟</w>
点点 滴滴</w>
欧 阳</w>
木 质</w>
昭 示</w>
支 流</w>
扫 除</w>
感 言</w>
德 曼</w>
当 头</w>
康 佳</w>
废 纸</w>
差 错</w>
展 馆</w>
家长 群</w>
宝 钢</w>
姜 文</w>
复 试</w>
在 上</w>
周 洋</w>
周 本顺</w>
司 空
南 美洲</w>
匕 首</w>
俗 语</w>
上 风</w>
I t</w>
H ome</w>
F re
E OS</w>
6 5万</w>
3 C</w>
194 3年</w>
14 .</w>
马 自
顺德 区</w>
隆· 马斯克</w>
防 盗
金融 街</w>
迎 春</w>
轻 而易
许 许
许许 多多</w>
警 卫
西 郊</w>
芹 菜</w>
自 重</w>
算 力</w>
第 25</w>
秀 云</w>
短 时</w>
用 意</w>
生物 钟</w>
现 成</w>
熄 火</w>
满 贯</w>
港 人</w>
沉 着</w>
民 风</w>
李 清
景德 镇</w>
景 海鹏</w>
施暴 者</w>
教 书
擦 亮</w>
持 有人</w>
庆 阳</w>
广告 语</w>
巴 克
学 派</w>
售 罄</w>
各 处</w>
厄 尔
印 良品</w>
卡 西
加 尔
劝 退</w>
力 不
刘 俊
修 剪</w>
供 稿</w>
休 学</w>
不及 防</w>
一 发
ne s</w>
b a
Wi -Fi</w>
S ir
S P
3. 3</w>
2 C</w>
顺 理
顺理 成章</w>
革命 家</w>
贵 妃</w>
货 品</w>
菩 提</w>
荧 幕</w>
船 体</w>
缠 绕</w>
绚 烂</w>
科 尔
私 企</w>
硬 仗</w>
疤 痕</w>
灾难 性</w>
火 币</w>
洗 涤</w>
汉 代</w>
气 势
新 意</w>
挤 占</w>
挡 风</w>
担 子</w>
彭 丽媛</w>
建言 献策</w>
尊 崇</w>
女 工</w>
喷 发</w>
口 香
参 拜</w>
公 河</w>
八 大</w>
仁 川</w>
丹 尼
丧 事</w>
万 里
一 脉
v o
tr l</w>
th ing</w>
g g
O p
- 8
麻 花</w>
集中 营</w>
阿拉 斯
部 下</w>
进口 量</w>
访 问
脱 钩</w>
脱 节</w>
缔 约
第二十 三</w>
白 恩
王 军</w>
深 长</w>
柯 洁</w>
架 次</w>
李 沁</w>
木 兰</w>
晒 太阳</w>
改 气</w>
提 款
报警 人</w>
悔 恨</w>
总 行</w>
广 为
域 外</w>
坚 挺</w>
地 亚
加 沙</w>
加 权</w>
初 审</w>
减 值</w>
冒 犯</w>
光 谷</w>
保 利
伪 证</w>
优 先
价 权</w>
中产 阶层</w>
一年 四季</w>
。 鉴于</w>
vel 2</w>
ri p
le n</w>
200 2.
19 30年</w>
- 12</w>
** **
风 声</w>
雷 电</w>
连 日</w>
轻而易 举</w>
赵 明
装 配</w>
行 之
脱口 秀</w>
纳 指</w>
红 海</w>
章 取义</w>
离 境</w>
猎 狐</w>
牢 狱</w>
枪 口</w>
晾 晒</w>
明 媚</w>
摇 摆</w>
护 城河</w>
感 应</w>
张 杰</w>
希 腊
天 风</w>
大 红</w>
大 刀
南 岸</w>
加班 加点</w>
决策 层</w>
作 协</w>
人 口
中 报</w>
三 联</w>
c ar
ai d</w>
P ay
Mar k</w>
199 4.
陈 毅</w>
转 达</w>
跌 宕
融 通</w>
葡萄 牙
营 改</w>
航 海</w>
结 合
纳 德</w>
盛 名</w>
盛 况</w>
特 写</w>
深 恶
深恶 痛
泰 坦
泡 泡</w>
毁灭 性</w>
村 委</w>
朝 晖</w>
更 衣
无形 中</w>
文 图
数 学
接 收
拼 凑</w>
户籍 地</w>
开 罗</w>
小 马</w>
小 板</w>
官 媒</w>
宋庆 龄</w>
天 宫</w>
大名 鼎鼎</w>
外 甥</w>
勒 令</w>
几 十亿</w>
产 销</w>
。 经</w>
6. 6</w>
食 谱</w>
银 川市</w>
通 缩</w>
逍遥 法外</w>
连锁 店</w>
转 岗</w>
贸易 区</w>
谜 团</w>
调 出</w>
触 角</w>
蓝 洁瑛</w>
蒿 素</w>
英 伟达</w>
自 省</w>
编 组</w>
纳税 额</w>
移 除</w>
票 面</w>
眼 花
看 客</w>
电 工</w>
生物 制品</w>
生 性</w>
熄 灭</w>
潍 坊市</w>
栅 栏</w>
杰克 逊</w>
文 文</w>
教 唆</w>
故 而</w>
攀 爬</w>
招 数</w>
总 而言之</w>
念 叨</w>
张 扣扣</w>
小 白
多 种
吴 京</w>
协 警</w>
刘 嘉
净 增</w>
五 分之一</w>
不绝 于
t w
m l
1 7年</w>
顾 名
陈吉 宁</w>
读 研</w>
老老 实实</w>
缭 乱</w>
缉 毒</w>
精 良</w>
第二 十一</w>
矫 情</w>
狩 猎</w>
淘宝 店</w>
海 子</w>
洗 漱</w>
汉 服</w>
欠 费</w>
枯 竭</w>
枫 叶</w>
本土 化</w>
春 玉</w>
日 志</w>
插 曲</w>
戒 备</w>
宾夕 法
城 楼</w>
君 子
同 道
古特 雷斯</w>
博 尔顿</w>
单 体</w>
出 镜</w>
作 祟</w>
今 夜</w>
乳 房</w>
中 企</w>
v is
e y
高 歌
陈 安
阴 天</w>
阳 人</w>
酒 业</w>
通 稿</w>
豹 妹</w>
视 频
纷 呈</w>
留 情</w>
电 流</w>
甘 愿</w>
班 次</w>
片 方</w>
渗透 率</w>
毒 症</w>
歧 视
智 者</w>
拉斯维 加斯</w>
投机 者</w>
强 人</w>
左 右
小 芳</w>
寥寥 无几</w>
婆 媳</w>
姗 姗</w>
奠 基</w>
啸 虎</w>
吉尔吉 斯
功 能性</w>
刺 杀</w>
元 宵
举 办
严重 者</w>
不同 寻常</w>
不偿 失</w>
上 楼</w>
P er
L A</w>
2017- 08-
199 9.
首 款</w>
非 营利性</w>
阿司匹 林</w>
金 子</w>
逗 留</w>
转 院</w>
超 模</w>
行之 有效</w>
花 草</w>
脊 柱</w>
紫 外线</w>
祭 奠</w>
相 悖</w>
白恩 培</w>
瓶 车</w>
王 浪</w>
王 成
狙 击
特 稿</w>
浓 重</w>
汇 票</w>
望 京</w>
曲 江</w>
接 受
截 留</w>
慌 乱</w>
小 兰</w>
婚纱 照</w>
女 孩儿</w>
夸 赞</w>
地 头</w>
唯物 主义</w>
后 勤
合 成
口香 糖</w>
制 胜</w>
出 力</w>
冯 某</w>
光 源</w>
僵 硬</w>
偿 付</w>
体 感</w>
从 无
亩 产</w>
九寨 沟
乐 清
之 忧</w>
。 特朗</w>
v el</w>
V o
R T</w>
M 1</w>
顾名 思义</w>
钱 旺</w>
郭 伯
趋 势
论 者</w>
补给 舰</w>
碧 水</w>
湄 公河</w>
深恶痛 绝</w>
消保 委</w>
波音 737</w>
毅 清</w>
李宏 烨</w>
未知 数</w>
攻 防</w>
拘 留
抚 摸</w>
意 志
库 区</w>
庆 阳市</w>
届 满</w>
妖魔 化</w>
奥 秘</w>
嗅 觉</w>
南 门</w>
办公 区</w>
刻 不容缓</w>
偏 激</w>
亏 本</w>
不离 不弃</w>
万 国</w>
t ing</w>
al s</w>
P art
Com m
17 1</w>
黄 有
雪 枫</w>
雅 典</w>
铁 轨</w>
逃 往</w>
覆 辙</w>
纯 正</w>
睿 智</w>
登 门</w>
游 乐
深 邃</w>
没 落</w>
正 月
有 别
最 低价</w>
时 评</w>
日 经</w>
文 学院</w>
收 受</w>
慷 慨
总 领事馆</w>
德 利
庸 俗</w>
安 南</w>
如 约</w>
天 文学</w>
同 村</w>
发 家</w>
原 版</w>
出资 人</w>
凤 县</w>
入 座</w>
倾 家
信 阳市</w>
仲 勋</w>
二 度</w>
了 结</w>
不可 及</w>
。 如
Y C</w>
P C
3 18</w>
2. 4亿</w>
难 而上</w>
金 属
避 孕</w>
贴 士</w>
蝉 联</w>
荒 废</w>
苏 醒</w>
节 前</w>
膝 关节</w>
精 干</w>
看 台</w>
生 者</w>
玛 特</w>
王 霞</w>
物 权法</w>
毕 节</w>
梁振 英</w>
枪 械</w>
李连 杰</w>
有 法
断 章取义</w>
控 股权</w>
招 工</w>
手 印</w>
微 波
弯 腰</w>
广告 主</w>
少先 队</w>
四 面</w>
呼 啸</w>
吸 烟
合 乘</w>
动 议</w>
加 工
功 成
休 日</w>
事 端</w>
丹 阳</w>
严 管</w>
上 所述</w>
Mobi le</w>
GM V</w>
龙 岗</w>
鼻 炎</w>
高 铁
隔 夜</w>
野 兽</w>
邓小 平
赵 晓
蟹 爪
艳 丽</w>
肖 某</w>
联 运</w>
算 命</w>
生产 资料</w>
生 生
游 走</w>
校 门口</w>
李显 龙</w>
收 件人</w>
拍拍 贷</w>
帐 户</w>
巨 响</w>
天 龙
型 机</w>
回 味</w>
后 顾
兴 岛</w>
公 用
何 其</w>
伊利 诺
从无 到
乡 土</w>
主席 国</w>
为 重</w>
le d</w>
Com p
1- 9</w>
音 像</w>
雏 形</w>
闭 幕式</w>
逻 辑
造谣 者</w>
辨 识</w>
辛 亥
身一 变</w>
补偿 金</w>
蒙 特
萌 芽</w>
苦 练</w>
苏宁 易购</w>
舞 蹈
罗 列</w>
续 约</w>
红 头
窑 洞</w>
盗 窃
白 羊
白 世平</w>
瑞 金</w>
特 务</w>
爆 发式</w>
溶 解</w>
海 东</w>
沾 染</w>
条 码</w>
有 心</w>
惊 恐</w>
怪 物</w>
忍 无可
影 城</w>
宋 文
太 郎</w>
壮 举</w>
商 洛
可 喜</w>
危 难</w>
劣 汰</w>
债 市</w>
休息 室</w>
产 学
p r
b l
19 5</w>
龙 门
限 制性</w>
防 腐
闯 进</w>
通 则</w>
迎 面</w>
车 人</w>
要 务</w>
莫 夫</w>
红 衣</w>
索 贿</w>
特 聘</w>
海 参</w>
洞 穴</w>
汉 武帝</w>
次 生</w>
杨 宇
李 杰</w>
新 片</w>
斯 敦</w>
心 一
当家 作主</w>
巴 巴
实 证</w>
大 红
变 道</w>
博 取</w>
务 农</w>
前 世</w>
刘 建
分 散
光 泽</w>
从无到 有</w>
今 晚报</w>
丽 水</w>
不择 手段</w>
x x</w>
S- 400</w>
1. 4万</w>
0. 9</w>
默 哀</w>
餐 盒</w>
零售 额</w>
雪 地</w>
铸 就</w>
钟 声</w>
邓小平 理论</w>
计 费</w>
蓝 领</w>
英 国人</w>
群 发</w>
立交 桥</w>
植 树</w>
检 验
有 理</w>
日 历</w>
持 有者</w>
心有 余
强 弱</w>
广告 费</w>
常规 赛</w>
巴 方</w>
家 可
实 力
塔 区</w>
周 润发</w>
卑 微</w>
前 瞻</w>
利 弊</w>
军 火</w>
入 口处</w>
倍 增</w>
信号 灯</w>
作 价</w>
优胜 劣汰</w>
七 旬</w>
sin ess</w>
W ind</w>
4 2亿</w>
1. 9%</w>
1. 7万</w>
高高 在上</w>
高歌 猛进</w>
长 龙</w>
量子 力学</w>
达 拉
评 审团</w>
虐 杀</w>
莎 士
聊 城</w>
粗 放</w>
简 要</w>
秦 汉</w>
直 聘</w>
牢 骚</w>
源 性</w>
正 职</w>
核 发</w>
来 历</w>
权 势</w>
替 考</w>
摇 身一变</w>
拜 年</w>
拉 基
悉 心</w>
微 乎其
得 不偿失</w>
官方 微博</w>
威 武</w>
头 肌</w>
大 门口</w>
大 相
塌 糊涂</w>
和 园</w>
发 量</w>
倾家 荡
人人 网</w>
事务 部</w>
乔 夫</w>
一针 见血</w>
e Bay</w>
C trl</w>
黑 莉</w>
页 岩
重 罪</w>
通 奸</w>
购置 税</w>
衬 托</w>
血 浆</w>
艳 红</w>
能 手</w>
管 齐
管 廊</w>
立 方</w>
突 起</w>
相 间</w>
溪 市</w>
注 水</w>
波 特</w>
水 价</w>
杀 戮</w>
晶 体</w>
普 政府</w>
故 里</w>
德 阳</w>
张新 明</w>
应 收</w>
幽 门</w>
巨 无
小 花</w>
大 洋
各 式</w>
可 操作性</w>
东 山</w>
it h</w>
ate s</w>
ar d
F i
8 5亿</w>
1- 7</w>
1 20亿</w>
黑 市</w>
鲜 为人知</w>
防 治
邱 少云</w>
进 出
衰 败</w>
蟹爪 兰</w>
荷 尔
股 东
结 缘</w>
章 文</w>
窗 台</w>
空 天</w>
眼花 缭乱</w>
燃 起</w>
漫 天</w>
济 州
沥 青</w>
林 海</w>
晋 城市</w>
早 教</w>
掏 腰包</w>
拳 打
我 行
总 成绩</w>
微乎其 微</w>
小 院</w>
小 吃
安居 乐业</w>
天 狮</w>
声 望</w>
图 谱</w>
囚 禁</w>
咀 嚼</w>
后顾 之忧</w>
古装 剧</w>
叛 乱</w>
制 力</w>
一 去
v en
um p</w>
6 万亿</w>
0 7-
黛 玉</w>
麦 田</w>
鞍 山市</w>
雪 梅</w>
雨 林</w>
酒 厂</w>
过 场</w>
资源 局</w>
脏 器</w>
聂 春玉</w>
空 警</w>
磨 砺</w>
生 俱
牵 手</w>
灾 民</w>
潜 意识</w>
游 离</w>
法 学会</w>
格格 不入</w>
林 毅夫</w>
杜 嘉
李 德
权 证</w>
机 理</w>
朱 晓
本 省</w>
时 颖</w>
族 裔</w>
换 位</w>
技术 员</w>
巴 中</w>
山 洪</w>
小 青</w>
奖 惩</w>
大 礼包</w>
夜 市</w>
填 充</w>
回 龙
后 宫</w>
卸 下</w>
公 署</w>
作 业
井 喷</w>
二 来</w>
两 口子</w>
万 豪</w>
te s</w>
ER S</w>
99 亿</w>
难 堪</w>
阳 江</w>
金 正
通 达</w>
辩 证
财 险</w>
草 丛</w>
美 白</w>
经 开区</w>
端 午</w>
相 片</w>
盘 踞</w>
渴 求</w>
款 物</w>
极 化</w>
意大 利
情 书</w>
怨 言</w>
开 拍</w>
延 边</w>
孙 正义</w>
女 篮</w>
增 压</w>
喷 洒</w>
勉 励</w>
创 收</w>
刘伯 承</w>
倾家荡 产</w>
保 密
位 子</w>
以为 继</w>
主导 权</w>
Smar t</w>
QF II</w>
6. 9</w>
6. 8%</w>
魔 法</w>
迫 在
软 硬件</w>
衢 州</w>
蛋 黄</w>
翻 译
缤 纷</w>
结 语</w>
突 飞
稿 费</w>
矗 立</w>
眠 药</w>
玉 兔</w>
清 远市</w>
深 港</w>
残 暴</w>
断 面</w>
慈 悲</w>
情 理
念 书</w>
必 修课</w>
小 布什</w>
宗 族</w>
学 报</w>
字 形</w>
头 镇</w>
复 燃</w>
士 官</w>
埋 单</w>
吕 某</w>
友 邦</w>
危 重</w>
动 于
击 机</w>
冒 烟</w>
六 七
付 贷</w>
付 息</w>
v ic
5 500</w>
37 万</w>
鼠 标</w>
青 蒿素</w>
雯 雯</w>
造 势</w>
迫在 眉
过 敏
过 山车</w>
警 卫队</w>
见 惯</w>
西 蒙
行政 村</w>
螺 旋</w>
节 节</w>
纵 然</w>
糊 口</w>
状 告</w>
溶 液</w>
气 概</w>
棋 子</w>
李兆 会</w>
本 无
收 入者</w>
我行 我
惦 记</w>
念念 不忘</w>
心 寒</w>
引 丽</w>
市场 部</w>
巴 斯</w>
富 城</w>
容 许</w>
官 邸</w>
存 托</w>
字 头</w>
姚 某</w>
复 印</w>
土 生
圈 养</w>
国际 性</w>
卡 尔·
函 询</w>
出 兵</w>
冯 绍峰</w>
公安 处</w>
俄 新社</w>
优 选</w>
互 鉴</w>
习 仲勋</w>
中小 板</w>
一 意
ic ro
i Cloud</w>
app le
R ed
R -
Chro me</w>
7 5万</w>
201 5
2 100</w>
0 9日</w>
零售 店</w>
采 样</w>
迫在眉 睫</w>
跨 越
跌宕 起伏</w>
赫鲁 晓
读 本</w>
觉 性</w>
能 干</w>
股 友</w>
绚 丽</w>
管齐 下</w>
笃 定</w>
石 刻</w>
电 压</w>
猝 不及防</w>
狂欢 节</w>
然 而止</w>
星期 一</w>
无 愧
无 家可
斗 士</w>
教 导员</w>
戴 安娜</w>
我行我 素</w>
忡 忡</w>
张 帆</w>
底 盘</w>
富 商</w>
宽 大</w>
审 员</w>
多种 多样</w>
告 状</w>
同 情
司法 厅</w>
南 风</w>
刘 翔</w>
克 什
元宵 节</w>
偷 盗</w>
享 乐</w>
乐 见</w>
与 生俱
z e</w>
al th</w>
M at
In ternational</w>
A ir</w>
2. 6</w>
00 2
0 3日</w>
防 火
迎 难而上</w>
跃 升</w>
请 托</w>
蒙 德</w>
获 客</w>
莲 花
自 信心</w>
缓 冲</w>
维 基</w>
红 肿</w>
眉 头</w>
疫 苗
画 外</w>
男 儿</w>
独 行</w>
烂 尾</w>
漆 黑</w>
满 天
洒 脱</w>
梅拉尼 娅</w>
朗 德</w>
旁 观</w>
新 京</w>
收 治</w>
推 定</w>
抗 震
忧心 忡忡</w>
孤 行</w>
大 鱼</w>
大 咖</w>
国 脚</w>
哈 尼</w>
匠 心</w>
化 作</w>
动于 衷</w>
刻 刻</w>
冷 水
会 师</w>
一 语
v ing</w>
s /
r y
马 晓
饱 含</w>
长 此
金 莲</w>
金 华
转 让
超 长</w>
螺 丝
约 翰</w>
紧 身
省 心</w>
百强 县</w>
理发 店</w>
烟 肼</w>
清 德</w>
棕 色</w>
李 雨桐</w>
更衣 室</w>
曲 艺</w>
挂 断</w>
折 旧</w>
成 熟
忘 却</w>
展 台</w>
宪 政</w>
厢 情愿</w>
印 花</w>
医 学界</w>
利 差</w>
关节 炎</w>
例 证</w>
亚 特
亚 丁</w>
乌 有</w>
一 场</w>
ver y</w>
bo y
a st
@ 中国</w>
6. 6%</w>
黄奇 帆</w>
鲨 鱼</w>
高 科</w>
食 指</w>
韵 达</w>
陈 满</w>
陈 列
酗 酒</w>
那 州</w>
转 头</w>
跑 分</w>
蒋 劲夫</w>
苏 维
绝 杀</w>
社会 保障部</w>
甲状 腺</w>
烤 鸭</w>
灵 敏</w>
油 箱</w>
歼 灭</w>
楼 宇</w>
朱 啸虎</w>
无 动于衷</w>
敬 献</w>
摇 晃</w>
战 功</w>
情 绪
忍无可 忍</w>
德 尔·
庭 前</w>
小 娟</w>
威 望</w>
合格 率</w>
到 尾</w>
出口 国</w>
减 半</w>
公 司法</w>
休 庭</w>
付 林</w>
五 十万</w>
九龙 站</w>
中 管</w>
t ur
Y Y</w>
CE S</w>
C an
4 4亿</w>
201 60
黑 匣子</w>
防 御
金 球
部 际</w>
越 位</w>
训练 场</w>
裁 军</w>
董 卿</w>
老 周</w>
竞 拍</w>
禁 赛</w>
禁 售</w>
短 途</w>
电 池
满 身</w>
民 宅</w>
植物 园</w>
新 安</w>
摘 帽</w>
换 挡</w>
户口 簿</w>
心肌 梗
得 名</w>
开 挖</w>
废 气</w>
巨无 霸</w>
小 道</w>
大 公报</w>
土 长</w>
土 星</w>
卫生 纸</w>
南 水
单 元
八 百</w>
入 秋</w>
光 亮</w>
偏 重</w>
侦查 员</w>
从 未
二十 五</w>
中心 区</w>
与生俱 来</w>
不绝于 耳</w>
一丝 不
G E</w>
B TC</w>
黑 猫</w>
青 霞</w>
霸 屏</w>
长此 以往</w>
锡 金</w>
郭 德纲</w>
转 播</w>
足 协
走 投
走投 无
赫鲁晓 夫</w>
议 者</w>
观 性</w>
莱 德</w>
莎士 比亚</w>
紧迫 感</w>
稿 人</w>
短 裙</w>
玄 武
滑 行</w>
活 活</w>
泉 港区</w>
汉 朝</w>
杀 菌</w>
敦 刻
戈 尔巴
想 像</w>
平 平
师 风</w>
左 路</w>
工业 品</w>
屌 丝</w>
小 人物</w>
宿 命</w>
家 用
安 眠药</w>
好 歹</w>
奢 望</w>
大 放
城镇 化率</w>
国 徽</w>
回 溯</w>
原 汁
卫 星
制 片</w>
凉 山州</w>
养 父</w>
先 辈</w>
人 缘</w>
不 愧</w>
一 天
e st
OP EC</w>
BC H</w>
6 50</w>
300 00</w>
1. 1%</w>
黑 产</w>
高 杠杆</w>
阿尔 及
配 售</w>
远 辉</w>
进 屋</w>
该 州</w>
诉 苦</w>
落 石
英 军</w>
自 居</w>
脚 踢</w>
算 账</w>
知 足</w>
真 菌</w>
电饭 煲</w>
甚 至于</w>
瑞 典
王 佳
济 宁</w>
流行 语</w>
泰晤士 报</w>
某 华</w>
李 树
智 联</w>
时时 刻刻</w>
播 发</w>
推 举</w>
拉夫 罗夫</w>
打印 机</w>
工 种</w>
子 孙
大 运河</w>
土生 土长</w>
团 团
命 脉</w>
吹 牛</w>
卡 号</w>
农 耕</w>
公 务
免 密</w>
不容 小觑</w>
y our</w>
ve st
RA M</w>
EM BA</w>
麻 雀</w>
雁 塔</w>
隐 忍</w>
阴 雨</w>
郴 州市</w>
走 心</w>
行 间</w>
舒 畅</w>
自由 行</w>
羽 毛</w>
疗 程</w>
火 腿</w>
法 门</w>
欧 洲人</w>
横 穿</w>
梁 信</w>
柠 檬
李东 生</w>
有别 于</w>
旺 角</w>
效 忠</w>
投 注</w>
悬 崖
巨 量</w>
孩 童</w>
大 清
基 督</w>
双 规</w>
创 维</w>
产 房</w>
上 饶
三角 洲</w>
一脉 相承</w>
8 88</w>
55 分</w>
3. 5亿</w>
18 -
1. 1万</w>
马 虎</w>
餐饮 业</w>
飘 飘</w>
颓 废</w>
预 付</w>
韩 剧</w>
陷 于</w>
银 保</w>
金 石</w>
超 音速</w>
超 算</w>
行其 道</w>
老 城区</w>
终 日</w>
福 音</w>
热 化</w>
炒 房者</w>
清 正
洋 舰</w>
民 化</w>
杂 草</w>
无 止境</w>
无 意
效 用</w>
捕 杀</w>
挨 着</w>
招商 局</w>
拉丁 美洲</w>
张 首晟</w>
平 地</w>
塔 尔
商业 街</w>
出口 额</w>
冲 星</w>
公 平
体育 课</w>
一 塌糊涂</w>
ws /
M S
L CD</w>
K ing</w>
199 9</w>
12 7
0. 9%</w>
黄 淮</w>
高等 院校</w>
飞 过</w>
颠 倒</w>
预 装</w>
青 天</w>
镶 嵌</w>
铁 建</w>
避孕 套</w>
身 手</w>
谈 起</w>
记 大
菜 价</w>
草 场</w>
花 盆</w>
职 信</w>
耿 直</w>
米 ·
甲 级</w>
琪 琪</w>
焦 煤</w>
激 动
江 汉</w>
梅 德
柠 檬</w>
本 源</w>
整 日</w>
敦刻 尔克</w>
操 纵
撕 毁</w>
慈 欣</w>
恩 施</w>
四合 院</w>
四 百</w>
嘈 杂</w>
司法 部长</w>
台湾 网</w>
冠 名</w>
元 朝</w>
债 主</w>
任意 球</w>
五 号</w>
举报 者</w>
中 转</w>
一意 孤行</w>
。 02</w>
T FB
F- 35
3 40</w>
201 4
16 0
阿拉 伯
金 毛</w>
追 击</w>
过 海</w>
载 入</w>
转 正</w>
车 体</w>
走 马
谦 逊</w>
规 制</w>
自 己
维 克
结 实</w>
精 尖</w>
第 26</w>
突飞 猛进</w>
空 心
盘 股</w>
王 妃</w>
热 内
游 乐</w>
海 珠
油 国</w>
沦 落</w>
正 派</w>
李小 龙</w>
李 铁</w>
李 洪
昨 夜</w>
早 产</w>
护 肤</w>
戏 骨</w>
戏 谑</w>
庄 重</w>
小 静</w>
字 画</w>
奇 瑞</w>
天 通
天 国</w>
埃 克
吉 思
发 难</w>
前 文</w>
储 备
供货 商</w>
使用 量</w>
书 架</w>
中 草药</w>
中 甲</w>
中 子星</w>
一 张张</w>
4. 5万</w>
鱿 鱼</w>
魔 力</w>
间 距</w>
轻 工业</w>
贫 寒</w>
该 镇</w>
西 州</w>
英 俊</w>
腿 裤</w>
脱 身</w>
猪 蹄</w>
特 价</w>
牧 师</w>
油 炸</w>
楼 空</w>
杂 质</w>
杀 伤</w>
既得 利益</w>
斐 然</w>
收 尾</w>
所欲 为</w>
得 力</w>
延 庆</w>
度 日</w>
市 价</w>
尿 毒症</w>
封 条</w>
定 权</w>
安 息</w>
天下 第一</w>
大 龄</w>
大 义</w>
外 相</w>
士 奇</w>
名 利
发审 委</w>
发 车</w>
加 速器</w>
入 冬</w>
信息 量</w>
供 奉</w>
余 震</w>
交流 会</w>
乱 世</w>
为 时
东 西
专 柜</w>
与 日
万 圣
万 众
ro w
di t</w>
d a</w>
B er
8 00亿</w>
5 5万</w>
2. 1%</w>
黑 海</w>
黄 峥</w>
风 趣</w>
预 感</w>
长期 性</w>
运 行
花 花
老 话</w>
老 三</w>
网 膜</w>
索 道</w>
破 格</w>
石 器</w>
电讯 报</w>
王 力
熟 睡</w>
火 情</w>
洼 地</w>
洗 稿</w>
架 空</w>
有 生
有 奖</w>
招 生
开放 性</w>
师 团</w>
工作 队</w>
巡 洋舰</w>
岸 上</w>
壮 年</w>
垃圾 场</w>
地 税</w>
圣 地亚
司空 见惯</w>
千 家
前 半生</w>
刀 子</w>
净 水</w>
军 政</w>
公 示
全 食</w>
偷 懒</w>
俊 德</w>
传承 人</w>
re s
ourn al</w>
k a</w>
is /
4 7亿</w>
3 6万</w>
20 5</w>
霸 座
闭 门
长 裙</w>
金球 奖</w>
触 电</w>
褐 色</w>
胡 乱</w>
罪 责</w>
红 牌</w>
空 话</w>
着 陆
疟 疾</w>
渐 渐
淮 南</w>
楷 书</w>
普 洱
文 理</w>
张 欣</w>
帮 凶</w>
小 官</w>
嫁 接</w>
奥 朗德</w>
头 等</w>
天 窗</w>
南 阳市</w>
北上 广
初 选</w>
关 晓彤</w>
六 七十</w>
保 税
企业 界</w>
中 餐</w>
下 坡路</w>
—— ——</w>
workflo w.
workflow. is/
ig n</w>
i al</w>
https:// workflow.is/
U FO</w>
Cap ital</w>
199 8</w>
1. 1亿</w>
0 6-
马 不
雌 性</w>
阳 阳</w>
重 逢</w>
遮 住</w>
违 停</w>
走投无 路</w>
调 用</w>
讲 授</w>
翻 盘</w>
穿 插</w>
硕 士
直 通</w>
白 纸</w>
涉 农</w>
沙 场</w>
水利 部</w>
桃 园</w>
林业 厅</w>
无意 间</w>
政 企</w>
打 闹</w>
惊 现</w>
恶 作
必 由
德 媒</w>
径 庭</w>
张 翰</w>
干 练</w>
工 学院</w>
山 火</w>
小 费</w>
失 败
大 行其道</w>
夏 草</w>
北 麓</w>
北 部
分水 岭</w>
分 裂
减 去</w>
凉 茶</w>
伴 儿</w>
人 造
云 云</w>
乡 长</w>
workflo ws/
m u
https://workflow.is/ workflows/
a z
S po
4 800</w>
13 9</w>
10 5.
金 陵</w>
重 器</w>
里约 热内
郭伯 雄</w>
连 续
跃 居</w>
记大 过</w>
蒙 蔽</w>
船 坞</w>
联合 体</w>
红头 文件</w>
米 尔
筑 牢</w>
潮 水</w>
消防 局</w>
求 医</w>
梦 境</w>
杜嘉 班纳</w>
旗 鼓</w>
排 毒</w>
掀 开</w>
房 顶</w>
恶 人</w>
快递 业</w>
当 心</w>
容 错</w>
大 伙</w>
困 苦</w>
同 月</w>
原汁 原味</w>
助 教</w>
制 定者</w>
刘光 博</w>
余 远辉</w>
之 意</w>
为 所欲为</w>
专 班</w>
uc c
b ao</w>
a in
M ag
5 2亿</w>
201 2.
193 2年</w>
- 27</w>
陈 明
长征 路</w>
配 乐</w>
逛 街</w>
退 群</w>
辱 性</w>
误 认为</w>
训 诫</w>
蕾 丝</w>
绿化 带</w>
研讨 班</w>
白 热化</w>
疙 瘩</w>
电影 票</w>
洗 发
格 里</w>
李春 城</w>
机关 干部</w>
朝 天</w>
有所 作为</w>
显 卡</w>
新 城区</w>
收 储</w>
戛 然而止</w>
成 吉思
懦 弱</w>
惊 天
总 督</w>
必 要
威 士
妥 妥</w>
天 乐</w>
大相 径庭</w>
埋 葬</w>
咄 咄
勘 验</w>
保 鲜
传 遍</w>
九寨沟 县</w>
东北 虎</w>
un d
m m
S y
7 9%</w>
6 500</w>
餐 员</w>
陈 劲松</w>
长 款</w>
近 代史</w>
辛亥 革命</w>
转 诊</w>
车 顶</w>
跨越 式</w>
贵 宾</w>
贝 宁</w>
讨 伐</w>
血 战</w>
蒂 姆·
致癌 物</w>
联合 公报</w>
网 格</w>
绘 本</w>
练 就</w>
红 牛</w>
红 烧</w>
素 食</w>
生 肖</w>
王 秀
爱 德
焦 作</w>
灵 动</w>
气 焰</w>
新 民
拷 问</w>
戈尔巴 乔夫</w>
意 甲</w>
怪 圈</w>
娄 滔</w>
大 阅兵</w>
夜 宵</w>
围 困</w>
周 秀云</w>
取 景</w>
厮 杀</w>
医 学会</w>
功 绩</w>
凝 固</w>
军 医</w>
停 蹄</w>
云 飞</w>
乌 干
中 程</w>
与日 俱
w ard</w>
sp ec
sh t
bo x</w>
ati ve</w>
as on</w>
Pi x
IPv 6</w>
D C</w>
AD S</w>
A li
2. 4%</w>
15 .</w>
/ 日</w>
龙 城</w>
首 付</w>
静 海</w>
重 特大</w>
送 行</w>
购买 者</w>
谈 到</w>
芥 末</w>
胡 云</w>
肖 像
罚 站</w>
纷 纭</w>
积分 榜</w>
猪 场</w>
犹 豫
特 人</w>
焦 炭</w>
渐渐 地</w>
清正 廉洁</w>
淤 泥</w>
水 温</w>
死 群</w>
星期 日</w>
时 代
无 暇</w>
接 盘
恍 惚</w>
怨 气</w>
德里 奇</w>
德 伯格</w>
审判 庭</w>
孟 某</w>
大 话</w>
土 味</w>
回 旋</w>
喝 彩</w>
后 继</w>
刘 小
侨 胞</w>
价 廉</w>
中 段</w>
严 选</w>
三 体</w>
· ·</w>
D I</w>
20 2</w>
音乐 剧</w>
隐 隐</w>
闷 热</w>
释 疑</w>
邮 政局</w>
越 秀</w>
话 音</w>
讨 薪</w>
自 筹</w>
自 幼</w>
羞 愧</w>
网 发</w>
移 风
盈 眶</w>
烟 机</w>
湿 气</w>
暖 和</w>
斑 斑</w>
文 哲</w>
救 起</w>
拮 据</w>
意味 深长</w>
急救 车</w>
德 县</w>
川 西</w>
尼 诺</w>
小 生</w>
委 派</w>
好好 的</w>
天 坛</w>
坠 亡</w>
哈里 斯</w>
医 用</w>
化学 反应</w>
减 退</w>
兵 种</w>
八 九
体育 运动</w>
任 由</w>
任 泽平</w>
中 转
三四 线</w>
ter s</w>
o ther</w>
a k</w>
S M
9 8亿</w>
3 10</w>
200 5.
1- 8</w>
黑 心</w>
马 兜铃</w>
风 雪</w>
颅 脑</w>
阿 德
酒 水</w>
选 牛股</w>
足协 杯</w>
莲 湖区</w>
莆田 系</w>
羞 耻</w>
眼 见</w>
相 亲
盘 查</w>
灵 堂</w>
游乐 场</w>
混 战</w>
洪 森</w>
汛 期</w>
水 口</w>
档案 馆</w>
根 子</w>
无 法
数 不胜数</w>
拳打 脚踢</w>
抗 旱</w>
所得 额</w>
房 山</w>
户 主</w>
戒 毒
怀 柔</w>
得 克萨斯州</w>
建筑 群</w>
工 部</w>
家 属
宁 德</w>
双 号</w>
勒 斯</w>
动 感</w>
到 头</w>
刘 军</w>
休 斯敦</w>
乃 是</w>
举 手</w>
不 渝</w>
一 千万</w>
f f</w>
4 80</w>
29 9</w>
192 8年</w>
19 8</w>
0 1日</w>
鲁 山</w>
适 得其
退 路</w>
象征 性</w>
药 片</w>
荣 光</w>
艺 考</w>
联 结</w>
纽约 市</w>
米 格</w>
租 借</w>
盗 墓</w>
疯 子</w>
男 子
电磁 波</w>
版 块</w>
流行 病学</w>
注射 液</w>
民 权</w>
李 子
杀 手
易 燃
无 限期</w>
擦 肩
摊 销</w>
恶作 剧</w>
快 餐
庆 区</w>
小 龙
官 宣</w>
完 结</w>
增 生</w>
国产 化</w>
国 税局</w>
围 挡</w>
围 住</w>
唯 恐</w>
咸 宁</w>
吹风 会</w>
君子 兰</w>
参 考
刺激 性</w>
刘 洪
元 /</w>
候 选</w>
保 证书</w>
便 衣</w>
价 差</w>
主席 台</w>
东 西方</w>
东 明</w>
一 厢情愿</w>
off er</w>
h er</w>
TN T</w>
T 2</w>
19 2</w>
14 3</w>
驶 证</w>
辛 酸</w>
订 制</w>
誓 词</w>
观 感</w>
落 魄</w>
社会 制度</w>
相互 作用</w>
爱 意</w>
游 园</w>
正 规
正 比</w>
标 称</w>
架 设</w>
李金 磊</w>
本 片</w>
本 刊</w>
撕 开</w>
恩 人</w>
心所 欲</w>
得 益
广 昌</w>
对 立面</w>
客 串</w>
学 风</w>
学 率</w>
孟 子</w>
奶 牛</w>
夜 幕</w>
地 平线</w>
嘱 托</w>
和平 共处</w>
史 记</w>
南 鹏</w>
北部 湾</w>
共 谋</w>
党 总支</w>
修 法</w>
产学 研</w>
交 际</w>
东 阳市</w>
万 州区</w>
一条 龙</w>
n bd
m s</w>
de n</w>
ay a</w>
ab out</w>
S k
G i
E T</w>
200 9.
2. 9%</w>
1. 8亿</w>
高 雅</w>
马不 停蹄</w>
释 义</w>
逼 人</w>
适得其 反</w>
追 讨</w>
调 整
识 破</w>
蜗 牛</w>
苏 亚
端 庄</w>
福 气</w>
祖 师</w>
磨 损</w>
特鲁 多</w>
特 此</w>
清清 楚楚</w>
本 钱</w>
末 尾</w>
有 意
新 近</w>
掌 柜</w>
恒 丰</w>
必由 之路</w>
幽 灵</w>
并 轨</w>
巴 彦
崇 祯</w>
山 寨
密 云</w>
客 轮</w>
安置 点</w>
威廉 ·
卢 沟
前 门</w>
冰 球</w>
亚 当
主 委</w>
一 二三</w>
www. sina.com.cn</w>
Wor ld</w>
Sir i</w>
Le vel2</w>
CB D</w>
B P</w>
6 8亿</w>
10 3.
龄 童</w>
麻 疹</w>
馨 予</w>
集聚 区</w>
险 恶</w>
阔 腿裤</w>
绿 洲</w>
综 述</w>
站 岗</w>
移风 易
科学 化</w>
牡丹 江</w>
热 泪
浦 江</w>
污 点</w>
水 龙头</w>
水 滴</w>
杜 甫</w>
敏 捷</w>
接 壤</w>
拆 开</w>
扔 下</w>
慈善 法</w>
好 人
套 数</w>
套 房</w>
含 蓄</w>
台 北市</w>
发 火</w>
卡 住</w>
卖 萌</w>
加 元</w>
到 会</w>
刀 刃</w>
六 甲</w>
任 者</w>
· 卡
e k
a ir
Sur face</w>
8 6亿</w>
14 9</w>
1. 7亿</w>
鸽 子</w>
鲫 鱼</w>
非 公
青 山
酷 刑</w>
酒 类</w>
适 中</w>
迷 雾</w>
迥 异</w>
费 城</w>
贡献 者</w>
花 香</w>
胡 耀邦</w>
老 爷</w>
罗斯 福</w>
约 旦</w>
突 尼斯</w>
离 间</w>
监 事会</w>
癫 痫</w>
王 三
牛 鼻子</w>
滋 补</w>
水 河</w>
水 沟</w>
民 办
来 年</w>
普及 率</w>
易 懂</w>
新 飞</w>
援 藏</w>
抽 血</w>
护肤 品</w>
成 风</w>
总 编</w>
张小 龙</w>
师 徒</w>
工 商业</w>
家 委会</w>
字 里
天 涯
大 棒</w>
外 孙</w>
口 吻</w>
千 伏</w>
加盟 商</w>
切 开</w>
分 会场</w>
冰 柜</w>
假 话</w>
传 音</w>
五 常</w>
上 火</w>
whi ch</w>
w hat</w>
s si
co me</w>
ber g</w>
W IF
L L
39 万</w>
10 :00</w>
高 精尖</w>
骑 马</w>
首 付贷</w>
陈 军</w>
钱 宝</w>
追 悼
跨 过</w>
起 航</w>
质 量
调 休</w>
航 器</w>
编 排</w>
纷 繁</w>
特 首</w>
火箭 军</w>
流 长</w>
水 墨</w>
欺 压</w>
格鲁 吉
李 飞飞</w>
旅游 团</w>
救 救</w>
政 务
抗震 救灾</w>
忘 掉</w>
年 利率</w>
巴 育</w>
工人 阶级</w>
奇 异</w>
夹 克</w>
天 主教</w>
回 民</w>
周 旋</w>
动 情</w>
全 身心</w>
光 速</w>
停 机</w>
以 权
与日俱 增</w>
s ch
re c
nbd news</w>
Q E</w>
- 0.
麾 下</w>
高 领</w>
靴 子</w>
陋 习</w>
退伍 军人</w>
轴 线</w>
资 金
贺 龙</w>
论 点</w>
警 示
藏 区</w>
自 诩</w>
练 习生</w>
纪 元</w>
约 瑟
红 雷</w>
积 率</w>
秋 日</w>
监督 权</w>
监察 厅</w>
琳 娜</w>
狐 狸</w>
滨 州</w>
流 拍</w>
江 阴</w>
残 联</w>
死 死</w>
束 手无
护 卫</w>
志 同道
庆 生</w>
岳 云鹏</w>
密 布</w>
实力 派</w>
大 打
塞 内
后 劲</w>
吉尔吉斯 斯坦</w>
各 县</w>
协 办</w>
加油 机</w>
临 汾
丝 绸</w>
一 世</w>
S 8</w>
LI GO</w>
7 3
25 0
0 7日</w>
隔 空</w>
里 夫</w>
速 递</w>
跋 涉</w>
赵 少
西 门</w>
艾 侃
艾侃 股</w>
空 港</w>
着 落</w>
盛 夏</w>
电 瓶车</w>
王志 安</w>
热泪 盈眶</w>
潜 航器</w>
沈 南鹏</w>
柱 子</w>
方 舟子</w>
文 史</w>
摇 摇
推 介
手 不及</w>
性 爱</w>
当 量</w>
当 家</w>
张旭 豪</w>
张 俊</w>
字 典</w>
坦 桑
喜 怒
发 电量</w>
历史 系</w>
千家 万
千家万 户</w>
千 秋</w>
刘 慈欣</w>
冬 瓜</w>
侵 权
传 销
以权 谋私</w>
临 港</w>
专 著</w>
三亚 市</w>
TFB OY
L u
马 方</w>
震 感</w>
银 牌</w>
连锁 反应</w>
贷 款
财 新</w>
说 理</w>
[...]
